<unk>	0
<s>	0
</s>	0
.	-2.64521
,	-4.3576
:	-4.45409
▁cuar	-4.97303
▁	-5.29773
▁nguwowif	-5.35059
▁'	-5.39543
▁Vieetj	-5.45439
▁bij	-5.48335
▁vaf	-5.48837
▁cho	-5.50065
▁"	-5.51889
▁owr	-5.5459
▁trong	-5.56446
▁Nam	-5.581
▁vowis	-5.6461
▁coong	-5.64696
'	-5.65314
?.	-5.66807
▁taij	-5.68779
▁cos	-5.71511
▁ddoongf	-5.76734
▁khoong	-5.79268
"	-5.85664
▁veef	-5.87066
▁ddaauf	-5.9216
▁-	-5.93366
▁Quoocs	-5.95537
s	-5.96485
▁nawm	-5.9934
▁treen	-6.02795
▁ddoongj	-6.03518
▁Myx	-6.06941
▁xe	-6.07236
▁sinh	-6.08596
▁nhaan	-6.09011
-	-6.09582
▁Haf	-6.10599
▁nhaf	-6.12537
▁mowis	-6.12987
▁dduwowcj	-6.13877
▁vif	-6.13953
▁nhaats	-6.15627
▁lamf	-6.17299
▁hangf	-6.17862
▁Trung	-6.18594
▁vaof	-6.22976
▁gias	-6.22978
▁vuj	-6.2493
r	-6.26032
▁ngayf	-6.2713
▁hocj	-6.28881
▁nuwowcs	-6.30298
▁ddeer	-6.30457
▁tuwf	-6.30835
▁cacs	-6.30995
▁2	-6.32992
▁daan	-6.33098
▁sex	-6.37345
▁Nooij	-6.38637
▁thanhf	-6.39129
▁ra	-6.39453
▁tawng	-6.41657
▁truwowngf	-6.41801
▁gia	-6.4224
▁3	-6.42879
▁giowis	-6.4354
▁ddaij	-6.43871
▁dduwowngf	-6.44114
▁hooij	-6.45488
▁thees	-6.46098
▁laij	-6.46481
▁con	-6.47551
▁ans	-6.47797
▁Nhuwngx	-6.50073
▁tyr	-6.50899
▁laf	-6.50974
▁khi	-6.51237
▁cheets	-6.51465
▁trieeuj	-6.51536
f	-6.51653
▁mootj	-6.5217
▁vieen	-6.54021
▁ddi	-6.5411
▁theer	-6.57298
▁tinhf	-6.57304
▁Nga	-6.59596
▁nghieepj	-6.60122
▁cao	-6.60512
▁hieenj	-6.62772
▁mays	-6.6404
▁anhr	-6.64166
▁nuwx	-6.64286
x	-6.6536
▁ddeens	-6.6567
▁hown	-6.66047
▁hinhf	-6.66097
▁tees	-6.66517
▁ddieenj	-6.66885
▁bans	-6.66894
▁sanr	-6.67829
▁phats	-6.68121
▁xuaats	-6.68883
▁sau	-6.70089
▁giair	-6.70192
▁5	-6.70441
▁ddepj	-6.70509
▁ddieemr	-6.70703
▁ddoois	-6.71153
▁thi	-6.71785
▁chinhs	-6.72715
▁Coong	-6.73132
▁tin	-6.73486
▁tieenf	-6.73533
▁ddax	-6.73552
j	-6.74388
▁tuwr	-6.74637
▁hanhf	-6.74762
▁trer	-6.74776
▁1	-6.74824
▁lys	-6.76079
▁10	-6.77275
▁thoong	-6.77662
▁ddinhj	-6.77809
▁cow	-6.77965
▁tieeps	-6.7809
▁duwj	-6.78495
▁4	-6.78802
▁sao	-6.80385
▁caauf	-6.81124
▁booj	-6.81573
▁chieens	-6.82548
".	-6.82641
▁suwj	-6.82689
▁nhuwngx	-6.82886
▁keets	-6.8306
'.	-6.83453
▁quoocs	-6.85413
▁thuwowng	-6.85808
▁giamr	-6.86531
▁taif	-6.87252
!.	-6.8791
▁ddieeuf	-6.8827
▁Anh	-6.88503
▁leen	-6.88691
▁bay	-6.89309
▁sats	-6.89704
▁thur	-6.90177
▁coor	-6.90956
▁truwowcs	-6.91029
▁nhaanj	-6.91144
▁soos	-6.91157
▁nhieeuf	-6.91846
▁caaps	-6.92212
▁(	-6.92893
▁ddanhs	-6.93151
▁tuooir	-6.93972
▁gais	-6.9414
▁quan	-6.94844
▁howpj	-6.95105
▁qua	-6.95434
▁ddoong	-6.95695
▁bawngf	-6.95917
▁kinh	-6.96337
▁an	-6.96901
▁lowns	-6.97658
▁baos	-6.97744
▁ddaats	-6.97827
▁tuw	-6.98095
▁tacs	-6.98882
▁mawts	-6.99242
▁vangf	-6.99415
▁Booj	-6.99897
▁bawts	-7.00107
▁chir	-7.00848
▁Nguwowif	-7.00975
▁tay	-7.0122
▁thu	-7.01265
▁mawtj	-7.01291
▁baats	-7.01464
▁vaanx	-7.016
▁khachs	-7.01861
▁boos	-7.02253
▁yeeu	-7.02375
▁quaan	-7.02519
▁trinhf	-7.02924
▁mua	-7.03289
▁thoongs	-7.04545
▁gaay	-7.0481
▁vieecj	-7.04832
▁doanh	-7.05398
▁6	-7.05615
▁cungf	-7.05775
▁tuwj	-7.05777
▁phair	-7.05977
▁dungj	-7.05997
▁thangs	-7.06387
▁giao	-7.06755
▁beenhj	-7.07852
▁ddooj	-7.0869
▁hoas	-7.08776
▁TP	-7.08916
▁nanj	-7.09071
▁chuwcs	-7.09502
▁trieenr	-7.09564
▁thij	-7.10008
▁Thanh	-7.10404
▁canhr	-7.10776
▁ddeef	-7.11635
▁thuwcj	-7.12248
▁phongf	-7.12826
▁toanf	-7.12935
▁Nhaatj	-7.1294
▁baor	-7.13263
▁ddooij	-7.14996
▁bieenr	-7.15506
▁six	-7.15845
▁banj	-7.16245
▁Toongr	-7.16495
▁truwowngr	-7.17177
▁lichj	-7.17294
▁manhj	-7.17555
▁awn	-7.17863
▁khai	-7.17869
▁quyeets	-7.17931
▁do	-7.18598
▁tucj	-7.18861
▁hieeuj	-7.19165
...	-7.19843
▁tauf	-7.19859
▁mangj	-7.20309
▁tra	-7.20399
▁Binhf	-7.21207
▁oong	-7.21265
▁U	-7.21446
▁luwcj	-7.21595
▁nhaapj	-7.21616
▁thowif	-7.21853
▁phamj	-7.21862
▁USD	-7.22052
▁tuwowngj	-7.22327
▁M	-7.22348
▁taapj	-7.23188
▁laanf	-7.23243
▁thuwcs	-7.23745
▁cachs	-7.24481
▁maats	-7.25282
h	-7.25378
▁7	-7.25819
t	-7.25974
▁Thur	-7.26132
▁tieeu	-7.27409
▁ddas	-7.27449
▁nhuw	-7.27824
▁cuoocj	-7.28452
▁quar	-7.28702
▁haauj	-7.29314
▁chur	-7.29843
▁looj	-7.29953
▁thuws	-7.31175
▁tuwowngs	-7.3144
/	-7.31553
▁choongf	-7.32158
▁em	-7.32177
▁ddaoj	-7.32233
▁bor	-7.32639
▁9	-7.33294
▁tinhs	-7.3375
▁laapj	-7.33859
▁trowr	-7.33963
▁ddoocj	-7.34103
▁tieen	-7.34624
▁sieeu	-7.34756
▁phas	-7.34918
▁luwowngj	-7.34928
▁Hanf	-7.34944
▁trowj	-7.35039
▁ddang	-7.35099
▁Bawts	-7.35322
▁cuwus	-7.35804
▁cas	-7.35928
▁taans	-7.35942
▁8	-7.36088
▁xaay	-7.36278
▁vowj	-7.36516
▁phaamr	-7.36563
▁Chur	-7.36946
▁Thais	-7.37082
▁duwngj	-7.37173
▁hai	-7.3718
▁ddooir	-7.37275
▁nawng	-7.37457
▁mej	-7.37511
▁dichj	-7.38651
▁towis	-7.38892
▁gaanf	-7.38986
▁traanj	-7.39084
▁phuj	-7.39796
▁soongs	-7.40029
▁nghij	-7.40076
▁ngheej	-7.40088
▁ddaaus	-7.40397
▁ddoanf	-7.40526
▁trai	-7.4089
▁teen	-7.41376
▁trang	-7.4163
▁bongs	-7.41857
▁phoos	-7.4217
▁du	-7.42344
▁dungf	-7.42358
▁choongs	-7.42442
▁Phats	-7.42602
▁tichj	-7.42627
▁Khoong	-7.42757
▁chuwa	-7.4296
▁sachs	-7.43168
▁Quangr	-7.4324
▁ddinhf	-7.43271
▁xuwr	-7.43636
▁trongj	-7.4397
▁tranh	-7.44097
▁phaps	-7.44264
▁sangs	-7.44341
▁banr	-7.44488
▁ddaf	-7.44491
▁taoj	-7.44507
▁thanh	-7.44633
▁Minh	-7.44718
▁taam	-7.44803
▁Hair	-7.45619
▁Hoa	-7.45638
▁Hooij	-7.45767
▁naof	-7.45911
▁chees	-7.45929
▁dieenx	-7.46033
▁giuwx	-7.4605
▁toos	-7.46067
▁Lan	-7.46282
▁Nhaf	-7.46847
▁bes	-7.47039
▁thuw	-7.47074
▁tham	-7.4737
▁suwr	-7.47398
▁A	-7.47831
▁phucj	-7.48506
▁chaats	-7.48679
▁thawngs	-7.48714
▁Banr	-7.48777
▁khos	-7.49644
▁Teets	-7.4984
▁Tieen	-7.49972
▁vong	-7.50025
▁gif	-7.50425
▁S	-7.50597
m	-7.50812
▁veej	-7.50877
▁VN	-7.50941
▁giuwax	-7.51238
▁Kyf	-7.52049
▁giaos	-7.52269
▁Bawcs	-7.52307
▁An	-7.52645
▁tichs	-7.52646
▁vieenj	-7.52665
▁nongs	-7.52803
S	-7.52915
▁kyf	-7.53071
▁caanf	-7.53609
▁AS	-7.5417
▁dduwcs	-7.54268
▁chuyeenr	-7.54281
▁khis	-7.54552
▁muaf	-7.54567
▁heej	-7.54622
▁saan	-7.55448
▁timf	-7.55531
▁ddoo	-7.5563
▁trij	-7.55769
▁kyr	-7.56054
▁Gias	-7.56112
▁lieen	-7.56121
▁giups	-7.56284
▁khungr	-7.56838
▁hooj	-7.56841
▁tieengs	-7.5688
▁ddeem	-7.57192
T	-7.57287
▁Nguyeenx	-7.57359
▁Hoof	-7.57365
▁phim	-7.57616
▁quyeenf	-7.57642
▁dieenj	-7.58085
▁theem	-7.5835
▁ddaor	-7.58578
▁giar	-7.58789
▁Taay	-7.59045
▁chuyeenj	-7.59984
▁phis	-7.60087
▁danh	-7.60209
▁hoa	-7.60426
▁vawn	-7.60754
▁car	-7.61117
▁voo	-7.6183
▁ngowf	-7.61833
▁sawcs	-7.61874
▁camr	-7.61966
▁ddoof	-7.62163
▁muoons	-7.62431
▁xax	-7.62922
▁khu	-7.62935
U	-7.62951
▁chung	-7.6325
▁luwar	-7.63462
▁haij	-7.63719
▁Xe	-7.64071
▁Vuj	-7.64714
▁Mootj	-7.65219
▁khaaur	-7.65258
▁thuaatj	-7.65272
▁coo	-7.65479
▁nhieemj	-7.66082
▁sowr	-7.66749
▁B	-7.66814
▁chaan	-7.6691
▁chaau	-7.67052
▁uwngs	-7.67151
▁Hoangf	-7.67328
▁ddons	-7.67532
▁bieens	-7.67659
▁conf	-7.67734
▁khieens	-7.67792
▁ma	-7.68177
▁tieets	-7.68525
▁Ba	-7.68548
▁thuoocs	-7.68867
▁tuyeenr	-7.68948
▁ddanf	-7.68989
▁Trieeuf	-7.69029
▁thoaij	-7.69032
▁tuaanf	-7.69438
o	-7.69648
▁nooir	-7.69665
▁ys	-7.70083
▁nieen	-7.7014
▁kys	-7.70265
▁thaan	-7.70291
▁Thanhf	-7.70447
▁cuwowps	-7.71102
▁suwcs	-7.71178
▁chuwngs	-7.71447
▁ddowif	-7.71735
▁oo	-7.71851
n	-7.71888
▁V	-7.72146
▁caos	-7.72308
HCM	-7.72439
▁vux	-7.72459
▁tinhr	-7.72489
▁kees	-7.72544
▁lao	-7.7262
▁Ngocj	-7.72669
▁chowi	-7.72813
▁Man	-7.73072
▁maaux	-7.73143
▁gawpj	-7.73185
▁ca	-7.73452
▁mowr	-7.73653
▁phieeus	-7.73808
▁C	-7.7399
▁ngoaif	-7.73995
▁vongf	-7.74125
▁ty	-7.74306
▁trung	-7.7446
▁truyeenf	-7.7478
▁Sown	-7.74819
▁dduwa	-7.74958
▁nguy	-7.75171
▁Nhieeuf	-7.75198
▁theo	-7.76335
D	-7.76562
k	-7.76563
▁ngoaij	-7.76687
▁phatj	-7.76926
▁lowij	-7.76992
▁Giair	-7.77109
▁ddatj	-7.77413
).	-7.77425
▁Nawngx	-7.77551
▁kieenj	-7.77571
▁leex	-7.77718
i	-7.77722
▁nois	-7.77813
▁hoatj	-7.78013
▁Long	-7.78019
a	-7.78026
▁tair	-7.78135
▁Vawn	-7.78188
▁daauf	-7.78315
▁Duwowng	-7.78492
▁20	-7.78779
▁sang	-7.78911
▁khoe	-7.79003
▁noong	-7.7912
e	-7.7916
▁trar	-7.79193
y	-7.79269
▁thuwowngf	-7.79356
▁toots	-7.79513
▁ddaam	-7.79536
▁chuaanr	-7.79559
▁tai	-7.79676
1	-7.7975
▁hoachj	-7.79755
▁thaanf	-7.79942
▁mang	-7.80251
▁nhau	-7.806
▁vi	-7.80635
▁trais	-7.80658
▁neen	-7.80804
▁toor	-7.80882
▁HLV	-7.81908
▁hieemr	-7.81949
▁cuoois	-7.81953
▁Cacs	-7.81973
▁hoanf	-7.82065
▁ngaan	-7.82121
▁bieetj	-7.82203
▁bieeur	-7.82336
▁Syria	-7.82464
▁12	-7.82989
▁minhf	-7.82992
▁vaatj	-7.83076
▁daanx	-7.83218
▁quas	-7.83234
▁sawps	-7.83325
H	-7.83531
▁lo	-7.83549
▁daif	-7.83911
▁Caanf	-7.84297
▁kieemr	-7.84467
▁baauf	-7.84746
▁luaatj	-7.84865
▁cuwowis	-7.84961
▁binhf	-7.85602
▁xuoongs	-7.86016
▁nay	-7.86189
▁Phaps	-7.86241
ng	-7.86305
▁banf	-7.86367
▁ddawcj	-7.8642
▁giowf	-7.86824
▁vij	-7.86847
▁ddown	-7.87173
▁di	-7.87367
▁tuf	-7.87609
▁hay	-7.87618
N	-7.87662
▁ddiaj	-7.8781
▁nghi	-7.88471
▁cuwar	-7.8852
▁soong	-7.88744
▁nhacj	-7.8892
P	-7.88997
▁Thij	-7.89031
▁Real	-7.8935
▁cuwcj	-7.89548
▁vungf	-7.89582
▁pheps	-7.89794
A	-7.89813
▁cuwr	-7.89946
▁phur	-7.90023
▁Truwowngf	-7.90065
▁gieets	-7.90381
▁bis	-7.90573
▁too	-7.91273
▁ddooi	-7.91515
▁ddor	-7.91747
▁khoans	-7.91768
▁Ngayf	-7.91852
▁laj	-7.91984
▁Bis	-7.92046
▁chays	-7.9208
▁chayj	-7.92119
▁ddawng	-7.92236
▁thieeus	-7.92256
▁quy	-7.92456
▁Chelsea	-7.92633
▁voons	-7.9283
▁ker	-7.92851
▁aos	-7.93071
▁loaij	-7.93252
▁Thu	-7.93364
▁thieets	-7.93514
▁ngooi	-7.93642
G	-7.93648
▁Giang	-7.93705
▁vuwowtj	-7.93829
▁vaans	-7.94068
▁longf	-7.94157
▁hoangf	-7.94232
▁vaanj	-7.94493
▁troomj	-7.94697
▁Arsenal	-7.94828
▁bieets	-7.94961
▁thawm	-7.9505
▁nguyeen	-7.95087
▁Sao	-7.95175
▁Lee	-7.95547
▁loatj	-7.95721
▁T	-7.9611
C	-7.96284
▁cans	-7.9643
▁Hangf	-7.96593
▁nooij	-7.96815
▁G	-7.97562
▁phuwowng	-7.98112
▁ducj	-7.98412
▁baf	-7.98599
▁thay	-7.98836
▁xacs	-7.98855
▁tieens	-7.98893
▁thuees	-7.98969
▁11	-7.99353
▁phaanf	-7.99492
▁hoof	-7.99724
▁Chinhs	-7.99895
▁caay	-8.00018
▁haj	-8.00169
▁hoox	-8.00296
▁mieenf	-8.00411
▁nowj	-8.00573
▁thieetj	-8.00606
▁hooif	-8.00625
▁hoon	-8.00753
▁Phuwowng	-8.00977
7	-8.01572
▁cuwowngf	-8.01595
M	-8.01782
▁sungs	-8.02137
▁ngheof	-8.0215
▁ddaayr	-8.02261
▁Kinh	-8.02547
▁noor	-8.02793
▁cuw	-8.02815
▁been	-8.0284
▁ba	-8.03106
▁kieens	-8.03138
▁baox	-8.03191
▁tir	-8.03234
▁chi	-8.03335
▁ddoocs	-8.03507
▁ddoor	-8.03596
▁minh	-8.03656
▁tuys	-8.03752
▁thuyr	-8.03797
▁Ninh	-8.03875
▁Sa	-8.03952
ts	-8.04086
▁15	-8.04093
c	-8.04841
▁ddaof	-8.04993
▁tooij	-8.05023
▁Ukraine	-8.05241
▁vongj	-8.05251
▁tinh	-8.05407
▁y	-8.05535
▁Baor	-8.05639
▁ddua	-8.05678
▁iPhone	-8.05755
2	-8.05942
▁tais	-8.06115
▁Aans	-8.06663
▁hats	-8.06832
▁Tin	-8.06859
▁ddangs	-8.0698
▁tooi	-8.07095
▁tawngj	-8.07287
▁Saif	-8.07461
▁thuwowngr	-8.07876
▁xin	-8.08205
▁quanr	-8.08593
▁vuwcj	-8.08696
▁duwowis	-8.08753
▁rowi	-8.08901
▁sai	-8.09184
▁Hai	-8.09381
▁heets	-8.09505
▁langf	-8.09507
▁Kim	-8.09998
▁gian	-8.10032
B	-8.1005
▁thamr	-8.10271
▁bom	-8.10627
▁da	-8.10656
▁nam	-8.1067
▁Tawng	-8.1073
5	-8.10767
▁Oong	-8.10775
X	-8.10945
▁lowif	-8.1105
▁F	-8.1114
▁Ngheej	-8.11213
▁muwa	-8.11236
▁phieen	-8.11311
▁Vif	-8.11377
▁xanh	-8.11537
▁xem	-8.11649
▁Khowir	-8.11765
▁quys	-8.1181
▁nieemj	-8.11919
▁ddichj	-8.11935
▁khoir	-8.11939
▁Nguyeen	-8.11951
▁maatj	-8.1197
▁giams	-8.12172
▁lucj	-8.12491
▁truwcj	-8.12556
▁huwowngs	-8.12571
▁Nuwx	-8.12598
▁nganhf	-8.12777
3	-8.128
23	-8.12998
▁chuwowng	-8.13276
▁Cup	-8.13285
▁Lieen	-8.13295
▁ddongs	-8.13303
▁City	-8.13578
▁anh	-8.13753
▁lanhx	-8.13757
▁Gonf	-8.13819
▁bawns	-8.13975
▁Chis	-8.14315
▁chia	-8.14374
▁chonj	-8.15093
▁cungx	-8.15123
▁roongj	-8.15369
▁sow	-8.15396
▁nghieemj	-8.15556
▁nhor	-8.15716
▁luwaf	-8.15717
▁luwu	-8.16009
▁30	-8.16128
▁IS	-8.16438
▁tris	-8.16627
▁hanj	-8.16887
▁Xuaan	-8.17047
▁bao	-8.17122
▁Cuoocj	-8.17184
4	-8.17347
▁ddangr	-8.17438
▁huts	-8.17633
▁Baos	-8.17777
9	-8.17818
▁manf	-8.18267
▁Phos	-8.18342
▁tuyeens	-8.18632
▁lieeuj	-8.18818
ats	-8.19
▁nawngj	-8.19395
▁100	-8.19503
▁ddamf	-8.19629
▁ddootj	-8.19659
l	-8.19816
▁goij	-8.20067
▁phanr	-8.20073
▁Linh	-8.20265
▁nhieemx	-8.20402
▁thaats	-8.20403
▁cux	-8.20658
▁binh	-8.2066
▁trof	-8.20735
▁Ronaldo	-8.20839
▁laix	-8.21056
▁laays	-8.21264
▁maij	-8.21489
▁nhowf	-8.21564
u	-8.22283
▁K	-8.22351
▁thaatj	-8.22525
▁toocs	-8.22601
▁ruwngf	-8.22603
▁Phongf	-8.22671
▁Canhr	-8.22694
▁nhanh	-8.22989
▁Aau	-8.23136
▁Huwowng	-8.23145
▁Duwj	-8.23171
▁hef	-8.23387
▁Hown	-8.23536
▁Chaau	-8.23696
▁TPHCM	-8.2382
▁Bij	-8.23956
▁gianhf	-8.24052
▁daam	-8.24173
▁ddau	-8.24434
▁nhuwng	-8.24466
▁Cos	-8.24519
▁khowir	-8.24757
▁rooif	-8.25127
▁H	-8.25163
▁macj	-8.25481
8	-8.25609
▁I	-8.25866
▁suaats	-8.25946
▁nhoms	-8.26212
▁24	-8.26418
V	-8.26489
▁naang	-8.26634
▁huwux	-8.26664
▁Hoaf	-8.26676
▁phong	-8.26924
▁chuyeen	-8.26952
▁looix	-8.27089
▁muwngf	-8.27285
▁Doanh	-8.27301
L	-8.27401
▁Khi	-8.275
▁mooi	-8.28053
▁hatj	-8.2807
▁bieen	-8.28197
▁Video	-8.28356
▁xawng	-8.28551
▁truy	-8.28556
K	-8.28763
▁thoats	-8.28848
▁xinh	-8.28931
▁13	-8.28959
▁linhx	-8.29028
▁La	-8.29127
▁dda	-8.29289
▁chis	-8.29303
▁Con	-8.29643
▁Phus	-8.29692
▁hoaf	-8.29751
▁Khanhs	-8.29919
▁Chi	-8.30205
▁coos	-8.30277
p	-8.30445
▁Khai	-8.30489
▁Coo	-8.30684
▁khoa	-8.30692
▁nghir	-8.30794
▁League	-8.31278
▁aps	-8.31333
▁ĐH	-8.31418
▁trowif	-8.31474
▁vuwaf	-8.31577
▁Gia	-8.3168
▁myx	-8.31729
▁baij	-8.31845
▁muwcs	-8.3185
▁Top	-8.3197
▁vui	-8.32154
▁lais	-8.32613
▁ves	-8.32644
▁aam	-8.32695
▁tuwngf	-8.32891
▁Traanf	-8.33103
▁thaays	-8.33213
▁thuwr	-8.33305
▁daay	-8.33348
▁18	-8.33448
▁D	-8.33503
▁xa	-8.33533
▁Lys	-8.3356
▁baif	-8.33571
▁deex	-8.33695
▁ngheef	-8.33723
▁ddawtj	-8.33782
▁N	-8.33955
)	-8.33965
▁Bieenr	-8.33987
▁Lamf	-8.34017
▁caams	-8.34121
▁Tauf	-8.34182
▁songs	-8.34294
▁Theem	-8.34419
▁Chuyeenj	-8.34843
▁tung	-8.34895
▁Barca	-8.35089
▁ddoif	-8.35123
▁kichs	-8.35144
▁Quaan	-8.35199
▁Ban	-8.35303
▁Sex	-8.35407
▁Baif	-8.3545
▁thus	-8.35475
▁X	-8.35516
▁khawcs	-8.35624
an	-8.35759
▁14	-8.35805
▁thichs	-8.35953
▁tuyeen	-8.35984
▁hangj	-8.35991
▁Y	-8.36325
▁2015.	-8.36744
▁trawm	-8.36764
▁ngay	-8.36794
▁Iran	-8.36795
▁cawn	-8.36818
▁16	-8.36979
▁xets	-8.37149
▁xees	-8.37566
la	-8.37599
▁mauf	-8.377
▁phaan	-8.37823
▁Cachs	-8.37938
▁lux	-8.37948
▁ai	-8.38214
▁quans	-8.38415
▁phongs	-8.3864
▁Nha	-8.38774
6	-8.38856
▁chowj	-8.38874
▁Tuwf	-8.38929
▁cung	-8.38962
▁trawngs	-8.39073
▁Mai	-8.3928
▁hoaj	-8.39339
▁bangr	-8.3938
▁Daan	-8.39397
▁Ai	-8.39398
g	-8.39411
▁Hocj	-8.39486
▁kieems	-8.39544
▁Trang	-8.39669
▁doaj	-8.39711
▁E	-8.39782
▁thieenj	-8.39857
▁Laof	-8.3993
▁toois	-8.39951
▁maf	-8.40078
▁luwowng	-8.40078
▁nowi	-8.40165
▁tuwowngr	-8.40273
▁laauj	-8.40296
▁nuooi	-8.40706
▁this	-8.40841
▁Taan	-8.40914
▁soots	-8.41177
▁banhs	-8.4125
▁huwowngr	-8.41411
▁toongr	-8.41416
▁P	-8.41709
▁Nawm	-8.41723
▁Quang	-8.41774
▁aans	-8.41883
▁chowf	-8.41886
▁maus	-8.42208
▁Hoongf	-8.42273
▁Ra	-8.42455
▁lowps	-8.42508
▁Hoas	-8.42574
▁Sieeu	-8.42793
▁Clip	-8.42893
▁leej	-8.4307
▁19	-8.43084
▁aanr	-8.432
tj	-8.43381
▁nguoonf	-8.43562
▁mucj	-8.43744
▁kichj	-8.4393
▁ddoatj	-8.4397
▁dden	-8.44164
▁chuwax	-8.44418
▁tuyeetj	-8.44423
▁mawcj	-8.44544
▁dipj	-8.4472
▁ddams	-8.44893
er	-8.44896
▁Xaay	-8.45071
▁2014.	-8.45101
▁ddaif	-8.45354
▁thao	-8.45356
▁Di	-8.45433
▁nghinf	-8.45541
▁chowr	-8.45545
▁Taapj	-8.45708
▁thaor	-8.45764
▁keos	-8.45788
▁xucs	-8.46049
▁sowms	-8.46097
▁haif	-8.46119
▁mawcs	-8.46376
▁sa	-8.46439
▁toans	-8.46842
▁mow	-8.47145
▁lieetj	-8.47281
▁mee	-8.47319
▁cair	-8.47574
▁L	-8.47642
▁lamx	-8.48106
▁suw	-8.48129
▁Suwj	-8.48139
▁ung	-8.48184
▁mieenx	-8.48195
▁World	-8.48262
▁Phamj	-8.48403
▁chieecs	-8.48443
▁Taif	-8.48844
▁quaf	-8.48954
▁bacj	-8.49086
▁toaf	-8.49201
▁nhayr	-8.49209
▁tuwcs	-8.49236
▁MU	-8.49316
▁nhinf	-8.49406
▁ban	-8.495
▁cha	-8.49511
▁tim	-8.49658
▁cais	-8.49899
▁khoer	-8.49925
▁luaanj	-8.49964
▁xaaus	-8.50017
▁Apple	-8.50098
▁kieeur	-8.50144
▁Du	-8.50434
▁tins	-8.50673
▁Messi	-8.50678
nh	-8.51022
▁boor	-8.51089
▁Liverpool	-8.51138
▁phos	-8.51273
▁chaaps	-8.5174
▁Ngaan	-8.51863
▁chieeuf	-8.51956
▁ddamr	-8.5197
▁rer	-8.52071
▁keeu	-8.52248
▁ninh	-8.52435
▁Nhaan	-8.52567
▁caan	-8.5271
▁loanj	-8.52852
▁tocs	-8.5292
▁vays	-8.52935
▁hoangr	-8.52984
▁Samsung	-8.53016
▁nghieem	-8.53052
▁thieen	-8.5327
▁17	-8.53746
▁thair	-8.53822
▁caamf	-8.54028
▁Phi	-8.54053
▁sowj	-8.54085
▁danhf	-8.5418
▁thai	-8.54301
▁Cow	-8.54445
▁Mays	-8.54535
▁thuaanj	-8.54569
ma	-8.5463
▁rox	-8.54731
▁cawts	-8.54768
▁Mourinho	-8.55054
▁Thees	-8.55067
▁Yeen	-8.55392
R	-8.55416
▁Timf	-8.55552
▁ruts	-8.5564
▁nhieen	-8.5573
▁thucs	-8.55771
▁baatj	-8.55982
▁moo	-8.56015
▁Trieenr	-8.56419
▁Vux	-8.56677
▁Caanj	-8.56698
▁nhaatj	-8.56742
▁lanhj	-8.56813
▁trachs	-8.57138
▁thaaps	-8.57199
▁thua	-8.57216
▁Thieen	-8.57302
):	-8.57552
▁sangf	-8.57569
▁Vinh	-8.57777
ta	-8.57982
▁vay	-8.58537
▁bacs	-8.58557
▁Laam	-8.58557
▁Chuwngs	-8.58578
▁truwowng	-8.5881
▁chieems	-8.59037
▁ddur	-8.59081
▁ddaau	-8.59112
▁ddungs	-8.59312
▁2016.	-8.59418
is	-8.59613
▁dduwngs	-8.59816
▁Baf	-8.5995
▁tamj	-8.60161
▁buwcs	-8.60346
▁Anhr	-8.60467
▁bawng	-8.60604
▁Leex	-8.60715
F	-8.61067
▁nayf	-8.61089
▁suwax	-8.61354
▁sawts	-8.61434
▁Giams	-8.61444
▁phee	-8.61481
▁uwu	-8.61552
▁50	-8.61633
▁Vangf	-8.61798
ay	-8.62218
▁kyx	-8.62481
▁Ca	-8.62557
▁hopj	-8.62638
▁thawngr	-8.62659
▁hungf	-8.62799
▁smartphone	-8.63063
▁huy	-8.63082
O	-8.63163
▁nguw	-8.63186
▁Luaatj	-8.63666
▁giaays	-8.63803
▁lai	-8.6386
▁25	-8.64316
▁Philippines	-8.64447
▁khacs	-8.6455
▁buwowcs	-8.64675
d	-8.65084
▁huyr	-8.65097
▁Thoong	-8.65136
▁Madrid	-8.6532
b	-8.65416
▁phi	-8.65537
▁Looj	-8.65829
▁thitj	-8.65872
▁dduwngf	-8.65955
▁ngur	-8.66072
▁huyeenj	-8.66158
▁thuee	-8.66468
▁soocs	-8.66634
▁daau	-8.67037
▁Toor	-8.67102
▁ddoots	-8.67334
▁sawnx	-8.67547
▁syx	-8.67587
▁cangf	-8.67589
▁chaof	-8.6763
▁Facebook	-8.67711
▁Thow	-8.67797
▁2013.	-8.67826
▁chawtj	-8.68112
▁sanf	-8.68156
▁khar	-8.68208
▁Keets	-8.68334
▁buoon	-8.68435
▁trao	-8.68527
▁ddaayf	-8.68719
▁phans	-8.68787
▁Vinhx	-8.68866
or	-8.69077
▁canhs	-8.69113
▁troons	-8.69143
▁moon	-8.69189
▁ngaamf	-8.69285
▁Chays	-8.69407
▁khawn	-8.69741
▁toocj	-8.69756
▁Beenhj	-8.7012
▁vai	-8.70259
▁Taam	-8.70306
▁Vietnam	-8.70675
▁quay	-8.7076
▁chinhr	-8.70812
▁cuwowif	-8.70832
▁can	-8.70873
▁Vowj	-8.70905
▁The	-8.70911
▁Ngawms	-8.70931
▁chucj	-8.71036
ra	-8.71044
▁caau	-8.7117
▁DN	-8.71187
▁Chir	-8.71226
▁nghiax	-8.71296
I	-8.71401
▁ddinhr	-8.71422
▁tawcs	-8.71568
▁Vaan	-8.71643
▁2012.	-8.71831
▁guwir	-8.72026
▁gowij	-8.72135
▁soats	-8.72205
▁Huees	-8.72557
▁saau	-8.72593
▁mons	-8.72674
▁Chieens	-8.72785
20	-8.72891
▁thuwaf	-8.73144
▁Obama	-8.73178
▁quee	-8.73234
▁Ngoaij	-8.73264
▁its	-8.73295
▁Malaysia	-8.73392
▁40	-8.73469
▁quaanf	-8.73502
▁goocs	-8.73528
▁dongf	-8.73611
▁ngon	-8.73839
▁las	-8.74233
▁200	-8.74423
▁tranhs	-8.74479
▁Xuaats	-8.74569
▁HCM	-8.7492
▁duwowngx	-8.75025
▁Thi	-8.75036
▁phucs	-8.752
▁Tinhf	-8.75412
▁chems	-8.75437
▁thoon	-8.7552
▁giauf	-8.75627
▁Xuwr	-8.757
▁Google	-8.7572
▁giaf	-8.75725
▁Bes	-8.75765
▁dij	-8.75854
▁Galaxy	-8.75891
▁uoongs	-8.75948
▁tuwowng	-8.75968
▁chawnj	-8.76081
▁chieeu	-8.76215
▁ddoonf	-8.76248
▁taangf	-8.76251
▁Tuaans	-8.76353
▁sachj	-8.76465
▁O	-8.76541
▁vowx	-8.76577
▁noois	-8.7664
▁nuis	-8.76796
▁Caauf	-8.76883
▁Ma	-8.77095
▁Thoor	-8.77122
▁Giao	-8.77304
▁dieetj	-8.77419
▁thacs	-8.7753
▁21	-8.77646
▁nhows	-8.7766
▁xuaan	-8.77734
▁traanf	-8.77932
▁ungr	-8.78159
▁thieeuj	-8.78282
▁dangs	-8.78429
▁khoas	-8.78816
▁cam	-8.78932
▁yeeus	-8.79064
▁baoj	-8.79261
▁Thuyr	-8.79286
cs	-8.79313
▁nghe	-8.79463
▁ghi	-8.79782
▁nganf	-8.7992
▁Tieeps	-8.79957
▁hieeps	-8.79972
▁gioongs	-8.80013
▁Tooi	-8.80081
on	-8.80443
▁thif	-8.8045
▁ddaos	-8.80478
▁hair	-8.80528
▁Xem	-8.8054
▁Haj	-8.8085
▁leenhj	-8.80959
▁nawngs	-8.80962
▁Vi	-8.81271
▁oonr	-8.81351
▁neeus	-8.81462
us	-8.81467
▁vuwngx	-8.81548
en	-8.81561
▁nhuaanj	-8.81603
▁phaos	-8.81641
▁?.	-8.81755
▁daaus	-8.81983
▁Lo	-8.81985
▁lucs	-8.82034
▁haaps	-8.82089
19	-8.82104
▁nuwar	-8.82319
▁toong	-8.8268
li	-8.82736
▁gaf	-8.82953
ar	-8.83126
▁Nghi	-8.83227
▁max	-8.8344
▁EU	-8.83513
▁ddaapj	-8.83608
▁chaans	-8.83646
▁cawpj	-8.83781
▁Huwng	-8.83814
▁dung	-8.83814
▁Gaanf	-8.83831
le	-8.84059
▁Nhix	-8.84181
▁taan	-8.84209
na	-8.84215
▁Sau	-8.84385
▁Chuwa	-8.84404
in	-8.84414
▁Tinhx	-8.84517
▁khocs	-8.84637
▁treo	-8.847
▁buoocj	-8.84705
▁Hy	-8.84778
▁dao	-8.84886
▁boocs	-8.85039
▁chiuj	-8.85083
os	-8.85103
▁choox	-8.85142
▁mooj	-8.85218
▁caf	-8.85254
▁Truwowng	-8.85347
▁phus	-8.8551
▁chus	-8.85638
▁ASEAN	-8.85813
▁R	-8.85922
▁truj	-8.85922
▁bongr	-8.86011
▁howi	-8.86252
▁nhej	-8.86325
▁Olympic	-8.8637
▁Indonesia	-8.86983
▁rowif	-8.87059
▁luwowcj	-8.87103
▁sung	-8.8711
▁cuj	-8.87245
▁22	-8.87381
▁ngooj	-8.87673
▁saapj	-8.87696
▁ddoanj	-8.87894
▁nhieetj	-8.87991
▁dayj	-8.88169
▁khaanr	-8.88181
▁Bacs	-8.88201
▁ngaapj	-8.88218
▁2017.	-8.88324
▁ddieeuj	-8.88326
▁Khu	-8.88352
▁thow	-8.8842
▁nguwcj	-8.88587
▁suwar	-8.88606
▁keer	-8.88821
▁Khams	-8.88952
▁phuts	-8.8896
▁ver	-8.8896
▁Trinh	-8.89046
▁suws	-8.89081
▁coongj	-8.89115
if	-8.89315
▁ddieenr	-8.89505
▁Noong	-8.89599
ch	-8.89609
▁Thawng	-8.8972
▁Quy	-8.89798
▁xuws	-8.8981
▁2015	-8.89862
▁500	-8.9006
▁changf	-8.90159
▁chimf	-8.90238
▁raats	-8.90241
co	-8.90323
te	-8.90454
▁Cuwuj	-8.90702
▁tieeur	-8.90784
▁Lai	-8.90829
▁nguwngf	-8.90849
▁moij	-8.90979
▁hot	-8.90995
▁bof	-8.91134
▁rieeng	-8.91146
▁Kieemr	-8.91207
▁Bawng	-8.91271
▁CSGT	-8.91279
▁thawng	-8.91341
▁dde	-8.914
▁Van	-8.91422
▁gops	-8.91428
▁fan	-8.91483
▁Bieen	-8.91484
▁Campuchia	-8.9149
▁trangj	-8.91503
▁vs	-8.91536
%	-8.91549
▁TQ	-8.91607
▁clip	-8.91631
▁Thieeus	-8.91648
▁Trao	-8.91661
▁luwowis	-8.91721
▁Cao	-8.91829
▁ddawts	-8.9189
▁ly	-8.91924
▁hoar	-8.9201
▁Thuwcj	-8.92021
▁duwx	-8.92039
▁Hanhf	-8.92133
▁may	-8.922
▁ddocj	-8.92523
▁Thuwowng	-8.92566
▁ngaij	-8.92922
▁thoar	-8.9304
▁racs	-8.93161
▁Dungx	-8.93166
▁tang	-8.93469
▁thachs	-8.93548
▁Thowif	-8.93587
▁Chung	-8.93837
▁chupj	-8.93863
▁hoonf	-8.94009
▁Android	-8.9406
▁ruwowuj	-8.94122
/10	-8.9419
▁2014	-8.94346
▁Kyr	-8.9439
▁Caapj	-8.94694
▁giaatj	-8.94773
▁Hoanf	-8.94796
nf	-8.94807
▁hoom	-8.94833
▁tri	-8.94857
▁chuyeens	-8.95066
▁Israel	-8.95106
▁henj	-8.95259
▁lacj	-8.95317
▁goox	-8.95336
▁Cha	-8.95337
mf	-8.95367
▁Milan	-8.95578
▁dduooir	-8.95605
▁sanj	-8.95642
▁gianr	-8.9581
▁kho	-8.95961
▁ĐT	-8.9604
re	-8.96131
▁ta	-8.96347
▁maix	-8.96416
▁2016	-8.966
▁nangf	-8.96609
/12	-8.96747
oong	-8.96833
▁Truy	-8.96911
ps	-8.96957
▁nhungx	-8.96964
▁ddapj	-8.97004
▁duwowng	-8.97093
▁Đ	-8.97242
▁thuyeenf	-8.97355
▁Lichj	-8.97667
▁to	-8.97827
▁toar	-8.97898
▁Su	-8.97921
▁pha	-8.98004
▁hoang	-8.98302
▁Brazil	-8.98375
▁luyeenj	-8.98517
▁mooix	-8.98572
▁Putin	-8.98577
▁cuwuj	-8.98614
▁Phong	-8.98699
▁baix	-8.98776
▁Coor	-8.98797
▁taamf	-8.98819
▁caapj	-8.9889
▁THPT	-8.99117
▁Windows	-8.99234
▁ddaix	-8.99244
▁giam	-8.99273
▁duwngf	-8.99302
▁troongf	-8.99335
▁27	-8.99459
▁thaayf	-8.99463
▁Tieens	-8.99541
▁Tieenf	-8.9956
▁Sowr	-8.99587
▁Tuw	-8.99668
▁Nai	-8.99705
▁Car	-8.9988
▁quangr	-9.00145
▁xuyeen	-9.00282
▁tuis	-9.00287
▁Sinh	-9.00532
▁Iraq	-9.00571
lo	-9.00588
▁Chuwowng	-9.00731
▁teej	-9.00804
▁My	-9.00815
▁hoongf	-9.00828
E	-9.00839
▁Tuwj	-9.00868
▁rux	-9.00923
/6	-9.01009
▁hung	-9.01121
▁Singapore	-9.01138
▁Phucs	-9.01232
▁baof	-9.01241
▁gaoj	-9.0138
▁hanhj	-9.01396
▁neenf	-9.01398
el	-9.01546
▁Mej	-9.01566
▁buyts	-9.01617
▁23	-9.01618
▁phias	-9.01699
▁huwowng	-9.01751
▁Giaos	-9.0176
▁xeeps	-9.02104
▁ser	-9.02409
▁kems	-9.0244
al	-9.02491
▁oom	-9.02515
▁chaus	-9.02557
v	-9.02645
▁Dieenx	-9.02701
▁taats	-9.03023
▁trungs	-9.03141
▁nhuwowngj	-9.03176
/11	-9.03235
▁Hinhf	-9.03246
▁ga	-9.03314
▁cuoons	-9.03422
▁nhis	-9.03495
▁bungj	-9.03901
▁nhi	-9.03945
▁28	-9.03981
▁ichs	-9.03996
▁cp	-9.04024
▁1.000	-9.04039
▁Games	-9.0407
ir	-9.04102
▁hoir	-9.04174
▁chij	-9.04232
▁khoor	-9.0426
▁hoopj	-9.04288
am	-9.04289
▁cuws	-9.04338
▁kim	-9.04371
▁uwowcs	-9.04386
▁khuyeens	-9.04454
▁eps	-9.04625
▁ddanj	-9.04731
▁quyx	-9.04781
▁kieemj	-9.04822
▁Barcelona	-9.04864
▁Haauj	-9.05252
▁uyr	-9.05281
▁Giamr	-9.05289
▁Huy	-9.05448
▁26	-9.05737
eeu	-9.05789
▁chamj	-9.05817
▁so	-9.05945
▁loox	-9.06025
▁Thawngs	-9.06141
▁lan	-9.06144
▁roois	-9.06177
da	-9.06181
va	-9.06298
▁thaamr	-9.06365
ri	-9.06696
▁quang	-9.06799
▁ther	-9.06924
▁khaaus	-9.06942
▁Hoo	-9.06966
▁Vongf	-9.06992
/8	-9.07037
▁nguyeenj	-9.07057
▁300	-9.07098
▁ddawngr	-9.0732
▁cums	-9.07745
▁caaus	-9.0782
▁cocs	-9.07915
▁ngax	-9.08194
▁Tuwr	-9.08246
un	-9.08268
▁nooix	-9.08417
▁Huyeenf	-9.08584
▁nguwowcj	-9.08615
▁Na	-9.08633
▁theps	-9.08936
▁Thuaanj	-9.09039
▁choois	-9.0905
▁chawm	-9.09103
▁tuws	-9.09199
▁teets	-9.09275
League	-9.09393
▁khams	-9.09451
▁gios	-9.09455
▁canhj	-9.09526
▁nguwowngx	-9.09531
▁ddowtj	-9.09716
▁Loan	-9.09725
▁Tai	-9.09737
▁Naang	-9.09918
▁chaamj	-9.09951
▁luas	-9.10093
▁Vox	-9.10173
▁tieecj	-9.102
/5	-9.10229
▁ruootj	-9.1023
▁su	-9.10468
ee	-9.10515
▁quyeens	-9.10572
▁Honda	-9.10588
▁booif	-9.10613
▁taxi	-9.10686
▁Lanhx	-9.10706
▁non	-9.1081
▁Mua	-9.10884
▁thaauf	-9.109
▁29	-9.11253
▁khoois	-9.11294
▁luwowtj	-9.11345
▁gaaps	-9.11365
▁khucs	-9.11397
▁moocs	-9.11458
▁muwu	-9.11546
een	-9.11551
▁taatj	-9.11558
▁vieets	-9.11601
▁thuj	-9.11704
▁ngawn	-9.11969
▁Microsoft	-9.11997
/7	-9.12007
▁Australia	-9.12181
▁buoonf	-9.12307
▁cown	-9.12325
▁laam	-9.12351
▁VTV	-9.1244
▁rau	-9.12515
▁ngotj	-9.12703
▁Champions	-9.12719
▁loof	-9.12726
▁Taans	-9.12761
▁cawps	-9.12804
Index	-9.12885
ha	-9.12885
▁tuwowi	-9.12897
▁ddeenf	-9.12951
▁Phuwowngj	-9.12995
▁SEA	-9.13024
▁Hawngf	-9.13148
▁hieeur	-9.13246
▁hieems	-9.13307
▁Rooney	-9.13314
atj	-9.13385
▁game	-9.13462
▁Nhaanj	-9.13498
▁2011.	-9.13514
▁thuoocj	-9.1358
▁giacs	-9.13713
▁Ker	-9.13731
▁danf	-9.14098
▁chos	-9.14602
▁vinh	-9.14821
▁rowx	-9.149
/4	-9.14942
▁kinhs	-9.14988
▁Nghij	-9.15267
▁queen	-9.15615
▁Phan	-9.15665
kg	-9.15728
▁khoanr	-9.15776
▁toonf	-9.15831
▁chieeus	-9.15841
▁sexy	-9.16036
▁Phuwowcs	-9.16224
w	-9.16428
▁60	-9.16507
▁mai	-9.16624
▁ddenf	-9.16761
▁Tuyeenr	-9.16817
▁Pa	-9.16933
▁Laij	-9.16975
▁Cai	-9.17055
▁quais	-9.17088
▁2010.	-9.17269
▁nguwx	-9.17449
000	-9.17472
▁hoois	-9.17485
khungr	-9.17522
▁Bayern	-9.17582
/1	-9.17834
▁s	-9.17847
▁Phim	-9.17878
▁quen	-9.17889
▁aams	-9.17928
▁2013	-9.17933
▁Mowr	-9.17934
10	-9.18033
as	-9.18044
▁bee	-9.18128
▁Hieepj	-9.18136
▁xar	-9.182
▁Dungf	-9.18367
▁nieemf	-9.18372
▁khans	-9.1841
▁Trij	-9.18428
▁Nuwowcs	-9.18489
▁tieem	-9.18501
▁Quys	-9.1854
▁Premier	-9.18617
▁Thuys	-9.18857
▁Nooi	-9.18878
▁ddaps	-9.19054
▁Ngaix	-9.19136
▁mong	-9.19255
▁quanh	-9.19263
▁TT	-9.19296
▁haamf	-9.19354
▁duwts	-9.19454
▁hoan	-9.19469
▁Bi	-9.1956
▁Quan	-9.19689
▁Mi	-9.19811
▁ddoox	-9.19843
▁phoois	-9.19853
▁ngawns	-9.19903
▁This	-9.19937
▁TIN	-9.19976
ti	-9.19995
▁gowx	-9.20105
▁guwowng	-9.20242
▁Chumf	-9.20258
▁meemf	-9.2026
▁Tuyeen	-9.20442
of	-9.20541
▁bowf	-9.20617
▁ngang	-9.21123
▁Lowij	-9.21134
▁Chuyeenr	-9.21179
▁linh	-9.2149
ca	-9.21664
▁ngooif	-9.21681
▁Kieen	-9.21869
▁tan	-9.21947
▁oan	-9.22007
▁sawn	-9.22026
ang	-9.22053
30	-9.22195
▁boongr	-9.22201
▁tawcj	-9.22325
▁huyeets	-9.22348
▁70	-9.22372
cj	-9.22462
▁Hungf	-9.22582
▁thieeu	-9.22624
ngf	-9.22666
▁chucs	-9.22705
▁tangf	-9.22879
▁Phuj	-9.23061
▁Tamj	-9.23067
▁Quynhf	-9.23158
▁Caf	-9.23272
▁mieengj	-9.23281
▁MC	-9.23421
▁UBND	-9.23464
▁nems	-9.23524
▁Banj	-9.23569
▁Trump	-9.23607
▁suy	-9.23612
▁gioir	-9.23665
▁Yeeu	-9.23934
▁Ngoo	-9.23953
▁beenf	-9.24019
▁Nokia	-9.24133
th	-9.24259
▁cus	-9.24298
▁Thangs	-9.24301
J	-9.24469
....	-9.24511
▁Phair	-9.24538
▁ddieepj	-9.24749
▁caix	-9.24776
▁Trongj	-9.24887
▁Thuyj	-9.25137
▁tranf	-9.25168
▁Cho	-9.25179
▁huaans	-9.25187
▁la	-9.25197
vi	-9.25266
▁rangj	-9.2563
▁J	-9.2565
▁nhaamf	-9.25759
▁dduoois	-9.25785
▁khaor	-9.25858
▁dax	-9.25906
▁top	-9.26072
▁cucj	-9.26275
▁nghieenj	-9.26307
▁United	-9.26423
▁quaanj	-9.26709
▁ddoans	-9.26762
▁Tuaanf	-9.26786
▁gois	-9.26863
▁duy	-9.26967
▁Thaor	-9.27028
▁luoon	-9.27079
▁hy	-9.27089
▁hangx	-9.27091
▁trif	-9.27092
▁W	-9.27192
▁naox	-9.27243
▁0	-9.27292
▁Chuyeen	-9.27401
▁Giangs	-9.27414
▁tans	-9.27603
▁chee	-9.27692
▁2012	-9.27732
▁Toyota	-9.27747
▁tramj	-9.27756
▁ddieen	-9.27855
▁m	-9.27868
▁thuf	-9.27901
▁Noor	-9.27936
▁aor	-9.2817
▁cuwowngx	-9.28189
▁moois	-9.28192
▁khawng	-9.28268
▁choots	-9.28306
▁tawms	-9.28407
▁haof	-9.28421
▁Luwowng	-9.28566
▁Cas	-9.28605
▁2009.	-9.28892
▁Cuwus	-9.28967
▁Traf	-9.2904
▁chuwx	-9.29201
▁nawmf	-9.29363
▁Sony	-9.29443
▁Utd	-9.29528
/3	-9.296
▁rets	-9.29644
▁vaay	-9.29671
▁cowf	-9.29743
▁socs	-9.29756
▁Tranh	-9.29764
▁soor	-9.2977
▁Bans	-9.29814
▁Em	-9.29866
▁De	-9.30111
▁Awn	-9.30152
▁New	-9.30188
▁Thuws	-9.3038
▁khen	-9.30448
▁in	-9.30528
▁hieens	-9.30579
▁aays	-9.30579
▁lownj	-9.30607
▁laamf	-9.30848
▁thaanj	-9.30996
ns	-9.31092
▁uwowng	-9.31102
ke	-9.31163
▁Pakistan	-9.31306
▁lowr	-9.31353
▁mowif	-9.314
ga	-9.3141
▁Baox	-9.31416
▁tieenj	-9.31605
▁Q	-9.31914
▁xayr	-9.31975
▁daayj	-9.32019
▁langx	-9.32041
ba	-9.32087
▁chaams	-9.32102
▁Paris	-9.32141
▁2017	-9.32175
ro	-9.32207
ing	-9.32218
▁girl	-9.32232
▁Chaan	-9.32402
▁ddaamj	-9.32449
to	-9.32449
▁nats	-9.32629
▁phaanj	-9.32776
▁trumf	-9.3281
▁Li	-9.32835
▁bi	-9.32971
▁Teen	-9.33027
▁nuwax	-9.33155
▁Huwowngs	-9.33311
▁Nguy	-9.33423
▁Nganhf	-9.33634
▁truwx	-9.33742
et	-9.33764
▁NATO	-9.33798
▁huwngs	-9.34103
▁chuwas	-9.34113
▁bia	-9.34299
▁say	-9.34346
▁iPad	-9.34363
ms	-9.34442
▁Truwcj	-9.34484
▁xoas	-9.34595
▁Hollywood	-9.34744
▁cuoongf	-9.34784
▁OO	-9.34786
▁Khos	-9.34787
▁cawng	-9.3481
▁Tungf	-9.35218
▁Phas	-9.35239
Tooi	-9.3552
▁Giowis	-9.35616
▁Vaanx	-9.35755
▁Gawpj	-9.35854
▁laatj	-9.35901
▁Suwcs	-9.35913
▁gawns	-9.35927
▁nax	-9.35937
▁dinhs	-9.36009
▁Vuwowng	-9.36133
▁kieeuf	-9.36272
▁Thuyf	-9.36324
▁oor	-9.36326
ong	-9.36482
ur	-9.36828
▁tanf	-9.36913
▁cowm	-9.37022
▁LG	-9.37066
▁trooi	-9.37079
▁Choongf	-9.37153
▁noopj	-9.37194
▁xong	-9.37229
▁Lowif	-9.37241
▁xu	-9.37296
▁taanj	-9.3736
▁ddaay	-9.3737
▁Howpj	-9.37929
▁Inter	-9.38123
▁YS	-9.38182
▁thowr	-9.38324
▁traof	-9.38472
▁haor	-9.38531
▁mor	-9.38584
▁linhs	-9.38662
di	-9.38798
awn	-9.38942
▁vuwownf	-9.39038
▁Laapj	-9.39115
▁Luwu	-9.39139
▁Thuw	-9.39146
de	-9.3917
▁duf	-9.39186
▁Ro	-9.39229
?	-9.39325
▁ams	-9.39545
▁Idol	-9.39629
▁MV	-9.39645
50	-9.39689
▁ddeeuf	-9.39848
▁truwngf	-9.39942
▁than	-9.3997
▁lotj	-9.40066
▁xaam	-9.40132
▁Tyr	-9.402
▁huw	-9.40201
▁ler	-9.40382
luwowngj	-9.40439
es	-9.40464
ow	-9.40707
▁bieenj	-9.40813
▁Euro	-9.40858
▁thaos	-9.40888
▁toom	-9.40935
▁Boof	-9.41068
▁Kieeuf	-9.41114
▁song	-9.41221
▁Nhaats	-9.41286
▁Da	-9.41337
▁ghees	-9.41435
▁Myanmar	-9.41448
▁Cucj	-9.41537
▁chuaf	-9.41785
▁vua	-9.41841
▁thuwj	-9.41891
▁Bongs	-9.42113
▁Thuwowngj	-9.42129
▁cangr	-9.42137
▁Kieens	-9.42256
▁Baauf	-9.42329
▁Hoaif	-9.42347
▁Lao	-9.42439
uwowng	-9.42483
▁Lam	-9.42594
▁sawms	-9.42642
▁Muwa	-9.42917
▁vuwowng	-9.42999
▁II	-9.43104
▁cats	-9.43117
▁bowi	-9.4329
▁thoais	-9.43392
▁80	-9.43434
▁caanj	-9.43507
▁Trer	-9.43509
▁traij	-9.4351
▁HAGL	-9.437
▁ddinh	-9.43749
▁oongs	-9.43764
▁laau	-9.43796
▁Uyr	-9.43809
▁Afghanistan	-9.43912
▁ketj	-9.43953
▁Mieenf	-9.43994
▁BANR	-9.44076
▁toon	-9.44177
apj	-9.44185
1.	-9.44207
▁giayf	-9.44272
▁ddowx	-9.44314
▁dder	-9.44559
W	-9.44621
▁luwng	-9.44622
▁Quanr	-9.44666
▁Danh	-9.4474
▁nghieen	-9.44833
▁Ha	-9.44874
▁Anhs	-9.44945
▁Nhi	-9.44967
▁Nhuw	-9.44981
▁Ngooi	-9.45226
▁Danf	-9.45245
▁duwowcj	-9.45416
▁acs	-9.45538
▁Tieets	-9.4571
▁maamf	-9.4579
▁ruwcj	-9.45834
▁Coongj	-9.45866
ĐT	-9.46062
▁Gaal	-9.46124
▁thuaanx	-9.46124
▁ddowij	-9.4625
▁Sangs	-9.46252
▁HTC	-9.46317
▁nhan	-9.46447
▁Wenger	-9.46501
▁container	-9.46764
▁MH	-9.46973
▁LHQ	-9.47038
▁ddai	-9.47314
▁Caau	-9.47412
▁phaaux	-9.4745
▁Cuwowngf	-9.47478
▁keenh	-9.47597
▁Ver	-9.47676
▁trichs	-9.47705
▁giangr	-9.47744
▁2008.	-9.48055
▁beos	-9.4813
▁tapj	-9.48242
▁Mau	-9.48285
▁Hooif	-9.48353
▁khooi	-9.48387
▁Dichj	-9.48743
▁truwngs	-9.48756
▁Theer	-9.49024
▁Nhoms	-9.49172
▁xuwowng	-9.49274
▁yeen	-9.49332
▁CĐV	-9.49349
nhf	-9.49392
▁duyeen	-9.49405
▁Soos	-9.49493
▁suoots	-9.49502
▁Cats	-9.4958
▁chungs	-9.49607
▁CLB	-9.49617
▁rongf	-9.49633
▁tuj	-9.4976
▁thais	-9.49866
▁Trais	-9.49872
▁400	-9.50172
-3	-9.50274
▁Hes	-9.50483
▁Cais	-9.50551
pj	-9.50578
bi	-9.50597
▁Trieeuj	-9.50811
z	-9.51011
▁coi	-9.51019
▁ha	-9.51147
▁buwngf	-9.51427
ol	-9.51483
▁lamj	-9.51617
▁bungf	-9.51711
il	-9.51719
▁taos	-9.51861
▁dangj	-9.51887
▁duyeetj	-9.51895
▁Ucs	-9.51896
▁video	-9.51949
▁Taij	-9.52162
▁Quyeets	-9.52203
▁khoangr	-9.52203
▁man	-9.52318
▁Toanf	-9.52328
▁thieeur	-9.52365
▁Do	-9.52366
se	-9.52454
▁beens	-9.5251
▁!.	-9.52898
▁loo	-9.53088
▁Thuwaf	-9.53121
eets	-9.53156
▁baanr	-9.53176
▁Al	-9.53282
▁Xacs	-9.53409
▁Dieemx	-9.53464
▁Taoj	-9.535
▁Truwowcs	-9.53554
▁hoor	-9.53562
▁va	-9.53621
▁Khachs	-9.53736
▁cootj	-9.53854
▁kins	-9.53929
▁Bu	-9.53939
▁moongj	-9.54082
▁Bo	-9.5415
▁Sawps	-9.54185
▁Fan	-9.54286
man	-9.54327
▁Alex	-9.54352
▁suyts	-9.54378
▁Argentina	-9.54379
▁heo	-9.54404
▁giai	-9.54482
▁CĐ	-9.545
▁Juventus	-9.54595
Q	-9.54618
▁Lapj	-9.54689
▁Toaf	-9.54767
▁coon	-9.54826
ne	-9.54971
▁GD	-9.54978
ki	-9.55004
▁Internet	-9.55111
▁tieemj	-9.55173
▁rawns	-9.55215
▁huyeenf	-9.55218
wm	-9.5526
▁aan	-9.55283
▁ngaof	-9.55332
do	-9.55335
▁Huwux	-9.55418
▁Bawngf	-9.55444
▁trucj	-9.55523
▁xuwa	-9.55561
Y	-9.55585
▁bikini	-9.55659
▁Tottenham	-9.55728
▁Khoa	-9.55742
/2	-9.55894
ni	-9.55955
▁Maats	-9.56053
▁Yeens	-9.56058
▁kg	-9.56084
▁vieem	-9.56434
▁chayr	-9.56515
go	-9.56761
▁ddaauj	-9.56869
▁31	-9.56932
▁So	-9.56969
▁vawns	-9.56971
▁Veef	-9.57025
▁xung	-9.57107
mo	-9.57135
ve	-9.57206
▁gonj	-9.57375
▁Sir	-9.5739
▁Uwngs	-9.57407
▁Truyeenf	-9.57485
▁Duy	-9.5757
▁muf	-9.5771
▁kee	-9.57726
▁Gocs	-9.57827
▁giaacs	-9.5785
▁Neymar	-9.57856
▁xoms	-9.57891
▁mais	-9.57895
▁Miss	-9.57917
▁Muaf	-9.58029
▁phuwowngf	-9.5804
ic	-9.58072
▁trucs	-9.58295
▁Chonj	-9.58304
▁Huynhf	-9.58458
▁gucj	-9.58472
▁Mexico	-9.58564
▁xao	-9.58685
▁Cups	-9.58914
▁rawng	-9.58991
▁vawngs	-9.58997
▁Ga	-9.591
uwcs	-9.59225
▁Sanr	-9.59367
▁taams	-9.59505
▁Va	-9.59608
▁Bor	-9.59653
▁ghen	-9.59701
▁Cuba	-9.59762
▁ddichs	-9.59788
▁giaaus	-9.59815
▁Nadal	-9.59827
chs	-9.59832
▁Phaan	-9.5987
▁dooij	-9.599
▁Jong	-9.59905
▁Cawpj	-9.60018
▁yeets	-9.60029
21	-9.60089
▁thang	-9.60405
▁ddan	-9.60408
▁thar	-9.60433
▁Nongs	-9.60584
▁35	-9.60586
▁Park	-9.60672
▁nhawns	-9.60712
▁phuf	-9.60812
▁Changf	-9.60841
▁Mawtj	-9.60907
▁nieem	-9.61027
▁voi	-9.61054
▁Song	-9.61097
TT	-9.61188
▁khichs	-9.61277
▁TIEEPS	-9.61361
▁Federer	-9.61458
▁Le	-9.61503
▁phais	-9.61529
▁Chieem	-9.6184
▁BMW	-9.61849
▁Ta	-9.61887
▁HIV	-9.6191
▁Airlines	-9.61935
aan	-9.61943
▁Ho	-9.62051
▁Italia	-9.62167
▁Meoj	-9.62317
▁meenhj	-9.62339
▁2010	-9.62358
▁ro	-9.62438
▁muix	-9.62461
▁ngoon	-9.62464
▁loaif	-9.62503
▁Quyx	-9.62506
▁hoanhf	-9.62765
▁Mercedes	-9.62783
▁duw	-9.62915
sieeu	-9.62993
▁Toon	-9.63261
wcs	-9.63327
▁TRUWCJ	-9.63328
▁2015:	-9.63329
▁nhaauj	-9.63552
ij	-9.6364
▁Daaus	-9.63713
ung	-9.63719
▁Lu	-9.63811
▁canr	-9.64376
▁trungf	-9.6439
▁ddaamf	-9.64414
▁thowf	-9.64439
▁Vieen	-9.64598
▁oocs	-9.64675
▁Beens	-9.64676
▁lawngj	-9.6477
▁Ly	-9.64838
▁chuas	-9.64973
▁hof	-9.65013
▁Soong	-9.65043
▁lanf	-9.6505
▁anhs	-9.65124
▁machj	-9.65157
▁vox	-9.65301
▁cong	-9.65324
▁2011	-9.65341
▁Vung	-9.65361
gi	-9.65504
bo	-9.65629
▁bachj	-9.65779
▁lof	-9.65871
▁2018	-9.65871
▁khuyeets	-9.6588
▁Buwowcs	-9.66018
▁thooi	-9.66279
▁camera	-9.6643
▁hoanx	-9.66481
▁chawn	-9.66721
▁khanhs	-9.66802
at	-9.66988
▁Laix	-9.67041
▁Latj	-9.67052
▁hoj	-9.67102
oo	-9.67116
▁khangs	-9.67176
▁Chu	-9.67225
▁nhawcs	-9.67245
▁pin	-9.6727
▁buooir	-9.67318
▁Treen	-9.67432
▁noox	-9.67639
▁leo	-9.67682
▁nghix	-9.67722
tr	-9.67752
▁hongr	-9.67759
▁u	-9.67799
ddaij	-9.67978
▁traatj	-9.68015
awng	-9.68036
-1	-9.68096
▁Phieen	-9.6812
▁Libya	-9.682
▁Hot	-9.68268
▁Pha	-9.68308
▁mats	-9.68353
▁mi	-9.68359
▁Dung	-9.68465
▁Canada	-9.68618
▁Hayx	-9.68738
▁phoor	-9.68888
▁cuwowng	-9.69004
▁maoj	-9.69024
▁dduwts	-9.69041
▁VFF	-9.69143
▁boof	-9.69146
▁GTVT	-9.69156
▁David	-9.6923
▁hieepj	-9.69275
▁manj	-9.69361
▁Banf	-9.69389
▁long	-9.69498
▁moor	-9.69592
▁Truwowngr	-9.69657
▁phu	-9.69702
oots	-9.69848
sa	-9.69852
▁traans	-9.69962
ph	-9.69964
00	-9.69973
▁cor	-9.70047
▁mux	-9.70317
ry	-9.7057
▁showbiz	-9.70628
▁Conf	-9.70681
▁Manhj	-9.70722
me	-9.70816
▁chawcs	-9.70836
▁troj	-9.70922
▁TV	-9.7102
▁beeps	-9.71051
▁Laanf	-9.71226
▁Buif	-9.71298
▁2.000	-9.71345
▁Tawngj	-9.7138
▁Djokovic	-9.71445
▁loong	-9.71462
▁phaans	-9.7147
▁show	-9.71539
▁huwas	-9.71676
▁sots	-9.7171
▁Co	-9.71867
▁Kys	-9.71971
▁nhu	-9.72166
▁Cam	-9.72173
▁Nguw	-9.72175
ce	-9.72184
17	-9.72299
▁veets	-9.72616
',	-9.7264
▁lieenf	-9.72728
▁traamf	-9.72731
▁xoo	-9.72742
▁khats	-9.72747
▁ddawngs	-9.72798
▁Nhinf	-9.72831
▁tieecs	-9.72842
▁HĐQT	-9.72883
▁Thaps	-9.72955
▁lungf	-9.73122
▁Nhax	-9.7314
▁ddungj	-9.73149
▁thuwowngj	-9.73167
▁giuwowngf	-9.73294
▁PSG	-9.73332
lu	-9.73411
▁chim	-9.73472
be	-9.73534
ine	-9.73662
▁ddoj	-9.73703
▁600	-9.73828
▁lutj	-9.73839
▁reer	-9.73846
▁vowif	-9.73862
▁quets	-9.73872
▁150	-9.74005
▁cuwngs	-9.74009
▁Re	-9.74049
▁vowtj	-9.7417
▁nguwaf	-9.74231
ai	-9.74399
▁cuwowcs	-9.74538
AN	-9.74626
▁2018.	-9.74627
▁ddef	-9.74664
Nguwowif	-9.74675
▁Caay	-9.74732
▁huwowcs	-9.74803
▁ngawms	-9.7487
au	-9.74897
▁Thieets	-9.75029
uf	-9.75193
Trieetj	-9.75282
▁lawngs	-9.75286
▁Manchester	-9.75373
▁cups	-9.75456
nguwowif	-9.75772
▁caauj	-9.75897
▁doocs	-9.76049
▁ruij	-9.76066
▁chuyeenf	-9.76091
▁rir	-9.76178
▁Mooi	-9.7618
▁ddawcs	-9.763
▁Beckham	-9.76344
▁gan	-9.76464
▁unf	-9.76473
▁mex	-9.76646
▁lowx	-9.76792
▁Thaayf	-9.76823
▁co	-9.77029
▁Bieeur	-9.77224
▁Bacj	-9.77333
▁Tais	-9.7734
▁CP	-9.77358
▁laox	-9.77481
▁Aos	-9.77536
▁vex	-9.77601
▁khoanhr	-9.77602
▁Liga	-9.77711
▁Neen	-9.77769
▁vor	-9.77824
▁Phaatj	-9.77923
▁tee	-9.77976
dda	-9.78004
▁daapj	-9.78011
▁naos	-9.78058
▁Quans	-9.7831
▁traau	-9.78325
▁In	-9.78426
▁hooi	-9.78499
▁truwf	-9.78545
▁muas	-9.78636
▁dangf	-9.78641
▁2014:	-9.7867
▁bayf	-9.78691
▁Giaps	-9.78735
▁giaps	-9.78758
▁HN	-9.78764
▁Phatj	-9.78772
▁euro	-9.78777
▁bas	-9.78848
▁scandal	-9.79038
▁2009	-9.7905
▁Duyeen	-9.79151
▁Hieeuj	-9.79213
▁nhanx	-9.79216
▁Xin	-9.79236
▁ddois	-9.79274
▁Tus	-9.79356
▁trieetj	-9.79411
▁PV	-9.7951
▁raof	-9.79624
▁Miura	-9.79714
ie	-9.79741
▁Tieeu	-9.79805
▁One	-9.79816
▁own	-9.79875
▁baacj	-9.80088
▁khoo	-9.801
▁khawps	-9.80119
▁boois	-9.80242
▁Ford	-9.80262
▁ddays	-9.80264
-2	-9.80269
▁Vaanj	-9.80361
▁Khawcs	-9.80408
▁taayr	-9.80439
▁Atletico	-9.8059
▁gocs	-9.80661
▁giaanj	-9.80724
▁Saan	-9.80754
khoong	-9.80824
▁Open	-9.80858
▁Tuwowngf	-9.8087
▁Chowj	-9.80897
yeeu	-9.80943
▁Venezuela	-9.81004
▁Mons	-9.81046
▁chuootj	-9.81063
▁100%	-9.81088
▁10.000	-9.81152
▁baayx	-9.81204
▁ngaats	-9.81229
▁Thaanf	-9.81278
▁Cuj	-9.8133
ans	-9.81343
▁Caaps	-9.81358
▁tuwowngf	-9.81379
▁Daauf	-9.81488
▁mawns	-9.81693
▁tuyeets	-9.81703
▁50%	-9.81823
▁Mee	-9.81962
▁ngux	-9.81985
Kyf	-9.81996
▁trair	-9.82003
ly	-9.82128
▁toongs	-9.82178
▁kipj	-9.82184
▁laans	-9.82477
▁uwcs	-9.82663
▁2:	-9.82713
▁QL	-9.8276
▁Tieeur	-9.82925
▁ĐBSCL	-9.82934
▁Traans	-9.82951
▁tieemf	-9.83002
12	-9.83013
▁FIFA	-9.83055
▁Chowf	-9.83066
▁laptop	-9.8307
▁Italy	-9.83115
▁Ki	-9.83118
▁truwowtj	-9.83145
▁45	-9.83167
▁eo	-9.83359
▁mongr	-9.83365
▁truwa	-9.83435
▁FPT	-9.83449
▁coots	-9.83452
▁Neeus	-9.835
▁iOS	-9.83635
▁Vuwaf	-9.83677
▁Mr	-9.83766
▁Vieenj	-9.83864
▁daanf	-9.83874
▁Langf	-9.83928
▁ddonf	-9.83963
▁dduwas	-9.8401
▁Boos	-9.84024
▁Vy	-9.84227
▁Festival	-9.84241
▁suwowngs	-9.84243
▁Hoom	-9.84321
▁HCV	-9.84471
▁thuyeets	-9.84656
▁tas	-9.84765
▁huwu	-9.8477
▁FDI	-9.84794
▁ais	-9.848
▁gas	-9.84931
▁Vua	-9.84943
▁nhieeu	-9.84961
▁buwax	-9.84966
▁Mang	-9.85284
▁CEO	-9.85318
▁ddo	-9.85402
nawm	-9.85409
nongs	-9.85438
▁Luwcj	-9.85494
▁Trinhj	-9.85562
▁HP	-9.85571
▁lieeuf	-9.85597
ton	-9.85638
▁Thoj	-9.85685
▁BOT	-9.8569
▁Viettel	-9.85722
▁Manf	-9.85791
▁Saapj	-9.85895
▁ddawngf	-9.86207
mi	-9.86208
▁vieenx	-9.86222
po	-9.86298
oocs	-9.8631
▁Jennifer	-9.86329
vo	-9.86387
▁towf	-9.8643
son	-9.86433
bu	-9.86557
▁El	-9.86607
▁Soocs	-9.86786
▁Thoongs	-9.86894
▁maau	-9.86987
▁tu	-9.86997
▁nets	-9.87006
uw	-9.87026
▁ven	-9.87093
▁khoar	-9.87318
▁gianf	-9.87334
▁Bais	-9.87402
TP	-9.87494
▁Muoons	-9.87512
▁CNTT	-9.87528
60	-9.87571
▁Choangs	-9.87638
▁chip	-9.87696
▁HOT	-9.87825
▁Tam	-9.8783
▁gayx	-9.87858
2.	-9.87876
▁Ni	-9.87958
▁Noel	-9.88007
▁luif	-9.88055
▁Pro	-9.88216
▁Tham	-9.88287
▁i	-9.88394
▁satj	-9.88432
▁cai	-9.88491
▁Huaan	-9.8853
▁aamr	-9.88539
▁lang	-9.88558
▁Sang	-9.88656
Th	-9.88684
▁Aps	-9.88763
▁virus	-9.88781
▁laanj	-9.88845
▁Leej	-9.88863
VnMedia	-9.89021
▁sanhf	-9.89148
▁nan	-9.89215
▁Phoos	-9.8923
▁nowr	-9.89314
▁Lieeu	-9.89422
▁chawns	-9.89449
▁vuwowngs	-9.89471
acs	-9.89507
▁ho	-9.8956
▁Air	-9.89769
▁Thay	-9.89778
▁canh	-9.89789
▁xachs	-9.8994
▁dowif	-9.89979
st	-9.90021
▁Quar	-9.90097
▁Cungf	-9.90112
owi	-9.90142
▁che	-9.90355
ter	-9.90512
▁Bale	-9.90526
oongf	-9.90632
▁Cans	-9.90713
▁Nhacj	-9.90781
▁London	-9.90803
▁haauf	-9.90804
▁xuwowngr	-9.9094
▁howr	-9.90986
▁trangs	-9.91132
▁tha	-9.91182
▁luwaj	-9.91213
▁Quyeen	-9.91305
▁ddawngj	-9.91356
▁thoo	-9.91436
▁boons	-9.9146
▁2016:	-9.9146
▁naaus	-9.91466
▁Troomj	-9.91557
▁Chus	-9.91597
▁Chieecs	-9.91607
▁Nowi	-9.9175
▁Voice	-9.91791
▁suwu	-9.91886
▁Note	-9.9198
▁90	-9.92026
▁Bas	-9.92099
▁huynh	-9.92173
80	-9.92191
aps	-9.92342
▁NS	-9.92361
ed	-9.92367
▁Bank	-9.92394
Trung	-9.92416
▁VĐV	-9.9245
▁Nghe	-9.92481
▁buf	-9.92504
▁giongj	-9.926
▁n	-9.92625
▁Gieets	-9.92723
▁32	-9.92761
wts	-9.9282
▁HĐND	-9.92967
▁Chuaanr	-9.92983
▁36	-9.93001
▁raau	-9.93103
▁nguwaj	-9.93182
ia	-9.93234
Đ	-9.93353
▁hutj	-9.93452
▁dieeuj	-9.93603
▁moof	-9.93634
▁ddawms	-9.93688
▁Six	-9.93711
con	-9.93736
▁Kees	-9.93744
▁loois	-9.93767
▁cay	-9.93942
22	-9.93951
▁Cty	-9.93969
▁thois	-9.94001
▁dams	-9.94047
▁Trawngs	-9.94096
▁mowx	-9.94159
▁Hong	-9.94214
ox	-9.94264
▁Suarez	-9.94464
▁khoocs	-9.94578
▁HD	-9.94665
▁traf	-9.94741
▁sooi	-9.94764
▁lootj	-9.94774
▁Tieengs	-9.94786
▁Soongs	-9.94923
▁2008	-9.94975
▁Chia	-9.94983
▁2012:	-9.94989
▁Ham	-9.94999
▁uy	-9.95031
dd	-9.95069
▁Loocj	-9.95086
▁suts	-9.95208
▁loongj	-9.95224
▁locj	-9.95275
▁Laays	-9.95331
ll	-9.95335
ver	-9.95443
▁Vuwowtj	-9.95492
▁xuwngs	-9.95516
▁hamj	-9.95582
ad	-9.95672
-20	-9.95889
▁phieens	-9.95906
▁Bir	-9.95999
▁heroin	-9.96001
▁Camr	-9.96014
▁Kong	-9.96024
▁nha	-9.96266
gia	-9.96289
▁toms	-9.96301
▁Caams	-9.96431
▁Cangr	-9.96523
▁Tu	-9.96529
▁nho	-9.96545
▁AC	-9.96564
▁lawps	-9.9664
▁chai	-9.96707
▁Nghiax	-9.96762
▁tor	-9.96838
▁lawms	-9.96987
▁choon	-9.96994
▁Smartphone	-9.97023
uwa	-9.97128
UW	-9.97269
▁daj	-9.97338
em	-9.97419
▁Tins	-9.97494
▁xi	-9.97592
▁Thamr	-9.97596
▁Bieens	-9.97625
▁Socs	-9.97654
▁bowir	-9.9777
▁FA	-9.97819
ara	-9.98022
af	-9.98043
40	-9.98053
▁dinh	-9.98083
▁Duw	-9.98226
▁2013:	-9.98269
chj	-9.98298
▁BV	-9.98319
▁Tinhr	-9.98352
▁Kon	-9.98361
ho	-9.98392
▁He	-9.98469
ooix	-9.98477
▁Hanhj	-9.98617
▁Phaanf	-9.98654
▁EURO	-9.98673
▁Tuooir	-9.98688
▁ddam	-9.98741
▁Trawng	-9.98777
▁Te	-9.98846
▁mis	-9.98849
▁ddeo	-9.98915
it	-9.98951
op	-9.9913
▁haam	-9.9915
▁viar	-9.99168
▁nhaanx	-9.99198
▁Hieens	-9.99451
▁York	-9.99469
▁Nhung	-9.99571
▁Heej	-9.99581
▁Khungr	-9.99755
▁Be	-9.99816
▁Tre	-10.0006
▁Bachj	-10.0015
▁EVN	-10.0015
▁xaj	-10.0024
▁ruir	-10.0028
"?.	-10.0039
▁chungr	-10.0042
▁dawts	-10.0047
▁1:	-10.0051
▁Oscar	-10.0053
▁Giar	-10.0058
▁West	-10.0068
▁khoan	-10.0071
▁Giuwx	-10.0078
oi	-10.0084
▁Trar	-10.009
▁thoor	-10.0102
▁ddieenf	-10.0114
▁Model	-10.0114
▁gax	-10.0117
▁h	-10.0142
chi	-10.0144
▁Max	-10.0148
▁Mo	-10.0151
▁cawns	-10.0156
▁TN	-10.0159
▁ddu	-10.0167
▁tuwng	-10.0172
▁ddem	-10.0198
▁trawng	-10.0199
▁meof	-10.0216
ck	-10.0219
▁khoongs	-10.0224
▁Xu	-10.0225
▁BĐS	-10.0234
Ca	-10.0244
▁mif	-10.0245
▁ngoanj	-10.0252
500	-10.0252
▁lawng	-10.0258
▁nhipj	-10.0262
▁Rowi	-10.0268
▁700	-10.0268
ard	-10.0272
▁mawnj	-10.0276
▁owi	-10.0283
▁web	-10.0286
14	-10.0286
tra	-10.0299
▁mawng	-10.0306
45	-10.0307
▁thowj	-10.0317
ru	-10.0318
▁Roma	-10.0318
▁Cair	-10.0324
-5	-10.0339
▁lanhf	-10.0366
▁chay	-10.0371
▁truwng	-10.0374
▁Big	-10.0377
▁CA	-10.0386
▁Pu	-10.0401
▁maay	-10.0402
▁haanj	-10.0408
▁thowm	-10.0409
▁xawm	-10.041
70	-10.0411
▁Next	-10.0414
uj	-10.0415
TC	-10.0432
▁PC	-10.0436
▁chawngr	-10.0436
▁BlackBerry	-10.0438
▁TNGT	-10.0438
▁Thua	-10.0444
▁phe	-10.0445
▁Audi	-10.0446
▁muif	-10.0446
▁ddos	-10.0452
ix	-10.0459
▁III	-10.0469
▁Suwr	-10.0469
▁hayx	-10.0477
▁Wi	-10.0481
▁daoj	-10.0483
hi	-10.0491
▁giang	-10.0493
▁thaapj	-10.0495
▁nawms	-10.05
▁Tuwng	-10.0501
▁chinh	-10.0509
▁Jolie	-10.0519
▁vix	-10.0519
▁10%	-10.0533
▁bootj	-10.0534
▁ddee	-10.0536
▁Tum	-10.0551
CN	-10.0566
▁ngangf	-10.0569
▁Tinh	-10.0571
▁Caauj	-10.0582
▁diuj	-10.0591
▁v	-10.0592
▁nuwcs	-10.06
▁laanx	-10.0602
▁Gi	-10.0605
▁Chaams	-10.0621
▁go	-10.0646
▁Uwu	-10.0648
▁Koong	-10.065
▁trus	-10.0664
5%	-10.0688
▁minf	-10.0702
▁Mu	-10.0704
▁3.000	-10.0708
▁Banhs	-10.0709
▁Munich	-10.0717
wa	-10.0726
▁boongx	-10.0732
▁Cuwowng	-10.0742
▁muoois	-10.0742
▁Tacs	-10.0745
IC	-10.0747
▁chua	-10.0753
▁dduwowng	-10.0755
▁Chaans	-10.0755
lan	-10.0758
0	-10.0763
▁Thuwr	-10.0766
▁sown	-10.0769
▁Hi	-10.077
▁Thawm	-10.0772
ka	-10.0772
▁taay	-10.0787
▁hoawcj	-10.0792
90	-10.0808
▁Ans	-10.081
▁bang	-10.0814
▁sanhs	-10.0819
ocs	-10.0825
▁Vinhj	-10.0825
▁tronj	-10.0826
▁muoonj	-10.0837
▁sutj	-10.0837
▁khieeps	-10.0837
▁caps	-10.0843
▁800	-10.0848
▁ddaamx	-10.086
▁Giups	-10.0861
▁thawts	-10.0867
▁1,5	-10.087
1).	-10.0874
▁SH	-10.088
ef	-10.0881
▁CH	-10.0883
▁gheps	-10.0891
25	-10.0898
▁ruwar	-10.09
▁dayf	-10.0908
▁Khoois	-10.0914
▁Bee	-10.0929
▁troong	-10.0931
▁Haan	-10.0933
▁dowr	-10.0933
▁chui	-10.0941
▁37	-10.0942
▁duwa	-10.0949
▁Suw	-10.095
▁Tho	-10.0957
Myx	-10.0962
▁nuj	-10.0963
▁Bao	-10.0963
▁Ar	-10.0967
▁dowx	-10.0973
▁Moo	-10.0982
▁Ru	-10.0987
▁Cuwar	-10.0987
16	-10.0988
amj	-10.1001
▁APEC	-10.1012
'?.	-10.1025
▁...	-10.103
▁Hu	-10.1031
▁Kho	-10.1039
▁Thuoocs	-10.104
370	-10.1045
▁nhawmf	-10.1046
▁khieeu	-10.1048
om	-10.1048
▁ddieeu	-10.1049
▁thaamf	-10.1056
▁khowi	-10.1058
oon	-10.1074
Haf	-10.1074
▁Cuoois	-10.1086
▁Maria	-10.109
▁khuyeen	-10.1091
▁Ka	-10.1091
▁bons	-10.1092
▁c	-10.1099
▁Serie	-10.1101
▁33	-10.1101
▁Hieenf	-10.111
▁khuaanr	-10.1126
▁tieenx	-10.1126
▁chongs	-10.1131
▁Min	-10.1137
▁Boor	-10.1146
▁Dortmund	-10.1148
no	-10.1152
▁Gu	-10.1157
▁Chawm	-10.1166
▁Chaats	-10.1167
▁Choongs	-10.1168
nd	-10.1173
▁Khoanh	-10.1184
▁San	-10.1186
▁doix	-10.119
▁Quas	-10.119
▁vanj	-10.1198
▁hi	-10.1208
▁Fi	-10.1211
▁khieeus	-10.1216
▁bams	-10.1222
▁votj	-10.1222
▁Ebola	-10.1222
▁bowts	-10.1223
-4	-10.1225
gr	-10.1225
▁hoonx	-10.1233
8%	-10.1234
▁CR	-10.1239
▁Persie	-10.1243
▁Chees	-10.1247
ams	-10.1248
um	-10.1249
▁lung	-10.1252
▁Tuwowngs	-10.1256
▁thoois	-10.1265
▁Maau	-10.1276
▁Thuwowngr	-10.1279
ddoocj	-10.1279
▁Tuyeetj	-10.1286
▁vang	-10.1287
▁rangf	-10.1289
▁truyeenj	-10.1304
tor	-10.1304
▁theemf	-10.1315
▁thon	-10.1332
▁haix	-10.1351
▁Cu	-10.1352
Giongj	-10.1357
▁the	-10.1359
amr	-10.1379
▁khois	-10.1381
▁St	-10.139
▁thaam	-10.1405
▁Coon	-10.1406
▁Michael	-10.1423
▁TPP	-10.1428
▁Sooi	-10.1429
▁rur	-10.1429
▁Aam	-10.143
▁thieepj	-10.1448
▁cowx	-10.1449
▁Hangx	-10.1454
▁thungf	-10.1464
▁nude	-10.1473
▁Sen	-10.1476
▁kips	-10.1481
▁Thuwowngf	-10.1485
tu	-10.1489
▁Hieenj	-10.1489
▁kif	-10.1494
oois	-10.1495
▁Intel	-10.1496
▁leechj	-10.1496
▁laaps	-10.1503
▁manhr	-10.1509
km	-10.1514
▁Thaan	-10.1514
▁Valentine	-10.1518
▁dduooi	-10.1535
▁rowts	-10.1536
▁Me	-10.154
cu	-10.154
▁roongf	-10.1553
▁Justin	-10.1556
▁Angela	-10.156
▁e	-10.156
▁Caamr	-10.1572
▁Heets	-10.1573
15	-10.1574
▁online	-10.1587
▁ngowij	-10.1594
▁Ja	-10.1596
▁Balotelli	-10.1602
ker	-10.1607
▁Guardiola	-10.1615
▁KH	-10.1617
▁hoo	-10.1621
▁xoon	-10.1651
▁cuwng	-10.1672
Ma	-10.1674
▁ddees	-10.1684
▁Cus	-10.1698
▁xoays	-10.1702
▁giaay	-10.1703
▁ATM	-10.1707
▁Nhan	-10.1709
▁dduaf	-10.1719
▁Cheets	-10.1721
▁Cawn	-10.1722
▁Tra	-10.1735
▁ngacj	-10.1736
▁VNPT	-10.1738
▁phees	-10.1739
▁tronf	-10.1747
▁ddiax	-10.1748
▁Plus	-10.1753
▁lee	-10.1764
▁Gian	-10.1777
▁Cuwowps	-10.1779
ooij	-10.178
eetj	-10.1785
▁Maaux	-10.1789
▁buij	-10.1791
▁ru	-10.18
▁atj	-10.1801
▁Crimea	-10.1806
▁coongr	-10.1806
▁Lumia	-10.1808
hot	-10.1809
Laatj	-10.182
▁Lacj	-10.1837
▁album	-10.1845
▁bees	-10.1849
▁rung	-10.185
▁Kyx	-10.1858
▁Xax	-10.1861
xin	-10.1867
",	-10.1874
com	-10.1882
▁Hieeus	-10.1899
▁Noox	-10.1912
▁keps	-10.1918
▁Chanhs	-10.1921
MA	-10.1923
▁Hyundai	-10.1925
▁Thaats	-10.1926
9.	-10.1927
wi	-10.1929
▁loonj	-10.1938
ddi	-10.1947
▁phuwcs	-10.1954
▁chuwngf	-10.1956
▁34	-10.1959
anh	-10.1962
▁Sai	-10.1965
▁Vina	-10.1967
3%	-10.1972
▁Nieemf	-10.1973
▁5.000	-10.1979
▁laay	-10.1979
Khoong	-10.1993
▁ddeej	-10.1996
ran	-10.2002
▁hes	-10.2002
▁1).	-10.2006
▁munj	-10.201
▁Hye	-10.201
▁karaoke	-10.2019
▁kieen	-10.2021
▁Nanj	-10.2028
▁gians	-10.2046
▁GS	-10.2065
▁Khaanr	-10.2069
▁Phe	-10.2084
▁cu	-10.2104
▁Gea	-10.2105
▁Go	-10.2117
▁Hoar	-10.2123
▁boong	-10.2126
▁troongs	-10.2128
▁ees	-10.2131
▁Donald	-10.2131
▁Mar	-10.2132
▁tij	-10.2141
▁2).	-10.2144
▁Traanj	-10.2152
▁hoos	-10.2153
2).	-10.2166
▁ddooif	-10.2169
▁(2	-10.2173
▁bos	-10.2174
▁gachj	-10.2175
Ba	-10.2177
▁khieenr	-10.218
▁kem	-10.2185
▁thoj	-10.2187
▁Quaanj	-10.2188
uwcj	-10.2191
▁saaus	-10.22
ux	-10.2203
▁SLNA	-10.2216
ul	-10.2219
▁noo	-10.2224
▁Palestine	-10.2232
▁vaif	-10.2243
9%	-10.2243
▁rooj	-10.2245
▁Vaof	-10.2267
▁mongs	-10.227
▁loocs	-10.2279
▁trinh	-10.228
▁Khuyeens	-10.2281
▁booij	-10.229
▁manh	-10.2294
▁duwng	-10.2297
▁vuwown	-10.2327
cha	-10.2336
▁SHB	-10.2341
▁Too	-10.2344
▁gaamf	-10.2345
▁Been	-10.2346
VN	-10.2351
▁Sachs	-10.2356
▁ong	-10.2357
▁b	-10.2359
▁30.000	-10.2383
▁inch	-10.2388
▁Pep	-10.2394
▁khoangs	-10.2395
▁Yamaha	-10.2403
▁ngaay	-10.2404
▁laayx	-10.2405
▁1000	-10.2415
▁bowm	-10.2438
▁Xperia	-10.2439
▁nhuwaj	-10.2441
▁Ngawn	-10.2443
▁Han	-10.2444
▁nuts	-10.2445
▁Angelina	-10.2453
▁low	-10.2454
▁HH	-10.2455
oj	-10.2469
▁Thucs	-10.2471
uwax	-10.2474
▁hoanj	-10.248
▁Nghieen	-10.2481
kyf	-10.2492
OS	-10.2508
▁Langj	-10.2523
▁No	-10.2529
▁Taos	-10.2532
▁Xoo	-10.2534
▁38	-10.2537
▁Chieeu	-10.2541
▁loa	-10.2553
▁Ji	-10.2562
▁ddoan	-10.2569
▁20%	-10.2571
awm	-10.2571
tin	-10.258
▁Truwng	-10.2583
▁thaps	-10.2598
▁tawts	-10.2598
▁Phur	-10.2604
▁khoons	-10.261
▁Quyeenf	-10.261
▁Cawng	-10.2614
uwng	-10.2618
18	-10.262
▁manx	-10.2621
coo	-10.2622
▁Villa	-10.2628
▁Cuwowif	-10.2643
tan	-10.2645
▁ngocj	-10.2648
▁Boons	-10.265
▁nga	-10.2664
▁Taylor	-10.2666
▁ngoo	-10.2673
▁Thinhj	-10.2673
▁meoj	-10.2676
▁nuwowngs	-10.2683
▁Tocs	-10.2684
▁Murray	-10.2689
yeen	-10.2699
▁Bees	-10.2699
▁nhais	-10.2701
2%	-10.2709
▁SV	-10.271
lamf	-10.2714
▁boonf	-10.2723
▁Tris	-10.2751
▁Victoria	-10.2751
▁xer	-10.2755
▁nuwts	-10.276
wcj	-10.2761
▁Xa	-10.2767
▁daij	-10.2775
▁NH	-10.2783
▁nhaans	-10.2785
▁2010:	-10.2788
ieem	-10.2792
▁tar	-10.2798
▁khung	-10.2798
▁HS	-10.2802
▁Uyeen	-10.2806
▁canj	-10.2811
200	-10.2825
▁Lenovo	-10.2829
▁May	-10.2837
▁nooj	-10.2839
▁Taanj	-10.284
▁saps	-10.2857
▁Quees	-10.2859
▁Voo	-10.2862
▁muwcj	-10.2863
▁mocs	-10.2874
▁Cung	-10.2877
▁120	-10.2896
▁sieets	-10.2901
▁tucs	-10.2903
▁Uy	-10.2903
▁vawcs	-10.2904
▁moir	-10.2907
▁Ferguson	-10.2908
▁mowf	-10.2916
▁mini	-10.2921
▁maapj	-10.2923
▁p	-10.2924
▁vawng	-10.2937
▁LHP	-10.2939
▁Giowf	-10.295
pi	-10.2951
▁naij	-10.2955
▁bus	-10.2962
▁Can	-10.2987
▁vitj	-10.2987
▁Yemen	-10.2989
▁Lux	-10.3
▁TTCK	-10.3001
▁Ancelotti	-10.3006
eps	-10.3014
▁Phone	-10.3015
▁ddups	-10.3018
4%	-10.3019
▁hoaij	-10.3043
ees	-10.3054
▁Ko	-10.3055
oom	-10.3057
▁seeps	-10.3057
▁thaaus	-10.3059
-10	-10.3061
one	-10.3061
▁AR	-10.3069
▁Bangkok	-10.3074
▁Lais	-10.3085
▁vooij	-10.3089
▁Got	-10.3095
▁SJC	-10.3101
▁Won	-10.3106
▁Clinton	-10.3111
▁ganhs	-10.3111
▁Moyes	-10.3113
▁Huyeenj	-10.3138
▁thungr	-10.3138
▁Xucs	-10.314
▁km	-10.315
▁t	-10.3153
▁ddans	-10.3154
▁Saudi	-10.3164
Ch	-10.3166
▁nhucj	-10.3169
▁mo	-10.3173
▁Torres	-10.3177
-6	-10.3184
▁doois	-10.3189
▁tour	-10.319
im	-10.3191
▁longr	-10.3193
▁xoong	-10.3195
▁son	-10.3208
▁bar	-10.3212
▁dieeux	-10.3212
▁Ke	-10.3216
▁hang	-10.3219
/0	-10.3225
▁tangj	-10.3229
▁Tan	-10.323
tt	-10.323
▁Ne	-10.3241
▁Lieem	-10.3252
MC	-10.3256
▁Nhaapj	-10.3259
▁2017:	-10.326
▁John	-10.3263
▁nhanhs	-10.3267
ner	-10.3271
▁GDP	-10.3272
uwowi	-10.3282
AM	-10.3294
▁caaur	-10.3296
▁ruoongj	-10.3298
▁Sats	-10.3306
▁gi	-10.3313
▁lawn	-10.3314
▁tur	-10.3317
▁Phongs	-10.3317
▁Phanr	-10.3322
▁thams	-10.333
gu	-10.3339
▁Thuees	-10.3341
▁ben	-10.3351
▁Costa	-10.3362
▁Cown	-10.3365
uwowcs	-10.3366
▁mets	-10.3366
▁Luwaf	-10.3369
▁2009:	-10.3379
▁Sawcs	-10.338
tha	-10.338
▁Fabregas	-10.3399
kh	-10.3406
awns	-10.3412
▁Everton	-10.3426
anhs	-10.343
▁2008:	-10.3435
▁lots	-10.3446
hen	-10.3446
TA	-10.3447
▁phoo	-10.3449
wtj	-10.3454
▁baay	-10.347
▁Ri	-10.3474
▁30%	-10.3476
▁Nowj	-10.3477
aif	-10.3491
▁khuoon	-10.3492
▁Pi	-10.3492
▁Cuwur	-10.3493
▁Super	-10.3493
▁Po	-10.3503
▁IMF	-10.3505
▁To	-10.3505
▁deetj	-10.3517
▁thanhs	-10.352
▁Nawngs	-10.3522
▁TH	-10.3525
▁troor	-10.3534
▁Jo	-10.3546
Hoa	-10.3556
▁daang	-10.3568
▁Si	-10.357
▁CN	-10.3574
▁Vaatj	-10.3576
▁naams	-10.3589
za	-10.3605
▁Wall	-10.3605
▁Bangr	-10.3608
▁ddoons	-10.361
▁tueej	-10.361
▁golf	-10.362
▁khoon	-10.3625
Bank	-10.3631
▁BHXH	-10.3635
▁Trong	-10.364
eems	-10.364
-7	-10.3647
▁nghichj	-10.3649
▁caats	-10.3653
▁xas	-10.3658
▁BIDV	-10.3664
▁vuif	-10.3667
amf	-10.3674
▁Thieenj	-10.3677
ge	-10.3687
hangf	-10.369
tro	-10.3701
▁rao	-10.3709
▁Hoatj	-10.3714
▁42	-10.3718
▁HNX	-10.3718
ty	-10.3736
▁LĐLĐ	-10.3739
du	-10.3741
KT	-10.3744
▁250	-10.3746
▁VI	-10.3749
▁toons	-10.3752
▁Formosa	-10.376
3.	-10.3763
owr	-10.3776
▁vieengs	-10.3783
▁maanr	-10.3783
si	-10.3792
TS	-10.3794
▁Chowi	-10.3798
thangs	-10.3805
▁Show	-10.381
id	-10.3811
▁luwowngf	-10.3813
1:	-10.3818
▁xif	-10.3819
Coo	-10.3819
▁Swift	-10.3828
▁Kieems	-10.3834
▁liveshow	-10.3839
▁Caanr	-10.3841
ens	-10.3844
▁thooir	-10.3847
▁chuoois	-10.3849
▁Sam	-10.385
▁Chungs	-10.3855
▁Trai	-10.3859
EC	-10.3862
▁Chayj	-10.3867
▁tungs	-10.3875
▁Chaof	-10.3882
▁nuoots	-10.3888
▁gaaus	-10.3889
▁GT	-10.3891
▁Ukraina	-10.3897
▁vu	-10.3903
▁Noo	-10.3907
Gia	-10.3918
per	-10.3921
Phaanf	-10.3929
▁ĐTVN	-10.3932
ua	-10.3947
▁CAND	-10.3947
▁cur	-10.3949
Tin	-10.3956
qua	-10.3958
▁Toans	-10.3967
▁kir	-10.3967
▁65	-10.3971
▁ddao	-10.3971
hu	-10.3975
▁Game	-10.3981
▁Leicester	-10.3982
▁goois	-10.399
▁looij	-10.3996
-9	-10.4009
boo	-10.4016
gs	-10.4017
▁ngucj	-10.402
▁4.000	-10.4023
▁khuws	-10.404
▁keoj	-10.406
▁Thachj	-10.407
▁Dongf	-10.4072
▁nhawms	-10.4073
▁ddar	-10.4076
▁30/4	-10.408
▁Taliban	-10.4083
▁ngachj	-10.4084
ays	-10.4085
▁hucs	-10.4089
▁Nhip	-10.4094
▁Mawcj	-10.4104
▁Hang	-10.4106
▁Qatar	-10.411
▁ddinhs	-10.4113
▁hamf	-10.4115
aj	-10.4122
▁Star	-10.4128
▁Xoas	-10.4134
Benz	-10.4137
▁Uber	-10.4139
▁Bichs	-10.4147
/2015.	-10.415
▁ddeof	-10.4164
▁HOSE	-10.4165
▁Suwar	-10.4167
▁Bieber	-10.4167
▁Colombia	-10.4173
▁toonr	-10.4176
aam	-10.4177
CO	-10.418
▁beer	-10.4189
11	-10.419
▁thachj	-10.4204
▁Ibrahimovic	-10.4208
▁bepj	-10.4211
▁oof	-10.4242
ina	-10.4245
▁hit	-10.4247
▁ruaf	-10.4253
▁of	-10.4254
shi	-10.4263
▁chu	-10.4267
▁phun	-10.4274
▁8/3	-10.4275
▁Lieeuj	-10.4277
▁mieengs	-10.428
99	-10.4288
ddanhs	-10.4288
▁55	-10.4291
▁bef	-10.4299
▁robot	-10.4301
▁doonf	-10.4302
▁sowir	-10.4302
ko	-10.4304
▁Mucj	-10.4307
▁Vuwownf	-10.4312
▁Khang	-10.4317
▁kef	-10.4318
-8	-10.4321
▁ngootj	-10.4323
age	-10.4326
▁Tri	-10.4328
▁kieetj	-10.4332
▁vair	-10.4344
▁Chile	-10.4352
Vi	-10.4357
▁Nuooi	-10.4359
▁meetj	-10.4368
▁Ti	-10.4373
▁BHYT	-10.439
ngayf	-10.439
▁hepj	-10.4398
▁Sow	-10.441
▁GP	-10.4422
uy	-10.4427
▁dair	-10.4436
▁lens	-10.4447
▁moots	-10.4458
▁Lady	-10.4458
▁Sun	-10.4468
▁taaus	-10.4468
▁sets	-10.4471
▁Loa	-10.4472
▁BĐBP	-10.4479
Binhf	-10.4483
▁khoai	-10.4484
leen	-10.45
XH	-10.4501
▁chuooix	-10.4505
▁Riaj	-10.451
▁boy	-10.4516
▁Moong	-10.4525
▁cowir	-10.4538
▁Trof	-10.4538
▁taj	-10.454
▁dungx	-10.4543
▁Hef	-10.4545
▁ngox	-10.4547
CS	-10.455
Video	-10.455
▁Las	-10.4553
▁rapj	-10.4558
▁noongf	-10.4558
▁Theo	-10.4561
▁Oanh	-10.4562
▁moocj	-10.4565
▁Cuwr	-10.457
▁Xanh	-10.4578
▁Asus	-10.4582
▁Vij	-10.4586
sin	-10.4599
▁lawcs	-10.46
BS	-10.46
Qaeda	-10.4609
▁Buoon	-10.4615
ber	-10.463
ey	-10.4633
▁Gaddafi	-10.4663
▁Becks	-10.4665
-35	-10.467
▁luwowix	-10.4672
▁ddamj	-10.4679
▁Moon	-10.4679
▁Bin	-10.4682
▁Mowis	-10.4685
▁Hung	-10.4687
▁Vui	-10.4704
▁Trucs	-10.4704
▁CS	-10.4708
▁TS	-10.4712
▁tutj	-10.4713
▁CPI	-10.4716
▁Mong	-10.4731
▁Cannes	-10.4732
▁ATGT	-10.4735
▁Phaans	-10.4745
▁Hieeur	-10.4746
▁bocj	-10.475
▁Jackson	-10.4752
▁100.000	-10.4759
▁Porsche	-10.4778
1%	-10.4781
▁tats	-10.4788
chuyeenj	-10.4792
▁US	-10.4794
kha	-10.4795
▁phaf	-10.4797
▁Phee	-10.4802
▁doong	-10.4816
▁Soi	-10.4819
▁Lamborghini	-10.4821
▁ddowns	-10.4828
aos	-10.4834
AIDS	-10.4836
▁VCK	-10.4849
▁mu	-10.4851
▁gom	-10.4862
▁(1	-10.4862
▁Giaays	-10.4869
▁Kichj	-10.4875
ya	-10.4887
▁Ngheef	-10.4889
awps	-10.4889
▁khoacs	-10.4892
▁bu	-10.4896
▁Baoj	-10.4903
▁bawps	-10.4903
▁Troongf	-10.4908
▁phooir	-10.4922
han	-10.4923
▁chans	-10.4924
▁nhawnf	-10.4931
▁muwownj	-10.4939
▁Viet	-10.4942
io	-10.4943
▁QH	-10.4944
▁Tuyeets	-10.4945
▁Juve	-10.4948
▁Se	-10.4951
Hoof	-10.4958
▁Leen	-10.4965
up	-10.4968
▁xichs	-10.4969
▁no	-10.4973
▁Gax	-10.4978
ealand	-10.498
TB	-10.4986
▁Qua	-10.4986
▁bawcs	-10.4987
The	-10.4987
▁AFF	-10.4994
▁quyr	-10.5
▁Vungf	-10.5009
▁CHDCN	-10.5012
▁Tay	-10.5014
▁Tramf	-10.5028
▁Nghichj	-10.5029
▁Tramj	-10.5039
▁cuwa	-10.5043
Ta	-10.5046
anhr	-10.5047
ak	-10.5048
▁Tom	-10.5056
DC	-10.5057
▁Ferrari	-10.5059
TV	-10.5064
▁Tuwowng	-10.5071
▁rownj	-10.5075
▁uys	-10.5078
▁Kpop	-10.5081
▁Cor	-10.5083
ND	-10.5087
▁roonj	-10.5095
▁Vieecj	-10.5104
▁Rof	-10.5105
ou	-10.5109
▁Hopj	-10.5113
▁dduax	-10.5118
▁99	-10.512
▁lex	-10.5122
▁CK	-10.5127
ucj	-10.5132
▁tims	-10.5137
Photo	-10.5145
▁Roongf	-10.5155
La	-10.5157
▁Tuws	-10.5158
▁loongf	-10.516
▁48	-10.5161
▁Mazda	-10.5161
que	-10.5164
gan	-10.5164
▁Toa	-10.5168
▁khowps	-10.517
lin	-10.5189
cheets	-10.5194
▁Xar	-10.5201
▁tablet	-10.5203
▁Chij	-10.5208
▁Than	-10.521
▁Chieeuf	-10.521
▁vowts	-10.5218
▁Guwowng	-10.5222
xi	-10.5225
▁20.000	-10.5241
▁bangf	-10.5248
▁Paul	-10.5253
▁ri	-10.5263
▁Benitez	-10.5263
pe	-10.5277
▁website	-10.5279
▁Vaans	-10.5279
▁loix	-10.5279
▁IV	-10.5279
▁Gaga	-10.5284
thi	-10.5289
ent	-10.529
/2017	-10.5297
▁cumj	-10.5315
▁cawms	-10.5325
IS	-10.5332
phi	-10.5333
MT	-10.5336
▁Moois	-10.5338
ld	-10.5338
▁vaj	-10.5341
75	-10.5342
les	-10.5352
▁duwaf	-10.5354
▁Nissan	-10.5355
▁aof	-10.5361
▁Ben	-10.5363
ys	-10.5368
▁rof	-10.5377
▁Quaf	-10.5386
Nuwx	-10.5394
art	-10.5397
▁buts	-10.5408
▁Talent	-10.541
▁bats	-10.5414
▁looi	-10.5414
▁Hyun	-10.5414
tho	-10.5427
▁ddaams	-10.5427
▁Bieetj	-10.543
SC	-10.5431
▁Trinhf	-10.5432
▁Toois	-10.5432
▁Phaos	-10.5433
chu	-10.5434
▁Grand	-10.5435
▁Toong	-10.545
▁ngow	-10.5452
▁vus	-10.5463
▁suwngf	-10.5465
mm	-10.5478
▁Moscow	-10.5481
▁Laj	-10.5486
Nhaatj	-10.5487
tal	-10.549
▁sacj	-10.5493
▁39	-10.5493
▁Lexus	-10.5494
▁KCN	-10.5501
▁hoongr	-10.5505
▁ngons	-10.5508
▁Nigeria	-10.5509
▁Cuw	-10.5513
▁trieeuf	-10.5515
▁Mowif	-10.5519
Uoongs	-10.5523
▁Canhs	-10.5524
Cha	-10.5525
300	-10.5527
ac	-10.553
▁Vietcombank	-10.5537
▁Langx	-10.5538
▁nhawtj	-10.5541
▁chins	-10.5548
ley	-10.555
ger	-10.5566
▁ao	-10.5567
▁Dieeuj	-10.5568
oor	-10.5578
▁Miley	-10.5579
▁Kaka	-10.5579
▁vawtj	-10.5582
▁Xots	-10.5587
100	-10.5595
▁ĐHĐCĐ	-10.5609
▁chuwir	-10.5612
ddo	-10.5615
▁Vai	-10.5622
▁Lawng	-10.563
▁43	-10.5631
▁ngo	-10.5633
▁san	-10.5635
▁Dayj	-10.5636
▁gay	-10.564
angs	-10.5645
wnj	-10.5645
ets	-10.5646
▁Khuee	-10.5647
▁ngowif	-10.5649
▁style	-10.5656
▁phif	-10.5661
▁cooi	-10.5661
▁kieeng	-10.567
▁Quyr	-10.5672
▁Gais	-10.5674
▁Mor	-10.5677
▁chef	-10.5678
▁Giaacs	-10.5686
mp	-10.5687
05	-10.5696
▁Tranhs	-10.5698
▁Tour	-10.5711
▁gieengs	-10.5713
▁saus	-10.5715
ons	-10.5716
▁Cuwcj	-10.5718
▁Vieets	-10.5727
▁coif	-10.574
tuwj	-10.5746
▁Machj	-10.5748
▁900	-10.5749
▁Hanj	-10.5758
▁giof	-10.5772
▁Harry	-10.5774
▁cua	-10.5778
▁Canh	-10.5779
▁James	-10.5786
▁nguwng	-10.5792
▁vo	-10.5794
idane	-10.5802
hoo	-10.5803
▁NHNN	-10.5809
▁soi	-10.5813
AS	-10.5814
pa	-10.5815
▁MobiFone	-10.5831
▁heef	-10.5832
▁facebook	-10.5838
▁huoongs	-10.5838
▁Trowr	-10.5854
▁Black	-10.5863
▁Cawts	-10.5867
▁Chinh	-10.5869
PC	-10.588
▁nhatj	-10.588
gaay	-10.5881
▁thaau	-10.5886
▁Kate	-10.5887
▁lis	-10.5889
▁vinhj	-10.5893
▁Xawng	-10.5898
uwowtj	-10.5903
▁Che	-10.5914
▁hamx	-10.5924
▁tangr	-10.5924
▁Terry	-10.5934
▁Wimbledon	-10.5944
▁Valencia	-10.5957
24	-10.5958
▁Aston	-10.5958
▁Sowj	-10.5961
▁coongs	-10.5973
ino	-10.5978
▁Cole	-10.5981
▁Khen	-10.5986
▁mocj	-10.5994
ddieen	-10.5994
▁46	-10.5997
▁Guwir	-10.6003
▁nowis	-10.6007
▁ddowis	-10.601
▁ngu	-10.6026
▁kieeu	-10.6029
▁Yahoo	-10.6046
▁2011:	-10.6047
▁ghets	-10.6061
▁Agribank	-10.6065
▁Muwowngf	-10.6068
▁Mac	-10.607
▁tre	-10.6071
▁47	-10.6074
▁Tooij	-10.6077
▁NV	-10.6077
▁ruwowcs	-10.6088
▁Fed	-10.6094
Nga	-10.6096
▁khoawn	-10.6096
▁Thachs	-10.6105
▁Truyeenj	-10.6111
▁Un	-10.6113
▁WB	-10.6114
▁o	-10.6122
▁Nuis	-10.6133
Huees	-10.6134
▁1.500	-10.6134
▁Sharapova	-10.6147
▁lits	-10.6157
▁vuwts	-10.6162
GB	-10.6174
▁bif	-10.6183
▁Gaza	-10.6185
▁lowf	-10.6185
ddieemr	-10.6187
▁Dieenj	-10.6187
ham	-10.6188
▁supj	-10.6191
▁Young	-10.6192
▁Brad	-10.6192
▁Vays	-10.6194
/01	-10.6197
▁tatj	-10.6197
▁Nhows	-10.6198
▁Baatj	-10.6204
IA	-10.6205
▁Ngowx	-10.6207
▁2/9	-10.6214
▁a	-10.6224
▁bow	-10.623
▁Trif	-10.6235
cho	-10.6238
▁Nawng	-10.6246
▁Luaan	-10.6246
▁44	-10.6246
▁Muoon	-10.625
thaanf	-10.6252
▁Kiev	-10.6254
▁bunf	-10.6256
600	-10.6261
▁Laden	-10.6265
▁2,5	-10.6278
▁Thuee	-10.6282
▁TGĐ	-10.6288
▁mooif	-10.629
▁1,2	-10.6292
▁Luwowngj	-10.6295
Chi	-10.6298
lits	-10.6298
ON	-10.6299
▁Europa	-10.6305
land	-10.6309
▁Kyo	-10.6309
▁Phaaux	-10.6318
▁ni	-10.6323
▁mias	-10.6324
▁Bom	-10.6325
▁Khanh	-10.6326
▁xoa	-10.6328
ew	-10.6329
▁Voons	-10.6333
NG	-10.6335
▁datj	-10.6336
▁vis	-10.6338
▁Tim	-10.6343
▁Gops	-10.6344
▁mangf	-10.6344
▁Kieetj	-10.6349
▁ngoan	-10.635
/03	-10.6352
5.000	-10.6353
▁Pogba	-10.6355
▁Coos	-10.6355
san	-10.6356
all	-10.6358
▁choangs	-10.6364
▁im	-10.6368
▁Face	-10.637
▁FLC	-10.6371
▁ngonj	-10.6372
▁Xung	-10.6375
▁Xoon	-10.6389
▁Tevez	-10.6392
hee	-10.6393
▁loops	-10.6396
▁aaur	-10.6405
▁nhayj	-10.6421
che	-10.6427
▁Nhown	-10.643
ell	-10.643
▁Martin	-10.6431
▁75	-10.6435
▁chawngj	-10.6439
▁Tp	-10.6444
▁kheos	-10.6444
▁Sanchez	-10.6447
▁troonj	-10.6454
▁Taats	-10.6461
hoa	-10.6462
▁Sieets	-10.6465
▁Kia	-10.6469
▁Muif	-10.6473
▁Tang	-10.6489
MS	-10.649
▁ginf	-10.649
row	-10.6492
own	-10.6499
Vieetj	-10.65
▁Duwngf	-10.6502
▁MB	-10.6511
▁chen	-10.6522
▁luns	-10.653
▁Bayr	-10.6531
▁nhij	-10.6532
▁Vinamilk	-10.6532
▁GĐ	-10.6535
▁d	-10.6538
▁Huyr	-10.6539
▁chots	-10.6541
▁01	-10.6542
▁donj	-10.6543
▁Newcastle	-10.6546
▁nhocj	-10.6548
▁trois	-10.6555
▁Xi	-10.6556
IN	-10.6558
oir	-10.6563
achj	-10.6564
▁BST	-10.6567
▁li	-10.657
▁kets	-10.6577
/2015	-10.6578
▁OWR	-10.6584
by	-10.6597
▁hoots	-10.6608
▁Quaats	-10.6608
▁Nobel	-10.6609
▁haf	-10.661
▁keej	-10.6615
▁internet	-10.6615
so	-10.6622
▁chanh	-10.6623
▁Hari	-10.6624
▁gays	-10.6631
▁Nepal	-10.6636
▁Nexus	-10.664
▁sen	-10.6642
▁Motorola	-10.6643
▁tem	-10.6645
▁de	-10.6646
▁caanr	-10.6649
ick	-10.6654
▁Sacombank	-10.6664
▁Canon	-10.6666
▁caif	-10.667
▁Arabia	-10.6672
ci	-10.6673
▁(2).	-10.6679
▁CB	-10.668
▁GM	-10.6684
▁Rungf	-10.669
Trair	-10.672
▁Amazon	-10.6731
▁Bachs	-10.6731
▁Trowif	-10.6734
700	-10.6738
▁ham	-10.674
▁luwowts	-10.6745
▁2007	-10.6751
▁Nets	-10.6755
ig	-10.6758
▁phongr	-10.6762
▁tennis	-10.6766
▁Giaatj	-10.6774
▁Syx	-10.678
▁Phucj	-10.6781
▁luoongf	-10.6789
▁beenh	-10.6791
▁Sowms	-10.6795
/09	-10.6798
▁lu	-10.6799
▁ODA	-10.6802
▁Del	-10.6803
pha	-10.6804
▁Falcao	-10.6805
▁naj	-10.6806
▁oonf	-10.6809
▁SD	-10.6815
▁Bay	-10.6818
▁Khooi	-10.6821
ny	-10.6828
▁Rio	-10.6828
▁Mon	-10.683
!".	-10.683
ut	-10.6832
▁ghe	-10.6838
uwngf	-10.6838
▁Selena	-10.684
ika	-10.6843
▁vaan	-10.6845
ion	-10.6852
▁ow	-10.6858
▁xis	-10.686
▁Gaay	-10.6867
▁men	-10.6867
▁sucs	-10.6869
▁townj	-10.687
▁suoois	-10.6874
▁Buwu	-10.6875
▁quaatj	-10.6878
▁chaatj	-10.6878
ster	-10.6881
▁Britney	-10.6883
▁Diego	-10.6886
▁ngaam	-10.6889
nam	-10.6897
▁2020.	-10.69
ngx	-10.69
▁bachs	-10.6907
▁Baix	-10.6913
▁41	-10.6917
▁Serena	-10.6919
▁vacs	-10.6921
▁mayf	-10.6922
▁xir	-10.6925
▁MTTQ	-10.6926
Thanh	-10.6929
▁lui	-10.6945
▁Cyrus	-10.6954
▁nghetj	-10.6958
Tra	-10.6959
▁trawn	-10.6964
▁Duwowcj	-10.6966
▁vaccine	-10.6976
▁CIA	-10.6981
▁Saus	-10.6981
▁hieeus	-10.6983
▁0-0	-10.6984
▁Hee	-10.6987
ight	-10.6987
-12	-10.6988
▁Masters	-10.7001
▁CATP	-10.7002
▁Mini	-10.7007
▁tachs	-10.7009
▁Suwax	-10.701
▁Guwowm	-10.7012
▁soj	-10.7013
▁CT	-10.7013
su	-10.7016
line	-10.7017
▁IPO	-10.7019
▁rong	-10.7024
▁themf	-10.7029
▁nhats	-10.703
▁tangs	-10.7031
Chaus	-10.7032
▁Vowx	-10.7037
▁khuaats	-10.7037
der	-10.704
eo	-10.7042
▁As	-10.7048
▁chuoongj	-10.7049
out	-10.7049
awts	-10.705
▁cungs	-10.7052
▁bups	-10.7054
uwowm	-10.7055
▁Thus	-10.7055
/2009	-10.7059
Sieeu	-10.706
▁nghieeng	-10.706
uooir	-10.7072
▁gots	-10.7073
bawts	-10.7075
maats	-10.708
▁tuwuj	-10.7081
▁thieeng	-10.7084
▁Vu	-10.7085
-0	-10.7086
dde	-10.7087
▁Gaf	-10.7092
ess	-10.7094
▁raf	-10.7104
13	-10.7105
▁dee	-10.7107
res	-10.7107
▁choons	-10.7113
▁110	-10.7123
▁Sport	-10.7129
▁quyeen	-10.7132
/2016	-10.7142
▁HA	-10.7147
ups	-10.7148
▁nguyeenf	-10.7151
▁Dow	-10.7152
▁Nois	-10.7166
▁ree	-10.7175
▁ti	-10.7178
▁venj	-10.7185
▁3:	-10.7186
▁Xuyeen	-10.7188
▁ddoongs	-10.7189
▁ddongj	-10.7192
▁se	-10.7194
▁Coi	-10.7198
▁Linhs	-10.7199
▁2007.	-10.7215
▁VietinBank	-10.7216
aau	-10.7221
▁chichs	-10.7222
▁cof	-10.7234
▁Gerrard	-10.7239
▁Suzuki	-10.7246
▁Nu	-10.7254
▁Giggs	-10.7257
▁Online	-10.7257
▁Mieenx	-10.7257
▁ngowx	-10.7258
▁Loo	-10.726
▁trooij	-10.7265
▁Ch	-10.7268
▁phanh	-10.7268
/2016.	-10.7269
▁Chuwax	-10.7279
▁Kha	-10.7286
▁Awards	-10.7287
▁Sp	-10.7294
LA	-10.7296
-11	-10.7297
▁buwts	-10.7299
50.000	-10.7303
▁Tieem	-10.7308
▁huwcs	-10.7316
▁Tae	-10.7318
AC	-10.7318
▁khas	-10.732
RC	-10.7322
▁nhe	-10.7325
▁70%	-10.7326
▁Dinh	-10.7327
▁Chaamj	-10.733
▁Gowi	-10.7333
▁leef	-10.7335
▁02	-10.7338
▁Acer	-10.7339
net	-10.7345
▁quaayj	-10.7354
800	-10.7372
▁phao	-10.7377
▁85	-10.7378
▁Hueej	-10.738
OW	-10.7382
mon	-10.7383
▁Lof	-10.7388
▁choij	-10.7397
▁Jose	-10.7407
▁Rooj	-10.7414
▁tes	-10.7414
gf	-10.7415
QC	-10.742
▁Khoangr	-10.7426
▁XII	-10.7434
▁Songs	-10.7437
▁141	-10.7448
▁Ams	-10.7449
▁ACB	-10.7458
▁NONGS	-10.7466
▁nocs	-10.7469
▁Bang	-10.7472
ddoo	-10.7476
▁Nguoonf	-10.7478
▁Quyeens	-10.7479
▁Nhu	-10.748
▁SANGS	-10.7482
ban	-10.7487
▁Khar	-10.749
▁Phieens	-10.7494
▁Robert	-10.7501
▁chocj	-10.7537
▁bayr	-10.7537
▁mieenj	-10.7541
▁Dell	-10.7541
▁Hillary	-10.755
aanf	-10.7559
Con	-10.756
▁Vieenx	-10.7562
▁XI	-10.7572
bom	-10.7574
/2014	-10.7577
achs	-10.7583
toos	-10.7584
▁FC	-10.7603
04	-10.7608
400	-10.7611
▁Dubai	-10.7611
▁Sawn	-10.7619
▁Nieen	-10.762
tch	-10.7622
▁Robot	-10.7623
▁For	-10.7626
▁SUV	-10.7627
▁90%	-10.7634
▁Thaos	-10.764
▁Mow	-10.7648
▁Pitt	-10.7654
nes	-10.7661
▁chuws	-10.7661
(	-10.7661
▁Bill	-10.7677
phaanf	-10.7677
▁al	-10.7679
▁tuoong	-10.7696
▁buoong	-10.7697
▁Mobile	-10.7699
▁Tinhs	-10.7705
/2011	-10.7715
▁40%	-10.7718
est	-10.772
tic	-10.7721
▁Thitj	-10.7724
▁chex	-10.7727
▁15%	-10.7727
▁Bar	-10.7742
▁64	-10.7746
▁vung	-10.7755
▁SA	-10.7755
▁Boeing	-10.7762
▁NSND	-10.7762
5%.	-10.7768
▁Ozil	-10.777
Laof	-10.7776
▁gu	-10.7781
▁tro	-10.7782
thungf	-10.7795
HC	-10.7799
▁Old	-10.7799
▁baus	-10.7805
tion	-10.7806
low	-10.7816
Fi	-10.7819
▁Bundesliga	-10.782
▁nhaof	-10.7823
▁Bungf	-10.7831
▁Pen	-10.7833
▁Fu	-10.7834
▁ĐBQH	-10.784
▁nuwowng	-10.784
▁depj	-10.7849
17.	-10.7853
vn	-10.7858
ddas	-10.7866
▁ddawps	-10.7868
▁80%	-10.7869
▁Thieem	-10.7876
▁6.000	-10.7878
▁tungf	-10.788
ze	-10.7886
▁Haif	-10.7892
▁Gomez	-10.7899
▁Gowx	-10.7907
len	-10.7911
▁Phoois	-10.7911
▁Klopp	-10.7919
bor	-10.7926
ngo	-10.7927
▁Calisto	-10.7931
Anh	-10.795
CC	-10.7966
▁suwa	-10.7969
▁Sha	-10.7972
tri	-10.7973
ect	-10.7974
▁Aguero	-10.7974
▁nghinhx	-10.7974
▁Saigon	-10.7982
▁1,3	-10.7984
lip	-10.7987
▁xoay	-10.799
▁khir	-10.7998
▁treex	-10.7998
▁tuwaj	-10.8008
ity	-10.8009
▁Secs	-10.8012
▁dof	-10.802
▁ve	-10.8022
▁50.000	-10.8024
▁gen	-10.8026
▁nguwar	-10.8031
▁Hoanx	-10.805
ice	-10.8052
▁Maradona	-10.8058
▁laauf	-10.806
▁roor	-10.806
▁loocj	-10.8062
▁nhieep	-10.8062
▁vangs	-10.8065
▁kemf	-10.8069
▁1-1	-10.8079
11.	-10.8084
ex	-10.8087
▁Brexit	-10.809
▁Ku	-10.8093
▁catwalk	-10.8098
▁TAND	-10.811
▁AN	-10.8111
▁Ves	-10.8122
▁nes	-10.8122
▁luyj	-10.8123
▁Nangf	-10.8128
cos	-10.8128
▁NHA	-10.8133
▁Tokyo	-10.8135
▁saam	-10.8135
▁kieemf	-10.8145
▁Ruts	-10.8159
▁tuwowcs	-10.816
▁Joong	-10.8163
▁kieem	-10.8174
▁Ju	-10.8175
▁xiur	-10.8181
ag	-10.8184
ock	-10.8188
▁360	-10.819
▁Thaam	-10.8191
▁duwaj	-10.8196
▁cheenh	-10.8198
▁Casillas	-10.82
▁vas	-10.82
AF	-10.8201
▁Hieemr	-10.8212
▁DJ	-10.8215
▁Bangf	-10.8215
▁Ghi	-10.8216
AR	-10.8223
▁Secret	-10.8224
▁quyj	-10.8226
▁derby	-10.8232
▁Laptop	-10.8236
▁Chrome	-10.8244
▁uwa	-10.8257
▁Thoats	-10.8262
▁VC	-10.8265
ron	-10.8267
▁Taams	-10.8267
▁maj	-10.8269
▁Mancini	-10.8277
▁xieecs	-10.8277
▁1-0	-10.8277
/08	-10.8281
▁Tichs	-10.8297
▁vinhx	-10.8297
▁suwowng	-10.8306
▁Uwowcs	-10.831
▁raapj	-10.8311
▁monf	-10.8312
▁Halloween	-10.8314
▁phims	-10.8316
▁USB	-10.8318
ella	-10.8319
▁Boong	-10.832
▁Thaamr	-10.8321
▁Jang	-10.8326
▁dans	-10.8329
/2014.	-10.8331
▁xaf	-10.8331
▁Assad	-10.8335
▁si	-10.8336
ning	-10.8338
▁hoay	-10.8338
acj	-10.8346
▁Ya	-10.8346
▁UEFA	-10.8347
▁var	-10.8353
▁Motor	-10.8357
▁Phungf	-10.8364
▁le	-10.8365
tinhf	-10.8376
▁theef	-10.8382
1):	-10.8387
▁ddof	-10.839
IE	-10.8391
▁67	-10.8391
▁Lampard	-10.8401
▁mawms	-10.8401
▁Thai	-10.8405
▁Nho	-10.8414
▁Trafford	-10.8418
▁ngor	-10.8422
lli	-10.8424
▁mas	-10.8432
▁TOOIS	-10.8434
35	-10.8441
/2013.	-10.8444
▁Beos	-10.8446
nuwx	-10.8447
/2010	-10.8451
▁Rihanna	-10.8451
▁Tha	-10.8458
/2012.	-10.846
▁Mangj	-10.8462
▁docj	-10.8467
▁me	-10.8471
2015	-10.8474
"!.	-10.8476
pu	-10.8478
Nhuwngx	-10.848
min	-10.8487
▁haos	-10.8496
▁FBI	-10.8501
▁Loaij	-10.8502
▁Napoli	-10.8505
▁sowx	-10.8506
▁Tuy	-10.8507
▁Haof	-10.8509
▁Kee	-10.851
▁Donetsk	-10.8514
-30	-10.8515
▁luaan	-10.8519
▁Hazard	-10.853
▁moong	-10.8532
▁phowi	-10.8535
ez	-10.8537
▁songf	-10.8539
las	-10.8543
▁gianx	-10.8555
▁Hun	-10.8556
voo	-10.8556
▁phaanx	-10.8556
Ronaldo	-10.8556
▁kis	-10.8564
▁1.200	-10.8567
▁bo	-10.8571
▁Taxi	-10.8573
▁nghieetj	-10.858
mer	-10.8581
▁lawnj	-10.8581
▁Mata	-10.8584
▁Veej	-10.8589
trick	-10.8595
▁Drogba	-10.8598
USD	-10.8599
▁5%	-10.8603
▁Chimf	-10.8604
▁KT	-10.8604
06	-10.861
▁nhoonj	-10.8615
cm	-10.8615
▁Nhieetj	-10.8616
▁gai	-10.8616
Royce	-10.8619
▁nheenj	-10.8632
▁quaays	-10.8634
▁Hieenr	-10.8636
▁Bra	-10.864
▁Taj	-10.8645
Hanf	-10.865
▁xaif	-10.8653
▁Ex	-10.8663
xe	-10.8665
▁rungs	-10.8669
▁SSI	-10.867
▁CTCP	-10.867
▁TNHH	-10.8679
▁72	-10.8681
▁owts	-10.8683
▁gacs	-10.8684
▁vax	-10.8695
▁nhif	-10.8697
▁Ramos	-10.87
▁tow	-10.8702
▁130	-10.8706
▁chaam	-10.8712
▁America	-10.8718
▁raamf	-10.8723
▁YouTube	-10.8739
▁Gala	-10.8745
▁Chuaf	-10.8749
▁VTC	-10.8749
▁vow	-10.8759
▁Conte	-10.8775
CP	-10.8778
bon	-10.8786
▁xams	-10.8788
/07	-10.8789
ris	-10.8793
▁Pri	-10.88
▁Hoon	-10.8804
▁hon	-10.8807
▁rawcs	-10.881
▁xaof	-10.8817
▁Group	-10.8825
quais	-10.883
ois	-10.8847
▁Cristiano	-10.8851
▁Soots	-10.8858
▁ki	-10.8864
▁Khoor	-10.8865
▁Fashion	-10.8868
▁hotgirl	-10.8869
▁Luis	-10.887
nia	-10.8871
▁1/8	-10.8872
FC	-10.8881
▁Ngooj	-10.8881
▁Benzema	-10.8881
▁Rolls	-10.8881
▁van	-10.8887
▁Shin	-10.8895
▁2-0	-10.8898
▁Sevilla	-10.8899
▁Vinashin	-10.8899
▁nhes	-10.8911
tre	-10.8914
▁51	-10.8919
▁Eva	-10.8927
▁Ranh	-10.893
▁Soo	-10.893
az	-10.8938
▁mieen	-10.8939
▁dduif	-10.8941
▁XIII	-10.8944
▁Monaco	-10.8947
▁SC	-10.895
▁xits	-10.8951
▁buns	-10.8952
IP	-10.8957
▁Thoar	-10.8959
▁TG	-10.8966
▁buwu	-10.8973
▁Rau	-10.8976
IF	-10.8981
▁tuyf	-10.8982
▁Khans	-10.8987
ria	-10.8988
off	-10.8989
▁BXH	-10.8989
▁dees	-10.8994
▁lay	-10.8995
▁GDKHQ	-10.8999
MP	-10.9001
coong	-10.9007
hanhf	-10.9007
▁Dieepj	-10.9013
cc	-10.9013
▁Quaanf	-10.9019
▁Nuwar	-10.9022
▁Rock	-10.9034
▁Land	-10.9046
▁Raf	-10.9047
lootj	-10.9048
▁Ngoj	-10.9061
▁Play	-10.9061
van	-10.9062
ab	-10.9063
▁Tru	-10.9067
ero	-10.9078
▁Blog	-10.9079
bank	-10.9079
▁chif	-10.908
▁TBN	-10.9087
▁Huawei	-10.9088
▁howf	-10.9089
ear	-10.9093
▁49	-10.9103
▁Macj	-10.9112
▁bops	-10.9112
▁rachj	-10.9118
▁vachj	-10.9126
▁Bawns	-10.9128
▁Toshiba	-10.9133
▁Nghieem	-10.9142
▁gawts	-10.9144
▁54	-10.916
▁mer	-10.9163
CĐ	-10.9173
3.000	-10.9173
ting	-10.9181
▁FED	-10.9182
▁Muwcs	-10.9185
▁200.000	-10.9196
zz	-10.9198
▁Vietjet	-10.9204
▁neeps	-10.9204
▁nang	-10.9222
▁Ngax	-10.9224
ian	-10.9225
▁Trachs	-10.9228
▁Spa	-10.9231
Oong	-10.9235
▁hanf	-10.9237
▁Tuwowngr	-10.9242
▁52	-10.9244
▁Jessica	-10.9245
▁Binh	-10.925
dy	-10.9253
▁Gareth	-10.9254
28	-10.9262
▁Thaays	-10.9263
▁saauf	-10.9265
uts	-10.9266
▁SNSD	-10.9267
▁Lung	-10.9276
▁125	-10.9299
▁rungj	-10.9315
▁Cruise	-10.9317
▁Dan	-10.9319
ei	-10.9319
Lo	-10.9323
900	-10.9327
▁56	-10.9331
▁Muwowif	-10.9336
chayj	-10.9336
▁Toms	-10.9339
▁chuoocj	-10.934
book	-10.9344
▁350	-10.9345
▁chieen	-10.9349
DL	-10.9351
Sawnx	-10.9354
▁Woo	-10.936
▁Moor	-10.9361
▁trawcs	-10.937
26	-10.9374
▁ooms	-10.9376
▁Looix	-10.9378
▁Tawcs	-10.9379
sao	-10.9391
▁sowf	-10.9391
▁2-1	-10.9394
▁duj	-10.9399
quy	-10.9401
▁War	-10.9402
giair	-10.9408
and	-10.9409
ate	-10.9413
▁Trumf	-10.9424
▁vocs	-10.943
▁180	-10.9433
Infographic	-10.9436
▁Ashley	-10.9446
Chu	-10.9455
▁tus	-10.946
▁tam	-10.9461
▁coonf	-10.948
▁Pacific	-10.9482
▁haaus	-10.9487
6.000	-10.9488
▁MTV	-10.9489
oonf	-10.9497
▁Haix	-10.95
▁phowr	-10.9501
▁ngheenh	-10.9501
thu	-10.9501
▁Ruwngf	-10.9503
▁nuoois	-10.9504
▁Phuf	-10.9505
▁NTK	-10.951
Bi	-10.951
▁Showbiz	-10.9515
▁Asia	-10.9515
nt	-10.9518
▁Phias	-10.9522
▁khuaays	-10.9529
▁hoaif	-10.9531
▁2020	-10.9536
LĐ	-10.9547
▁Blue	-10.9548
▁Cl	-10.9549
▁eechs	-10.9552
▁Stoke	-10.9561
▁63	-10.9566
▁taaur	-10.9566
▁Nuj	-10.9577
▁tinhx	-10.958
chia	-10.9581
fi	-10.9583
▁NASA	-10.9589
▁Its	-10.9591
▁She	-10.9592
▁Booif	-10.9599
▁neef	-10.9599
▁Phu	-10.9605
4).	-10.9609
▁3,5	-10.9611
▁Khmer	-10.9627
▁Ronaldinho	-10.9627
ven	-10.9636
▁ngatj	-10.9636
▁Steve	-10.9639
▁PS	-10.9643
▁Thichs	-10.9647
▁Style	-10.965
nder	-10.9652
▁keef	-10.9657
▁rachs	-10.9658
huts	-10.9676
▁Lucj	-10.9681
▁UAV	-10.9688
▁Kanj	-10.9698
2):	-10.9705
ap	-10.9708
▁Rain	-10.9714
▁cheps	-10.9715
▁TR	-10.9717
▁Hungary	-10.9726
▁giangs	-10.973
▁neeu	-10.9733
▁Chaaps	-10.9734
▁Chevrolet	-10.9735
too	-10.9741
▁Shi	-10.9743
-22	-10.9745
OO	-10.9748
▁tooif	-10.9759
▁Quachs	-10.977
▁nhangf	-10.9771
Li	-10.9775
wow	-10.9775
hieen	-10.978
quan	-10.9782
▁vans	-10.9783
▁moomf	-10.9788
▁Hoaj	-10.9793
▁VinaPhone	-10.9797
▁Kids	-10.9797
▁Twitter	-10.9802
▁nghenx	-10.9802
LC	-10.9806
▁Smart	-10.9806
▁Pre	-10.9811
/2008	-10.9811
▁nhuoomj	-10.9817
▁Thanhs	-10.9827
▁Moocj	-10.9829
mu	-10.9837
▁khaau	-10.9844
▁Futsal	-10.985
▁Bitcoin	-10.9855
▁Mekong	-10.9859
▁buoongf	-10.9862
▁gieo	-10.9865
▁Ibra	-10.9866
▁xooi	-10.9866
Quangr	-10.9867
▁chanhr	-10.9871
▁Panama	-10.9874
▁OS	-10.9882
▁PCCC	-10.9884
▁Tir	-10.9886
Thais	-10.9886
ble	-10.989
▁axit	-10.9893
▁Maauj	-10.9897
ER	-10.9908
▁VIDEO	-10.9916
phats	-10.992
oz	-10.9935
▁mawngs	-10.9935
▁bitj	-10.9943
▁tungj	-10.9955
▁Am	-10.9956
▁maays	-10.9957
▁vaayj	-10.9961
▁Bats	-10.9963
▁ngans	-10.9968
▁cutj	-10.997
▁Caan	-10.9979
▁Caamf	-10.9979
▁suwng	-10.9983
▁quyf	-10.9984
▁len	-10.9986
2012.	-10.9987
ye	-10.9989
▁Say	-10.9991
our	-10.9996
▁62	-10.9996
Hieepj	-10.9998
▁NN	-10.9999
▁Sea	-11.0001
▁Binhs	-11.0002
▁AFC	-11.0011
trai	-11.0015
▁VND	-11.0029
▁aaps	-11.0029
▁vanhf	-11.0032
▁Luwaj	-11.0044
▁napj	-11.0046
▁Tur	-11.0049
▁luaj	-11.0059
▁1,4	-11.0061
/02	-11.0065
▁Volkswagen	-11.0068
▁dieeuf	-11.0068
▁Manx	-11.0072
Dragon	-11.0073
▁Dong	-11.0083
khoe	-11.0086
▁RAM	-11.0086
▁rex	-11.0093
▁nhaamj	-11.0099
▁BT	-11.01
ky	-11.0102
▁Bangladesh	-11.0102
▁1,6	-11.0104
▁Jetstar	-11.0117
▁khao	-11.0123
ica	-11.0126
▁Spears	-11.0132
▁quawcj	-11.0136
TE	-11.0137
▁nghenj	-11.0152
▁baanj	-11.0152
▁khets	-11.0155
▁MERS	-11.0157
ieengs	-11.0157
▁Elly	-11.016
▁2015,	-11.0164
▁macs	-11.0167
▁Vo	-11.0173
▁Petrolimex	-11.0181
▁Auto	-11.0182
▁doox	-11.0189
▁dducj	-11.0194
▁Haaps	-11.0196
▁SE	-11.0201
ers	-11.0203
▁ADB	-11.0211
▁meos	-11.0213
▁Chawnj	-11.0215
▁Voi	-11.022
▁1/5	-11.0223
▁buas	-11.0243
▁Tams	-11.0249
hai	-11.0256
ddoots	-11.0262
▁03	-11.0269
▁Ngon	-11.0272
▁Camry	-11.0285
▁Don	-11.0286
▁Aams	-11.0286
▁huwng	-11.0292
▁tacj	-11.0294
ah	-11.0298
▁Nhowf	-11.0298
▁20/10	-11.0305
OC	-11.0309
▁xawns	-11.0311
chaan	-11.0317
▁Rome	-11.0321
▁Kurd	-11.0336
▁Hoonx	-11.0346
▁ruooif	-11.0346
▁Miranda	-11.0352
ev	-11.0353
ler	-11.0355
▁Cur	-11.0356
▁caayj	-11.0366
Yeeu	-11.0367
▁roi	-11.0371
▁Tro	-11.0372
▁Khair	-11.0375
ek	-11.0376
▁Cuws	-11.0378
▁Williams	-11.0381
▁nanf	-11.0388
▁Tuwowngj	-11.0392
▁gionf	-11.0392
aauf	-11.0394
▁Hoangr	-11.0396
▁Xiaomi	-11.0397
▁gooms	-11.0397
▁Pe	-11.0397
▁Vay	-11.0397
the	-11.0399
▁(1).	-11.04
▁Eximbank	-11.0402
▁53	-11.0406
▁ngaf	-11.0409
▁Peru	-11.0415
▁Gruzia	-11.0417
tramr	-11.0418
▁Ber	-11.0418
▁Aleppo	-11.0422
Ngayf	-11.0423
▁khan	-11.0426
▁60%	-11.0431
▁thawps	-11.0433
Nam	-11.0439
▁Khats	-11.0442
▁Jack	-11.0449
▁Roon	-11.0452
Pop	-11.0454
ico	-11.0455
▁Khee	-11.0458
▁Sunderland	-11.0468
thieen	-11.0469
▁bocs	-11.0476
▁Grab	-11.0485
ill	-11.0488
▁Muwngf	-11.0489
▁trailer	-11.0505
▁Raapj	-11.051
Vua	-11.051
▁deps	-11.0527
huw	-11.053
▁Jordan	-11.0545
▁7.000	-11.0545
▁tivi	-11.0546
▁ren	-11.0551
chowi	-11.0551
▁Pan	-11.0565
▁Queen	-11.0567
log	-11.0568
Coong	-11.0571
▁Belarus	-11.0571
▁taauj	-11.0576
▁Tab	-11.0581
EM	-11.0581
▁nhanhr	-11.0582
banr	-11.0582
▁Aats	-11.0593
▁vowr	-11.0594
▁Machs	-11.0603
ID	-11.0604
/2013	-11.0605
▁Lindsay	-11.0607
▁xow	-11.0608
▁Algeria	-11.0622
▁cungr	-11.0628
▁Loox	-11.063
▁Gold	-11.0631
▁giotj	-11.0638
▁cuwowcj	-11.0638
▁muooix	-11.0639
▁qui	-11.064
▁toops	-11.0647
▁ber	-11.0653
▁Sudan	-11.0655
▁ĐTDĐ	-11.0659
▁xots	-11.0664
▁haats	-11.0667
▁Roland	-11.0676
▁gaayf	-11.0686
▁Thieetj	-11.0689
▁Snowden	-11.069
▁cayf	-11.0694
▁dducs	-11.0694
Thu	-11.0702
▁Giai	-11.0704
▁Traam	-11.071
ub	-11.0713
▁tis	-11.0715
▁Vanj	-11.0719
▁khieem	-11.0726
▁Traij	-11.0729
!	-11.0738
▁xitj	-11.0744
EX	-11.0752
▁TB	-11.0771
▁Bia	-11.0771
▁VH	-11.0774
▁ngar	-11.0775
▁towi	-11.0779
6)	-11.0784
▁Luwar	-11.0785
oomj	-11.0785
▁Remix	-11.079
▁phawngr	-11.0796
▁Uruguay	-11.08
▁Watch	-11.08
rin	-11.0804
nr	-11.081
▁BTC	-11.0813
▁SIM	-11.0814
▁Mark	-11.0814
▁SCIC	-11.0817
▁FTA	-11.0817
▁PVN	-11.0819
▁Vinalines	-11.0821
▁rinhf	-11.0828
ja	-11.0837
lon	-11.0839
7.000	-11.0858
▁Southampton	-11.0858
▁soo	-11.0861
▁hais	-11.0864
xtan	-11.0866
▁nayr	-11.089
ip	-11.0894
soocs	-11.0898
▁Camera	-11.0901
▁beof	-11.0901
▁Hats	-11.0907
▁Kerr	-11.0911
▁vitamin	-11.0917
▁Honf	-11.0917
▁Rur	-11.0919
▁myf	-11.0922
▁Music	-11.0932
▁Ireland	-11.0933
▁Nou	-11.0933
▁Suyts	-11.0936
▁nooif	-11.0936
▁Gawn	-11.0942
dduwowngf	-11.0947
▁Garros	-11.0949
▁Choots	-11.095
bia	-11.0954
▁CHIEEUF	-11.0954
▁WTO	-11.0954
▁Men	-11.0958
▁char	-11.096
chieens	-11.0974
Baf	-11.0976
▁tuootj	-11.0976
▁PH	-11.0984
▁Chems	-11.0999
ES	-11.1
NE	-11.1003
▁Thy	-11.1003
port	-11.1003
▁khe	-11.1004
8.000	-11.1006
▁ngowpj	-11.1009
▁nams	-11.1012
ten	-11.1018
Factor	-11.1019
ddaauf	-11.1023
▁57	-11.1025
▁phieenf	-11.1028
▁Chos	-11.103
▁HSBC	-11.1035
-2013	-11.1037
▁CHINHS	-11.1046
▁chowps	-11.1046
▁Col	-11.1049
▁gaayj	-11.1056
Thieen	-11.1057
▁Copa	-11.1058
dan	-11.1063
▁15.000	-11.1066
▁chaos	-11.107
khos	-11.1073
▁Airbus	-11.1078
▁Vedan	-11.1078
▁rowmr	-11.1079
▁keo	-11.1085
▁xumf	-11.1086
▁Bowf	-11.1095
nems	-11.1098
▁Pellegrini	-11.11
▁cheof	-11.1103
IT	-11.1104
▁ddeemj	-11.1106
▁seoj	-11.1106
▁UNESCO	-11.1111
EA	-11.1114
▁lachs	-11.1115
now	-11.1129
ini	-11.1134
▁Oon	-11.1134
ture	-11.1137
▁thanr	-11.1139
▁En	-11.114
▁Vic	-11.1147
▁lunf	-11.1151
▁Jones	-11.1161
▁66	-11.1163
▁bong	-11.1164
▁ghee	-11.1165
nooir	-11.1166
▁1-2	-11.1172
7%.	-11.1176
▁Somalia	-11.1178
▁giawtj	-11.1178
ona	-11.1184
ano	-11.1191
▁Tawms	-11.1193
▁Bof	-11.1193
ish	-11.1195
▁Giaay	-11.1197
▁Madonna	-11.1198
▁gaan	-11.1202
▁140	-11.1205
tech	-11.1208
▁hongj	-11.1209
▁pa	-11.1211
▁Lanf	-11.1227
▁vaats	-11.1229
▁Thucj	-11.1232
ud	-11.1244
▁Giuwax	-11.1255
6:	-11.1256
-24	-11.1263
▁THUWCS	-11.1265
▁Metro	-11.1265
▁Ferdinand	-11.127
II	-11.1274
▁liaf	-11.1276
▁voif	-11.1284
3).	-11.1286
▁1,7	-11.1287
▁mof	-11.1287
ku	-11.1291
bieens	-11.1292
▁Loocs	-11.1295
▁Duwa	-11.1298
gen	-11.13
▁4.0	-11.1308
▁uwowps	-11.1309
▁Xees	-11.1309
▁Thaanj	-11.1312
▁loots	-11.1314
▁DA	-11.1314
zi	-11.1316
kho	-11.1316
▁thuwowcs	-11.132
▁Croatia	-11.1326
▁giowr	-11.1326
▁ngoif	-11.1333
▁cover	-11.1344
▁WHO	-11.1348
▁Char	-11.1349
ren	-11.1349
▁chuoongf	-11.1352
▁500.000	-11.1354
▁vias	-11.1355
▁soanj	-11.1359
Class	-11.136
▁(20	-11.1361
▁Link	-11.1367
Sao	-11.1368
▁Deex	-11.1371
▁1/1	-11.1372
▁ddeeur	-11.1373
sats	-11.1385
▁chuoong	-11.1391
▁penalty	-11.1398
▁ranh	-11.1418
▁taamr	-11.1431
end	-11.1433
bay	-11.144
▁run	-11.1441
▁Swansea	-11.1443
ui	-11.1446
▁Henry	-11.1449
▁Aanr	-11.1452
▁Red	-11.1461
aaps	-11.1465
▁nhawn	-11.1466
▁58	-11.1477
▁treeu	-11.1482
ana	-11.1483
2.000	-11.1484
Em	-11.1498
▁tams	-11.15
cas	-11.15
gais	-11.1503
▁Cowf	-11.1505
▁PVF	-11.1505
ieeng	-11.1506
▁naau	-11.1515
IL	-11.152
▁Nhuwowngx	-11.1522
▁Techcombank	-11.1522
▁160	-11.1522
▁UAE	-11.1522
▁Lohan	-11.1525
▁Bon	-11.1527
▁Suy	-11.1529
▁Seo	-11.1529
vangf	-11.1531
▁Rover	-11.1531
▁Hilton	-11.1533
▁xinj	-11.1545
▁PT	-11.1547
view	-11.1549
▁68	-11.1562
95	-11.1564
▁(3	-11.1576
▁aau	-11.1576
▁We	-11.1582
▁SM	-11.1585
▁Khe	-11.1586
Mo	-11.1587
▁VIP	-11.1588
▁Wa	-11.1588
TQ	-11.1593
▁kyj	-11.1596
▁AP	-11.1602
▁sim	-11.1603
sawn	-11.1606
can	-11.161
▁ddoon	-11.161
▁Tuyeens	-11.1625
ddoongf	-11.1629
▁09	-11.1635
▁Cangf	-11.1637
EEN	-11.1641
▁baayj	-11.1645
▁TUW	-11.1648
▁thacj	-11.1657
▁mangr	-11.1657
!'	-11.1661
od	-11.1669
▁CES	-11.1684
▁khoais	-11.1685
▁Panasonic	-11.1688
▁ngaanr	-11.1691
nk	-11.1691
▁hat	-11.1695
▁VPF	-11.1695
▁Chuas	-11.1698
▁nhoots	-11.1699
▁roong	-11.1709
▁Firefox	-11.1711
▁Touch	-11.1717
▁Trangf	-11.1722
▁78	-11.1722
▁Chuwx	-11.1729
▁ray	-11.1731
▁Hatj	-11.1732
▁thoangs	-11.1734
soots	-11.1735
▁IT	-11.1736
▁Son	-11.1739
▁richj	-11.1741
ling	-11.1741
▁Gof	-11.1741
▁hacker	-11.1747
aayr	-11.1749
ura	-11.1751
mart	-11.1753
▁roof	-11.1758
▁Lowps	-11.1758
▁AT	-11.1759
▁ngaamj	-11.176
▁Seeps	-11.177
▁Noois	-11.1773
phone	-11.1786
▁Loanj	-11.1787
▁coox	-11.1788
▁Mitsubishi	-11.1792
▁nhooif	-11.181
▁domr	-11.181
▁mits	-11.1812
qu	-11.1813
car	-11.1815
BA	-11.1817
▁Jobs	-11.1821
▁hachj	-11.1825
▁Office	-11.1827
▁Trieets	-11.1835
▁nhow	-11.1841
▁Luyeenj	-11.1845
▁massage	-11.1845
▁Jun	-11.1845
▁ddanr	-11.1846
▁ID	-11.1846
▁ASIAD	-11.1851
RA	-11.1852
yo	-11.1857
▁chuts	-11.1858
▁chuwng	-11.1861
▁8.000	-11.1861
▁luwowif	-11.1862
ddoor	-11.1863
▁Sky	-11.1864
▁NG	-11.1868
▁nhawng	-11.1871
▁nawps	-11.1881
▁bonj	-11.1886
▁Gates	-11.1892
▁LĐ	-11.1895
▁450	-11.1903
ation	-11.1905
▁Pique	-11.1922
▁hans	-11.1922
▁ungs	-11.1926
▁Life	-11.1933
▁Traof	-11.1948
▁Capello	-11.1951
Thaanf	-11.1955
hawngr	-11.1971
▁trans	-11.1976
taans	-11.1979
▁Andrea	-11.1982
▁Eurozone	-11.1987
▁Duf	-11.1987
ance	-11.1992
▁Vietinbank	-11.1992
▁xats	-11.1997
▁nhuwowngf	-11.2004
▁honf	-11.2018
▁tru	-11.2019
cuar	-11.2024
▁gang	-11.2025
▁20/11	-11.2029
▁Chim	-11.2031
▁Gio	-11.2033
OP	-11.2034
laj	-11.2038
▁Laauf	-11.204
▁tawm	-11.204
6%.	-11.2041
baox	-11.2045
▁vieetj	-11.2045
▁Win	-11.2056
▁Linhx	-11.207
▁Hotgirl	-11.207
▁toa	-11.2088
▁deor	-11.2091
▁Titan	-11.2095
▁CTCK	-11.21
day	-11.2101
▁TW	-11.2103
▁Louis	-11.2106
▁Boocs	-11.2108
howf	-11.2109
88	-11.2109
▁Gois	-11.211
▁Plaza	-11.2112
▁77	-11.2116
Book	-11.2126
▁DNNN	-11.213
▁Khucs	-11.2134
▁Brom	-11.2142
▁CII	-11.2147
▁Nhayr	-11.2148
▁Nghir	-11.2151
haj	-11.2152
▁nhowr	-11.2162
Cuoocj	-11.2171
▁Bieets	-11.2172
ite	-11.2174
▁Vawngs	-11.2177
Tinhf	-11.2177
hoon	-11.2187
lawng	-11.2189
▁Laox	-11.2192
zo	-11.2197
EE	-11.2201
00,000	-11.2207
▁hawnr	-11.2215
▁Xeeps	-11.2216
▁Neenf	-11.2216
Qu	-11.2217
▁booi	-11.2217
▁luwngf	-11.2223
▁Toos	-11.2225
▁Sand	-11.2225
▁ST	-11.2228
▁Mas	-11.223
▁Surface	-11.2233
▁buwowir	-11.2233
▁Vowis	-11.2233
▁Vin	-11.2233
Qua	-11.224
▁soir	-11.2245
▁Lawcs	-11.2251
▁taaps	-11.2256
▁cuoonj	-11.2257
▁dueej	-11.2257
▁THCS	-11.2264
▁Nick	-11.227
▁Phuts	-11.227
▁Ngo	-11.2273
▁Bush	-11.2277
▁Suwowng	-11.2279
▁61	-11.2285
▁Thowj	-11.229
▁MacBook	-11.2294
suwar	-11.2299
▁Washington	-11.23
▁Goo	-11.2308
▁dduwngj	-11.2312
▁40.000	-11.2313
▁rots	-11.2317
▁doping	-11.2319
▁Trowj	-11.2325
▁BB	-11.2325
68	-11.2332
▁Luwowt	-11.2337
▁ranj	-11.235
▁khinh	-11.2353
▁Nooir	-11.2357
▁rawngf	-11.2358
▁Uzbekistan	-11.2362
▁1/6	-11.2365
▁Quais	-11.2365
▁Keeu	-11.2366
▁luwngr	-11.2369
▁Bridge	-11.2374
▁Ngur	-11.2374
vuwowtj	-11.2382
▁Treo	-11.2384
ddoois	-11.2384
▁300.000	-11.2393
▁1):	-11.2403
▁SP	-11.2403
cuwowps	-11.2404
32	-11.2405
▁futsal	-11.2405
▁caays	-11.2405
tel	-11.2406
▁Goij	-11.2419
▁Phis	-11.2429
▁Suwng	-11.243
▁Khoon	-11.2431
▁Meof	-11.2439
soongs	-11.2449
▁Thar	-11.2451
▁thuaanf	-11.2457
let	-11.2458
▁Mawts	-11.2461
▁sowij	-11.2463
EP	-11.2465
▁Liveshow	-11.2473
▁Chris	-11.2474
▁Lowns	-11.2474
▁Bentley	-11.2492
▁oon	-11.2496
▁Pin	-11.2501
▁Vuwown	-11.2501
▁4,5	-11.2507
▁Moto	-11.2508
▁minj	-11.2517
▁Vespa	-11.2517
mee	-11.252
hawcs	-11.252
▁UPCoM	-11.2523
▁trow	-11.2524
▁rair	-11.2528
play	-11.253
▁hieenf	-11.2536
ther	-11.2537
▁Sanf	-11.2539
-2010	-11.254
▁vowf	-11.2544
▁hur	-11.2545
▁Lopez	-11.2555
▁ruwowtj	-11.2555
lim	-11.2555
▁roo	-11.2559
chaats	-11.2569
▁def	-11.257
▁Bocs	-11.2585
60.000	-11.2596
▁SG	-11.2598
▁Ericsson	-11.2599
ddaf	-11.2608
ep	-11.2613
▁har	-11.2615
▁ddaays	-11.2618
-16	-11.2621
mootj	-11.2625
▁Camp	-11.2625
▁Gios	-11.2625
▁ups	-11.2629
▁Store	-11.263
▁Series	-11.2638
▁Disney	-11.2643
▁25%	-11.2651
▁chat	-11.2655
▁Seoul	-11.2656
▁Khawng	-11.2658
▁baamr	-11.266
▁Mali	-11.2661
▁?	-11.2667
▁Petro	-11.2671
▁nhaos	-11.2674
▁thinhs	-11.2682
ant	-11.2684
nee	-11.2688
▁rungf	-11.2689
baf	-11.269
55	-11.269
▁Ngooif	-11.2718
▁Senkaku	-11.2726
▁Maya	-11.2727
▁Kieenj	-11.2727
▁Midu	-11.2728
xee	-11.2733
▁Yoon	-11.2734
▁3-0	-11.2735
ruts	-11.2735
▁ngutj	-11.2736
▁170	-11.2737
▁chiaf	-11.2738
▁Khuwowng	-11.2745
▁King	-11.2756
▁hoi	-11.2758
▁Vn	-11.276
▁Tieemf	-11.2764
▁stress	-11.2764
nan	-11.2767
bas	-11.2771
▁xuf	-11.2773
Pad	-11.2774
▁live	-11.2778
Hair	-11.2779
▁Snapdragon	-11.279
▁vets	-11.2796
men	-11.2797
▁thee	-11.2802
▁renf	-11.2802
▁Lawps	-11.2807
▁Ducati	-11.2809
won	-11.2813
▁95	-11.2813
▁2.0	-11.2814
▁nhoois	-11.2816
baats	-11.2818
▁Web	-11.282
▁ngunf	-11.2825
hung	-11.2827
▁1/3	-11.2832
▁Derby	-11.2835
▁82	-11.2839
AW	-11.2842
▁69	-11.2845
▁truts	-11.2852
▁email	-11.2855
▁71	-11.2858
▁fa	-11.286
khoas	-11.2861
▁mix	-11.2863
▁nhonj	-11.2868
▁taf	-11.2876
▁Johnny	-11.2881
▁0-1	-11.2888
▁uir	-11.2906
9).	-11.2909
▁nguooij	-11.291
▁Keos	-11.291
Fast	-11.2911
▁ngaos	-11.2915
▁beef	-11.2917
▁SAO	-11.2917
▁83	-11.2918
chieeu	-11.2919
▁08	-11.2919
ome	-11.2923
▁Xuws	-11.2926
▁92	-11.2932
▁gaatj	-11.2936
▁lungx	-11.2942
47	-11.2947
uwu	-11.2953
▁caamr	-11.2953
chays	-11.2959
▁Higuain	-11.2959
nhaf	-11.2962
ddeem	-11.2963
▁Dao	-11.2965
▁Eto	-11.2965
Vif	-11.2976
▁biaf	-11.298
▁cuwj	-11.2981
▁thuowr	-11.2981
▁QG	-11.2991
q	-11.2994
nghi	-11.2996
▁2000	-11.3001
▁1.300	-11.3007
▁Nhaam	-11.3015
kin	-11.302
▁Edge	-11.302
▁tuwowis	-11.3021
▁Street	-11.3024
▁suwownf	-11.3025
▁Mega	-11.3027
▁khuya	-11.3029
▁Kar	-11.3029
▁muoon	-11.3036
ide	-11.3036
▁noots	-11.3036
▁gaj	-11.3038
▁3-1	-11.3042
▁GPMB	-11.3044
uwts	-11.3047
8501	-11.3048
▁soans	-11.3049
VT	-11.3052
▁12.000	-11.3054
Taay	-11.3054
▁Tablet	-11.3058
▁PGS	-11.306
▁Mou	-11.3061
▁365	-11.3063
▁phuwowtj	-11.3064
▁Muix	-11.3065
▁VP	-11.3072
▁Leo	-11.3072
▁Deetj	-11.3078
▁kia	-11.3078
▁Berlin	-11.3079
lee	-11.3079
bis	-11.3087
pop	-11.3096
▁Xavi	-11.31
-400	-11.3101
▁tots	-11.3104
oocj	-11.3116
▁Instagram	-11.3117
sen	-11.312
▁hets	-11.313
▁nguwj	-11.3133
▁Tron	-11.3155
▁Joe	-11.3157
65	-11.3157
▁coocs	-11.3159
mua	-11.3159
▁Golf	-11.3171
▁Or	-11.3173
Chungs	-11.3174
▁Olympia	-11.3177
▁Gra	-11.3183
▁1,1	-11.3188
▁Clasico	-11.3191
▁gawm	-11.3191
▁Roger	-11.3192
/2015:	-11.3195
▁Sung	-11.3196
▁muwowng	-11.3197
▁raos	-11.3201
▁IBM	-11.3204
▁86	-11.3205
▁raps	-11.3205
▁xuwng	-11.3206
we	-11.3207
▁phieeu	-11.3209
▁cafe	-11.3218
ace	-11.323
▁nu	-11.3244
▁Khoas	-11.3249
▁California	-11.3251
▁oai	-11.3253
uri	-11.3259
▁1,8	-11.3259
▁Asian	-11.326
▁beej	-11.3263
▁1/7	-11.3264
▁Cuf	-11.3266
/2018	-11.3271
▁Leonardo	-11.3271
▁naf	-11.3274
▁Ais	-11.328
tus	-11.3281
▁Hamas	-11.3282
▁quawngj	-11.3291
▁boj	-11.3291
▁Tiger	-11.3292
▁maam	-11.3295
▁gioong	-11.3308
▁Keangnam	-11.3312
▁Mieeus	-11.332
tinh	-11.3322
▁Gheenhf	-11.3325
-2009	-11.3326
▁Phil	-11.3327
▁Tow	-11.3332
▁as	-11.3333
▁dang	-11.3333
▁ĐHCĐ	-11.3336
▁vachs	-11.3337
▁Ryan	-11.3339
▁2.500	-11.3351
▁Bird	-11.3355
▁Dream	-11.3359
▁thinhj	-11.336
-300	-11.3362
▁Coca	-11.3364
▁luwuj	-11.3365
▁Vieem	-11.3365
▁Chicharito	-11.3366
▁1%	-11.3367
▁Czech	-11.3373
dia	-11.3377
▁Tung	-11.3379
▁gioox	-11.338
▁76	-11.3382
▁05	-11.3385
▁Kichs	-11.3386
▁WAGs	-11.3387
▁Ther	-11.3389
4.000	-11.3393
▁cuwowix	-11.3394
▁nai	-11.3401
▁Ecuador	-11.3407
ov	-11.3411
▁rock	-11.3416
▁Ngaats	-11.3418
▁boonj	-11.3421
▁Duwngj	-11.3421
▁Ung	-11.3425
▁Xy	-11.3426
▁baj	-11.343
▁Ghen	-11.3437
ichs	-11.344
PTNT	-11.3442
▁ngao	-11.3446
▁raayx	-11.3449
▁Kardashian	-11.3455
▁Khaor	-11.3458
ddoj	-11.3459
▁achs	-11.347
▁aaus	-11.3472
way	-11.3473
-15	-11.3479
▁04	-11.3488
▁Ribery	-11.349
▁Serbia	-11.349
▁Suoois	-11.3494
▁gawngs	-11.3495
▁Maay	-11.3499
▁59	-11.3499
▁LCD	-11.3511
▁hee	-11.3519
▁hows	-11.3521
▁Theps	-11.3522
▁huyeetj	-11.3523
▁Thuwcs	-11.3526
star	-11.3528
▁ddoas	-11.3529
ist	-11.3539
▁Keenh	-11.3544
▁ddacs	-11.3549
▁vos	-11.3558
▁Laan	-11.3558
▁air	-11.3558
▁Potter	-11.3559
▁Mauf	-11.3572
SA	-11.3573
▁Trachj	-11.3575
▁room	-11.3576
ami	-11.3578
▁73	-11.3581
▁mieetj	-11.3582
▁84	-11.3583
lai	-11.3584
ddaaus	-11.3586
▁PR	-11.3586
▁Dieecj	-11.3587
▁Truj	-11.3591
binhf	-11.3597
Baif	-11.3599
▁Robben	-11.3601
▁Hoor	-11.3605
▁nhinj	-11.3608
▁laser	-11.361
▁truf	-11.3618
▁Home	-11.3623
CH	-11.3634
▁kheps	-11.3638
▁Hoang	-11.3638
▁nons	-11.364
cuwus	-11.3642
ade	-11.3652
▁LA	-11.3656
▁rieets	-11.3659
2008	-11.3663
▁Ag	-11.3667
▁Traamf	-11.3678
mb	-11.3678
uootj	-11.3681
▁Toom	-11.3686
▁nhoom	-11.3687
▁Buoocj	-11.3693
▁yeems	-11.3694
cy	-11.3695
▁bawn	-11.3695
▁Lin	-11.3695
FA	-11.3698
/2012	-11.37
▁GB	-11.37
▁roons	-11.3702
▁Live	-11.3714
▁bois	-11.3724
▁giucj	-11.3728
▁Tranf	-11.3732
▁Lukaku	-11.3734
▁OPEC	-11.3734
▁Cech	-11.3734
▁Giaaus	-11.3734
hooi	-11.3735
9.000	-11.3739
▁Cavani	-11.3741
TI	-11.3743
▁74	-11.3746
▁Ad	-11.3747
▁hawng	-11.3751
▁KS	-11.3753
▁Seung	-11.3771
qui	-11.3772
rio	-11.3775
01	-11.3782
▁Playboy	-11.3784
▁ANTT	-11.3785
▁muis	-11.3798
▁Tyj	-11.3798
▁maif	-11.3804
cuwcj	-11.381
Bo	-11.3824
EN	-11.3826
▁Charlie	-11.3827
cxin	-11.3827
▁Chen	-11.383
▁Nhanh	-11.3834
▁phowts	-11.3834
▁tuaan	-11.3835
▁81	-11.3837
1.000	-11.384
▁daamf	-11.3844
▁Nhoonj	-11.3855
▁ĐTQG	-11.3856
▁mungf	-11.3858
▁Oppo	-11.3859
▁ghes	-11.3863
▁Lazio	-11.387
▁Nathan	-11.387
▁BKS	-11.3877
tieeps	-11.3877
-19	-11.3881
show	-11.3882
bans	-11.3882
▁ngoawtj	-11.3884
▁vuoong	-11.3887
▁Ruwowuj	-11.3891
▁Perry	-11.3892
▁langs	-11.3893
ddooij	-11.3894
▁(19	-11.3902
▁Phoor	-11.3915
▁Iphone	-11.3916
▁Jin	-11.3919
▁Yingluck	-11.392
▁Katy	-11.3921
▁nhets	-11.3927
▁Daang	-11.393
▁Tower	-11.3931
▁MiG	-11.3937
▁lanhs	-11.394
▁Martial	-11.3942
▁Richter	-11.3942
▁Alonso	-11.3949
▁Wayne	-11.3949
Ninh	-11.395
▁logo	-11.3953
▁taanf	-11.3957
MI	-11.3968
▁Thaksin	-11.3971
▁8.1	-11.3975
▁Lanhj	-11.3978
1)	-11.3979
▁Sil	-11.3981
2013.	-11.3985
▁Palace	-11.3985
▁Aan	-11.3987
▁khee	-11.3991
▁ETF	-11.3992
▁Day	-11.3996
▁toir	-11.4007
▁nguwf	-11.4014
▁nuootj	-11.4015
cais	-11.4015
▁nhieeux	-11.4024
Cos	-11.4024
▁Nes	-11.4029
▁Tieepj	-11.4036
▁Youtube	-11.4036
▁1.5	-11.4041
▁Capital	-11.4043
▁Vietstock	-11.4043
VIDEO	-11.4044
▁Vex	-11.4044
▁Chupj	-11.4047
▁Nguwx	-11.4054
▁neer	-11.4058
▁Kenya	-11.4065
▁rucj	-11.4069
▁XK	-11.4082
▁CL	-11.4103
▁9.000	-11.4107
ium	-11.4109
aka	-11.4109
▁chawng	-11.4111
dden	-11.4116
▁Khoe	-11.4117
cp	-11.4119
▁IAEA	-11.4124
▁Nguwowcj	-11.4124
▁ASUS	-11.4124
▁Huts	-11.4125
iz	-11.4133
▁Roo	-11.4147
caauj	-11.4157
▁Ligue	-11.4161
▁Emirates	-11.4168
dduwngf	-11.4171
▁mui	-11.4172
▁tif	-11.4181
▁xoor	-11.4189
▁Hamf	-11.419
▁naanf	-11.4191
▁Alba	-11.4192
▁ddieeus	-11.4195
▁laayf	-11.4196
▁Huwas	-11.4198
▁Tys	-11.42
▁duwowngj	-11.4206
▁nius	-11.4216
▁Oocs	-11.4219
▁Rung	-11.422
▁Troons	-11.422
made	-11.4228
▁Cootj	-11.4239
▁AirAsia	-11.4242
lly	-11.4253
72	-11.4256
▁Project	-11.4257
khu	-11.4259
▁trown	-11.426
▁thoair	-11.4265
▁Lyon	-11.4266
▁88	-11.4267
Vung	-11.4268
▁Exciter	-11.4272
▁Junior	-11.428
▁Roois	-11.4281
dow	-11.4281
▁lif	-11.429
46	-11.4297
ĐH	-11.4301
▁blog	-11.4303
▁HDBank	-11.4303
▁Michj	-11.4306
▁Nani	-11.4307
▁Haiti	-11.4308
▁neo	-11.4311
boocs	-11.4312
lia	-11.4312
▁87	-11.4314
▁coix	-11.4317
▁Thois	-11.4324
▁oaf	-11.4326
DA	-11.4326
▁ngongs	-11.4337
▁Resort	-11.434
▁Hugo	-11.4342
▁HTX	-11.4347
▁Wales	-11.4348
▁Ruaf	-11.435
▁nhung	-11.4352
▁richter	-11.4355
▁tuoonf	-11.4355
▁Ree	-11.4358
▁30-4	-11.436
▁chuwowcs	-11.4362
▁MP	-11.4363
▁Choi	-11.4367
▁All	-11.4386
▁der	-11.4392
▁dimf	-11.4392
▁Grammy	-11.4392
▁Nikon	-11.4392
▁sucj	-11.4398
▁Lionel	-11.4407
▁Dai	-11.4411
▁Dair	-11.4415
▁Gieo	-11.4439
ele	-11.444
▁Siu	-11.4441
▁Gas	-11.4447
▁Girls	-11.445
▁Arab	-11.4453
▁Lebanon	-11.4453
▁BTV	-11.4454
▁Danhf	-11.446
▁yeens	-11.4463
▁0%	-11.4465
▁199	-11.4469
▁cheos	-11.4475
▁Full	-11.4484
▁luyx	-11.4491
▁selfie	-11.4499
▁luwowngx	-11.45
▁Angs	-11.4501
▁Phais	-11.451
▁NK	-11.4512
▁Brunei	-11.4514
▁113	-11.452
ddaapj	-11.4522
▁LED	-11.4522
▁Raats	-11.4541
▁Enrique	-11.4552
▁Kieeur	-11.4552
▁Thuyeenf	-11.4554
▁OOR	-11.4554
▁Per	-11.4555
▁ngai	-11.4557
▁Schalke	-11.456
▁5,5	-11.4563
ME	-11.4563
▁Buoonf	-11.4563
▁Rodriguez	-11.4568
▁rawn	-11.4568
▁sois	-11.4581
▁vunj	-11.4583
-21	-11.4594
▁Mawcs	-11.46
▁leps	-11.4601
▁96	-11.4603
▁cocj	-11.4604
-2014	-11.4616
ddaats	-11.4617
Hot	-11.4619
▁Luas	-11.462
▁sawns	-11.4621
▁Vuwowngj	-11.4624
chui	-11.4628
▁Adam	-11.4633
phas	-11.4638
bin	-11.4639
▁Taamf	-11.4645
▁Toure	-11.4646
-2016	-11.4647
imbabwe	-11.4653
▁VĐQG	-11.4653
36	-11.4653
▁Chans	-11.4657
▁Hiddink	-11.466
▁QBV	-11.466
▁Trucj	-11.4662
▁sowis	-11.4664
▁ruwowi	-11.4668
cao	-11.4668
▁Sri	-11.4669
▁Saam	-11.4676
▁ADN	-11.4676
ddungj	-11.468
▁luw	-11.4686
▁Ed	-11.469
▁1.2	-11.4694
Booj	-11.4696
tuwr	-11.4704
▁nhocs	-11.4706
▁International	-11.4707
▁Medvedev	-11.4707
dioxin	-11.4709
▁quaats	-11.4711
▁gam	-11.4716
▁VNM	-11.4719
▁cabin	-11.4719
▁HĐ	-11.4721
▁Fukushima	-11.4754
▁chuwngr	-11.4755
ngooi	-11.4769
▁Xee	-11.4769
▁laanr	-11.477
ves	-11.4771
bra	-11.4771
▁giawngf	-11.4773
▁heetj	-11.4774
▁nups	-11.478
▁TVB	-11.4781
den	-11.4785
cown	-11.479
GS	-11.479
▁12%	-11.479
▁Lang	-11.4793
▁2019	-11.4806
▁Maoj	-11.4806
Neeus	-11.4806
▁mair	-11.4821
▁mafia	-11.4828
▁congx	-11.4835
▁Marc	-11.4836
▁Universe	-11.484
▁News	-11.4845
EF	-11.4848
thamr	-11.485
▁06	-11.4854
▁Arsene	-11.4856
▁tia	-11.4862
▁Bolero	-11.4864
▁Maatj	-11.4864
dinhs	-11.487
▁Iceland	-11.4872
▁ngoong	-11.4875
▁XP	-11.4879
▁luwas	-11.4881
▁Bawn	-11.4891
▁Vbiz	-11.4891
Hoo	-11.4892
▁Nguwngf	-11.4893
ddepj	-11.4895
▁sedan	-11.4896
85	-11.4899
▁Fox	-11.491
aaur	-11.4914
OR	-11.4934
▁Khowi	-11.4934
▁xui	-11.4934
▁Vincom	-11.4936
▁xoaif	-11.4939
▁Gaoj	-11.4946
▁Australian	-11.4951
▁uoons	-11.4951
▁body	-11.4952
▁6,5	-11.4954
dees	-11.4957
▁Jung	-11.4959
▁Luwx	-11.4961
▁Troong	-11.4962
▁lumf	-11.4963
PL	-11.4968
▁nguif	-11.4971
▁dawmj	-11.4976
ddootj	-11.4978
▁Kristen	-11.4984
▁Giex	-11.4985
▁ngows	-11.4985
PA	-11.4988
▁Loois	-11.4997
▁radar	-11.5
pad	-11.5002
▁Oai	-11.5009
▁Nguyeetj	-11.5011
▁Bieems	-11.5011
Caanf	-11.5013
▁Bernabeu	-11.5016
ovic	-11.5016
▁Daniel	-11.5016
▁bin	-11.5016
tay	-11.5017
▁hack	-11.5017
▁Quay	-11.5019
150	-11.5023
▁Villas	-11.5032
▁Silva	-11.5034
86	-11.5035
▁thets	-11.5037
Chuyeenj	-11.5038
▁Container	-11.504
▁chumf	-11.5044
▁1.0	-11.5045
Nhaf	-11.5046
▁Nhieemj	-11.5048
▁Qualcomm	-11.5048
▁79	-11.5048
cuoocj	-11.5055
▁Sabeco	-11.5056
▁Cungr	-11.5063
▁Thawps	-11.5072
▁AMD	-11.508
▁Crystal	-11.5088
hoor	-11.5092
▁concept	-11.5097
▁toilet	-11.5097
soais	-11.5099
▁Mix	-11.5101
▁natj	-11.5102
ead	-11.5103
Kho	-11.5104
▁Sergio	-11.5105
▁tiar	-11.5111
▁dawnf	-11.5114
▁Ngoan	-11.5115
zer	-11.5119
▁nhuwowcj	-11.5121
▁Laayj	-11.5121
▁115	-11.5121
Hoangf	-11.5123
▁NĐT	-11.5123
hieeps	-11.5123
Man	-11.5126
noor	-11.5126
▁kepj	-11.5129
ller	-11.5131
▁Sneijder	-11.5137
▁baamf	-11.5139
▁Hoopj	-11.5146
▁choom	-11.5163
▁Album	-11.517
▁China	-11.517
Ker	-11.5174
▁Low	-11.519
▁Sim	-11.5194
▁Kane	-11.5198
ille	-11.5208
▁laaur	-11.5213
▁CNVC	-11.5219
▁VNA	-11.5219
chir	-11.522
▁Mayweather	-11.5227
bao	-11.523
▁quyts	-11.5231
hieepj	-11.5235
▁Im	-11.5241
▁gieengf	-11.5244
▁Gun	-11.5244
Phi	-11.5249
▁toan	-11.5252
▁Sochi	-11.5255
▁650	-11.5256
pro	-11.5256
▁Canhj	-11.5257
▁Qui	-11.5259
▁Ser	-11.5269
▁thomr	-11.5276
▁pho	-11.5277
howps	-11.5283
▁Mario	-11.5284
▁Giroud	-11.5285
opj	-11.5287
▁muwowif	-11.5291
▁France	-11.5292
▁1.400	-11.5292
▁89	-11.5296
▁gawtj	-11.5297
▁taacs	-11.53
▁Honduras	-11.5301
▁VOV	-11.5301
▁Hanoi	-11.5305
▁Nowr	-11.5309
▁Len	-11.5314
Vongf	-11.5318
chawtj	-11.5319
▁Lanka	-11.5326
▁awmx	-11.5326
▁THA	-11.5327
▁Beyonce	-11.5327
▁BBC	-11.5331
▁veo	-11.5331
Mootj	-11.5334
▁neor	-11.5339
▁Garden	-11.5343
▁Kem	-11.5349
▁Xuwngs	-11.5351
▁VKSND	-11.5351
ddu	-11.5359
63	-11.5361
▁Daay	-11.5366
▁Geneva	-11.5368
tais	-11.537
taam	-11.5378
ET	-11.5378
▁11/9	-11.5385
▁Lieetj	-11.5388
▁App	-11.5389
kinh	-11.5392
▁Kelly	-11.5393
▁up	-11.5393
ack	-11.5397
▁Fiorentina	-11.5401
▁Lewandowski	-11.5401
▁Romania	-11.5402
▁Cumj	-11.5409
▁chanhs	-11.5412
▁Kilo	-11.5416
▁Walcott	-11.5418
▁Rachj	-11.5424
▁PG	-11.5424
Nongs	-11.5427
▁Eco	-11.5427
thar	-11.5429
▁1.1	-11.5434
▁George	-11.5435
▁buwj	-11.5435
ddinhr	-11.544
▁Scholes	-11.5443
▁ECB	-11.5443
▁Green	-11.5443
▁Bond	-11.5444
▁Gen	-11.5448
▁ATP	-11.5453
▁Thinf	-11.5455
▁Vingroup	-11.546
▁Mel	-11.5466
▁Vinaconex	-11.5468
▁visa	-11.5478
▁Thaatj	-11.5479
burg	-11.5482
▁uwowts	-11.5483
▁Lowr	-11.5484
▁ĐKVĐ	-11.5485
▁dats	-11.5492
▁chenf	-11.5494
▁2030	-11.5494
▁Latinh	-11.5497
▁Bphone	-11.55
▁Bulgaria	-11.5502
▁Andy	-11.5504
▁Trans	-11.5506
▁Hamilton	-11.551
▁Trawm	-11.5513
▁Morata	-11.5519
CI	-11.5521
!!	-11.5524
▁muwowi	-11.5524
▁EXO	-11.5527
▁luwownj	-11.5535
looj	-11.5536
-50	-11.5537
baatj	-11.5538
▁Minzy	-11.5544
▁uts	-11.5561
EU	-11.5571
08	-11.5572
▁Moij	-11.5573
▁baams	-11.5575
▁Lotte	-11.5578
▁Juan	-11.5578
▁Art	-11.5579
▁LĐLĐVN	-11.5579
xuwr	-11.5579
▁phoongf	-11.5584
▁Global	-11.5587
▁nhuwcs	-11.5587
ddaoj	-11.559
RO	-11.559
▁nongf	-11.5592
▁Highlights	-11.5595
▁metro	-11.5596
pin	-11.5602
▁Tuis	-11.5604
thuwowng	-11.5604
▁muwts	-11.5615
▁Bos	-11.5618
ghees	-11.562
▁iPod	-11.5621
▁Leenhj	-11.5621
▁VIC	-11.5629
▁Mistral	-11.5629
▁7%	-11.5636
RADIO	-11.5638
▁Civic	-11.5646
77	-11.5647
▁hawngf	-11.5647
ney	-11.5651
▁Suws	-11.5653
▁Nhieeu	-11.5658
▁Furious	-11.5664
▁Gmail	-11.5664
Giair	-11.5669
caams	-11.5669
▁Iniesta	-11.5672
▁tuoocj	-11.5673
▁(21	-11.5676
▁Owen	-11.5681
▁Abe	-11.5685
nin	-11.5691
▁Fulham	-11.5698
▁Virus	-11.5698
▁AK	-11.57
?'	-11.5701
▁chao	-11.5704
▁Media	-11.5707
mobile	-11.5715
▁Boston	-11.5716
▁kieeps	-11.5724
▁thaams	-11.5728
▁RIM	-11.5734
loo	-11.574
▁Abramovich	-11.5741
▁Chavez	-11.575
▁Haiyan	-11.5751
lock	-11.5759
▁Thang	-11.5765
▁3.0	-11.5766
Toongr	-11.5769
37	-11.5775
▁Cheryl	-11.5776
▁Robocon	-11.5776
huyr	-11.5781
▁naays	-11.5784
▁Muwu	-11.5786
▁heenh	-11.5787
nhaan	-11.5791
▁Traan	-11.5791
▁Week	-11.5793
tai	-11.5794
▁Edition	-11.5802
RE	-11.581
▁ngos	-11.5811
▁huij	-11.5819
▁buaf	-11.5821
▁Nhocj	-11.5823
▁Dees	-11.5836
▁(22	-11.5839
▁Villarreal	-11.5845
▁HHHV	-11.5854
dge	-11.5854
▁Muf	-11.5855
▁HTV	-11.5862
▁Giaanj	-11.5863
Post	-11.5866
▁Cuoons	-11.5867
Aans	-11.587
▁Berbatov	-11.5872
▁Fellaini	-11.5872
▁Hacker	-11.5872
▁Schweinsteiger	-11.5872
▁HBO	-11.5872
baor	-11.5876
▁Irina	-11.588
▁Chawn	-11.5882
bij	-11.5882
▁Laau	-11.5886
onic	-11.5886
▁xuooi	-11.5891
▁nhacs	-11.5897
▁Baby	-11.5901
ment	-11.5906
▁Movie	-11.5907
▁Berlusconi	-11.5916
xax	-11.5922
▁yoga	-11.5924
▁Barack	-11.5925
▁Coocs	-11.5929
▁American	-11.5932
▁bawm	-11.5942
▁Kawasaki	-11.5942
▁Vitamin	-11.5942
▁hemr	-11.5942
▁Gaaus	-11.5942
▁vanx	-11.5951
▁boongf	-11.5958
▁McCain	-11.596
54	-11.5963
▁07	-11.5974
▁Sterling	-11.5977
▁Telecom	-11.5977
▁Deir	-11.5981
▁play	-11.5995
▁BP	-11.6001
▁voongf	-11.6002
▁vungj	-11.6004
▁Eun	-11.6007
▁24/7	-11.6008
▁Hoir	-11.601
cent	-11.6013
▁Tichj	-11.6014
▁cuns	-11.6016
▁Renault	-11.6022
▁oanh	-11.6023
▁Haauf	-11.6026
VND	-11.6032
▁lam	-11.6037
IM	-11.6038
Be	-11.6047
▁knock	-11.6057
▁nachs	-11.6059
▁and	-11.6061
▁Power	-11.6066
▁gawng	-11.6068
ddow	-11.6069
▁nos	-11.6071
▁Ocean	-11.6075
light	-11.6076
chee	-11.6083
▁Slovakia	-11.6084
▁Aniston	-11.6084
ANHR	-11.6084
▁Sydney	-11.6093
▁giun	-11.6097
khai	-11.6098
▁manhx	-11.61
MK	-11.6107
▁Chucs	-11.6115
▁humf	-11.612
▁Sapa	-11.612
quar	-11.6122
▁Eps	-11.6127
▁2,2	-11.6131
▁LB	-11.6133
▁6%	-11.6133
▁Bilbao	-11.6138
▁Piaggio	-11.6147
▁Val	-11.6149
▁1.600	-11.615
ound	-11.6151
▁Bolt	-11.6155
▁chuwngx	-11.6158
▁chieeng	-11.6165
▁Will	-11.6173
▁Chawngj	-11.6174
▁Cris	-11.6175
▁Saamf	-11.6175
▁chieets	-11.6182
banj	-11.6186
▁hichs	-11.6196
▁Petr	-11.6196
vua	-11.6201
▁keenf	-11.6202
▁(3)	-11.6203
▁Ngoon	-11.6217
▁Bugatti	-11.6219
▁Marseille	-11.6219
treo	-11.622
▁Que	-11.6221
▁VIB	-11.6224
▁Ye	-11.6226
▁Mits	-11.6238
tuwf	-11.6242
▁Tunisia	-11.6247
▁GAS	-11.6247
▁Modric	-11.6256
▁VIII	-11.6258
▁Cowm	-11.6259
Quyr	-11.626
▁Acs	-11.6268
hooif	-11.628
▁trawcj	-11.6282
▁Fire	-11.6283
▁Sol	-11.6285
▁bieems	-11.6286
▁Mongs	-11.6291
▁Toonf	-11.6294
34	-11.63
▁Victor	-11.6301
▁xoawn	-11.6301
top	-11.6303
Cola	-11.6312
▁rowm	-11.6316
▁cuwuf	-11.6323
▁Giayf	-11.6329
Boas	-11.6338
▁Cums	-11.6342
▁quytj	-11.6344
▁ddong	-11.6345
mark	-11.6346
▁Maritime	-11.6347
▁Messenger	-11.6347
▁DiCaprio	-11.6356
▁Vidic	-11.6356
▁khieets	-11.6358
▁Suri	-11.6361
nois	-11.6362
IO	-11.6363
▁Yoga	-11.6365
▁Bolivia	-11.6375
▁chaor	-11.6378
▁1001	-11.6378
ddoongj	-11.6389
▁McLaren	-11.6402
▁Rodgers	-11.6402
▁Depay	-11.6402
▁nanhf	-11.6402
▁OceanBank	-11.6403
▁XIV	-11.6409
▁nung	-11.6409
kV	-11.641
▁tits	-11.6411
▁buar	-11.6416
▁VII	-11.6417
▁TDTT	-11.6421
▁Chowr	-11.6422
▁CC	-11.6425
▁botj	-11.6426
▁RS	-11.6428
ddawcj	-11.6428
▁naoj	-11.643
▁dieem	-11.643
Soi	-11.6439
07	-11.6445
▁Alexis	-11.6454
▁Audio	-11.6455
▁Sharp	-11.6458
▁suwowir	-11.6458
▁3.500	-11.6473
▁nhang	-11.648
OONG	-11.6481
▁caam	-11.6484
▁Tieecj	-11.6486
▁giowif	-11.6486
▁nguyeetj	-11.6486
▁Gioox	-11.6487
▁lanh	-11.6491
ware	-11.6493
▁Tees	-11.6525
video	-11.6529
▁0-2	-11.653
▁HCB	-11.6533
tung	-11.6541
▁Racs	-11.6542
▁Runway	-11.6551
▁Uwng	-11.6554
▁Gieeng	-11.6562
▁Coupe	-11.657
▁VPBank	-11.657
▁TTVN	-11.6574
▁PVI	-11.6574
66	-11.6579
▁Kazakhstan	-11.6589
▁Scotland	-11.6589
▁Gay	-11.6593
▁Tor	-11.6607
▁Simeone	-11.6608
02	-11.6615
hoas	-11.6618
▁buwowms	-11.6627
▁rawmf	-11.6636
▁2-2	-11.6639
▁LS	-11.6642
▁jeans	-11.6646
▁Alves	-11.6646
▁chaif	-11.6653
▁khuwr	-11.6655
▁TL	-11.6655
49	-11.6656
▁Para	-11.6661
▁tuyj	-11.6664
▁giaamx	-11.6665
ddooir	-11.6666
EL	-11.6666
▁nhax	-11.6676
▁giaayf	-11.6683
▁AMG	-11.6693
▁Hoj	-11.6694
▁hawts	-11.6698
▁xuoongf	-11.6717
▁Oom	-11.6729
ddoof	-11.673
▁Sungs	-11.6731
▁MWC	-11.6731
▁Nor	-11.6736
▁Michel	-11.6741
▁keof	-11.6747
▁Porto	-11.6751
die	-11.6756
pen	-11.676
▁thoi	-11.6766
38	-11.6767
▁thoif	-11.6784
▁Buwowir	-11.6789
▁Perez	-11.6789
▁Hull	-11.6791
▁LTE	-11.6793
Banr	-11.6797
▁400.000	-11.6799
▁Lieeuf	-11.6799
Ro	-11.6802
don	-11.6816
▁Khocs	-11.6824
caau	-11.6833
▁Guinness	-11.6837
▁Anfield	-11.684
▁Castro	-11.684
▁vawts	-11.6842
Ngheej	-11.6845
▁guwngf	-11.6846
▁Club	-11.6856
▁lawpj	-11.6866
▁Phowr	-11.6866
thay	-11.6867
noo	-11.6868
▁Davis	-11.6875
▁Rafael	-11.6877
Quy	-11.6883
▁Stewart	-11.6885
03	-11.689
▁Houston	-11.6895
▁dduoocs	-11.6897
▁Dinhs	-11.6902
▁Bell	-11.6904
▁Thuootj	-11.6904
▁luoocj	-11.6905
8,5	-11.6911
chuaanr	-11.6913
▁Shop	-11.6914
▁Vachj	-11.692
▁Buffon	-11.6924
▁Thawts	-11.6925
▁Cof	-11.6926
CJ	-11.693
▁EE	-11.693
▁bung	-11.6932
▁piano	-11.6934
▁7,5	-11.6938
▁Gangnam	-11.6943
▁ddieecs	-11.6943
▁cuoomx	-11.6952
▁Pirlo	-11.6953
▁Pra	-11.6961
▁PTT	-11.6962
phanr	-11.6962
▁Hitler	-11.6963
Gais	-11.6972
▁Kif	-11.6973
▁Vair	-11.6974
▁Nens	-11.6985
▁25.000	-11.6987
▁High	-11.6992
▁Vidal	-11.6992
▁DVD	-11.6992
Nghi	-11.6996
hocj	-11.6999
▁Pedro	-11.7002
▁Carlo	-11.7005
▁Xoa	-11.7007
-52	-11.7007
▁ngaamx	-11.7008
▁2,3	-11.7023
▁Tits	-11.7023
▁(18	-11.7031
▁Daily	-11.7032
uaf	-11.7033
▁Traau	-11.7035
▁Trawn	-11.7039
Truw	-11.7056
ddanf	-11.7059
▁hiu	-11.7059
Tieen	-11.706
▁Haor	-11.7077
▁Raul	-11.7087
▁cooij	-11.7088
▁Tieecs	-11.7101
▁naapj	-11.7101
▁Brown	-11.7101
▁banhr	-11.7102
▁SSD	-11.7111
dro	-11.7115
▁Howi	-11.7121
▁Duyeetj	-11.7134
▁hieenr	-11.714
▁Quee	-11.7151
Bis	-11.7152
▁IX	-11.7155
▁ddow	-11.7156
sex	-11.7158
▁Robinho	-11.7161
▁Bull	-11.7165
▁Blade	-11.717
▁MBH	-11.7172
▁sawcj	-11.7178
▁make	-11.718
▁Wonder	-11.7181
▁Nems	-11.7184
▁loax	-11.7185
▁GTGT	-11.719
quaayj	-11.72
ddau	-11.7201
cia	-11.7201
▁Merkel	-11.721
▁Mandela	-11.722
Haauj	-11.722
▁981	-11.7234
▁Chawtj	-11.7235
▁Langs	-11.7236
▁Lawngs	-11.724
▁Norwich	-11.724
▁HHVN	-11.7242
food	-11.725
▁Ngotj	-11.7254
uoons	-11.7255
▁theej	-11.7258
▁OLED	-11.726
▁Timor	-11.7265
uwownf	-11.7265
▁HAG	-11.7268
▁Own	-11.7271
▁Nghieepj	-11.728
thawcs	-11.7285
gieets	-11.7287
▁UFC	-11.7288
▁Rica	-11.7295
▁lau	-11.7297
▁Jerusalem	-11.7301
▁lieeux	-11.7301
tuaanf	-11.7302
▁HCĐ	-11.7307
▁1.3	-11.731
▁HĐBA	-11.7311
▁KHCN	-11.7313
▁Canj	-11.732
▁SGK	-11.7325
▁Master	-11.7328
▁coois	-11.733
▁photoshop	-11.7331
▁Ultra	-11.7341
▁Xbox	-11.7341
▁CNVCLĐ	-11.7341
▁Luoon	-11.7346
▁gox	-11.7348
▁Catalonia	-11.7351
▁coj	-11.7355
cam	-11.7356
▁Flappy	-11.7361
▁Optimus	-11.7361
▁Nhaauj	-11.7363
67	-11.7364
▁luwx	-11.7368
▁Finals	-11.7372
▁ANTV	-11.7372
well	-11.7376
▁Times	-11.7378
▁tawns	-11.7393
Campuchia	-11.7403
▁Vpop	-11.7409
▁baayf	-11.741
▁Isaac	-11.7412
▁Pharma	-11.7412
kov	-11.7413
QG	-11.742
▁quer	-11.7423
▁Miu	-11.7423
▁Carlos	-11.7429
▁noon	-11.743
▁Phungj	-11.7433
▁2,6	-11.744
▁1992	-11.7443
▁Coutinho	-11.7443
▁PTKT	-11.7444
seo	-11.745
▁cawmf	-11.7453
cawpj	-11.7455
▁Range	-11.7466
▁gatj	-11.7466
89	-11.7466
▁teo	-11.747
▁thuwar	-11.7472
▁Taekwondo	-11.7474
▁Indian	-11.7474
▁Moss	-11.7475
▁bieengs	-11.7475
Ngooi	-11.7475
SNSD	-11.7475
ddongs	-11.7475
90.000	-11.7475
▁2,4	-11.7483
▁Innova	-11.7484
▁Welbeck	-11.7484
▁rowj	-11.7484
▁Goetz	-11.7495
▁Kipj	-11.751
cawts	-11.7522
▁Locj	-11.7523
▁2,7	-11.7523
▁Vens	-11.7532
▁Nhieeps	-11.7539
berg	-11.7539
ire	-11.7541
▁Vegas	-11.7546
▁1.4	-11.7549
▁Nicole	-11.7557
▁Nasri	-11.7557
thur	-11.7567
▁file	-11.7567
▁CSCĐ	-11.7568
▁Toocs	-11.7568
Hen	-11.7575
▁Veets	-11.7577
▁uws	-11.7578
Mej	-11.7579
▁Alpha	-11.758
biz	-11.7586
▁xowi	-11.7592
Lamf	-11.7594
▁Whitney	-11.7598
▁Tesla	-11.7598
▁Xoay	-11.7599
▁Kyrgyzstan	-11.7609
▁hao	-11.7617
▁like	-11.7622
▁Giauf	-11.7627
▁Ngux	-11.7629
▁Nan	-11.7631
Gianhf	-11.7639
Banj	-11.7642
▁STB	-11.7644
▁Scandal	-11.765
bongs	-11.7654
▁Chef	-11.7656
IR	-11.7657
▁Hieeps	-11.7661
▁casino	-11.7661
▁View	-11.7665
▁Malaga	-11.7671
▁SOOCS	-11.7671
▁buwaf	-11.7671
Drive	-11.7676
▁Emma	-11.7681
▁KDC	-11.7681
▁Desire	-11.7682
▁11.000	-11.7692
chen	-11.7693
▁Tee	-11.7694
bike	-11.7694
▁Rawns	-11.7698
▁Luiz	-11.7714
Chieens	-11.7716
▁Vuwngx	-11.7724
uwown	-11.7724
▁Wigan	-11.7725
7)	-11.773
▁Pheps	-11.7741
▁trownj	-11.7741
▁911	-11.7744
▁bieeus	-11.7745
▁trocj	-11.7748
vungf	-11.7748
▁Tuaats	-11.7756
▁Boongx	-11.7758
▁Hart	-11.7764
ple	-11.7765
▁Damascus	-11.7766
▁Wilshere	-11.7766
▁Miami	-11.7768
▁giawng	-11.7775
imex	-11.7786
ucci	-11.7786
▁Ganhs	-11.7791
nuoots	-11.7801
uwowts	-11.7806
▁4-0	-11.7809
▁Bowi	-11.7813
huyeets	-11.7817
▁Bkav	-11.7819
▁thor	-11.782
▁gaapj	-11.7821
OOI	-11.7822
▁Chuootj	-11.783
▁1.6	-11.7836
▁Alibaba	-11.784
▁Monroe	-11.784
▁TKV	-11.7851
▁Rangj	-11.7851
road	-11.7858
▁lats	-11.7861
hets	-11.7867
dao	-11.7875
▁Haamf	-11.7876
▁nhoor	-11.7883
▁Aventador	-11.7894
▁showroom	-11.7894
▁Toots	-11.7894
▁ddoonj	-11.7895
caauf	-11.7899
duwj	-11.79
▁Expo	-11.7902
▁nens	-11.7907
bex	-11.7907
caay	-11.7912
▁Ungr	-11.7915
▁dowi	-11.7918
▁netbook	-11.7926
▁Yong	-11.7931
▁Market	-11.7932
▁Cuwj	-11.7967
▁gooij	-11.7969
▁neems	-11.797
▁ngaaux	-11.798
▁chows	-11.7982
▁Doonf	-11.7986
▁Opera	-11.7991
▁1.100	-11.7995
over	-11.8006
▁Luw	-11.8012
▁Booij	-11.8014
▁solo	-11.8021
▁Vang	-11.8031
▁Hawaii	-11.8034
▁Luif	-11.8035
▁Johnson	-11.8037
Tieeur	-11.8039
▁Rawcs	-11.8042
chim	-11.8042
▁Vietlott	-11.8045
▁You	-11.8052
▁phoong	-11.8054
▁ax	-11.8058
quaan	-11.8066
▁NTM	-11.8067
▁Rashford	-11.8078
▁Megan	-11.808
▁Maamf	-11.8084
09	-11.8086
▁Wal	-11.8087
▁1.700	-11.8096
Boos	-11.8096
▁Rown	-11.8105
▁BCH	-11.8108
▁Woods	-11.8111
phong	-11.8113
▁Concept	-11.8122
▁flash	-11.8122
▁street	-11.8122
▁kix	-11.8122
▁SMS	-11.8139
▁Skype	-11.8146
dduwngs	-11.8149
▁IPU	-11.8155
▁Hyori	-11.8155
▁Nguwaj	-11.8157
▁Harvard	-11.8166
▁Pattinson	-11.8166
▁Cuwowis	-11.8166
▁Saau	-11.8174
▁xoops	-11.8176
▁Kindle	-11.8177
▁ICT	-11.8177
▁cup	-11.8178
ddoons	-11.8197
▁lowi	-11.8199
▁resort	-11.8199
▁cuis	-11.8208
▁Ranger	-11.8208
▁Sewol	-11.821
▁Cruz	-11.821
wan	-11.822
▁Marilyn	-11.8221
▁Venice	-11.8221
▁Goox	-11.8224
▁Stone	-11.8224
▁toaj	-11.8225
▁Xay	-11.8228
Phone	-11.8237
▁cucs	-11.8239
2,5	-11.8262
▁Radio	-11.8265
▁maof	-11.827
▁Website	-11.8277
▁truij	-11.8278
▁Pepe	-11.8297
▁Monte	-11.8308
Sex	-11.8309
▁Adrian	-11.831
▁Ketj	-11.832
▁VKS	-11.8321
▁Wolfsburg	-11.8321
▁bets	-11.8322
▁Marco	-11.8329
▁14.000	-11.8332
crai	-11.8332
▁roots	-11.8339
▁Griezmann	-11.8344
▁buwowus	-11.8344
▁poster	-11.8344
▁Baltic	-11.8355
▁Vowf	-11.8366
▁Geun	-11.8366
Hocj	-11.8372
▁Francis	-11.8378
mays	-11.838
Tieeps	-11.8384
tieenf	-11.8398
▁Katie	-11.84
▁Muwownj	-11.84
Cown	-11.8407
▁nguwas	-11.8415
▁Pol	-11.8415
▁PNJ	-11.8422
▁VAMC	-11.8422
ddawts	-11.8423
▁nhoangs	-11.8424
▁Pato	-11.8431
gie	-11.8432
▁Chuw	-11.8436
▁Core	-11.8443
CES	-11.8444
▁Demi	-11.8445
▁Thao	-11.8446
▁lieem	-11.8456
▁Harley	-11.8456
▁ĐHQG	-11.8459
▁Tar	-11.8466
▁Usain	-11.8468
▁Crouch	-11.8479
▁Wawrinka	-11.8479
▁Golden	-11.8485
enfone	-11.849
▁Peugeot	-11.8502
▁ngaauf	-11.8502
▁Cuoongf	-11.8505
baanr	-11.8509
Bongs	-11.8509
▁huwngx	-11.8511
▁chaapj	-11.8513
▁MSN	-11.8514
▁vees	-11.8518
NĐ	-11.852
▁Flash	-11.8536
▁UFO	-11.8536
chuyeen	-11.8536
▁Hay	-11.8548
▁Robin	-11.8548
▁melamine	-11.8559
▁QPR	-11.8559
soos	-11.8561
▁Time	-11.8561
Trieeuf	-11.8566
▁VCB	-11.8575
mowr	-11.8579
▁Totti	-11.8582
▁Ajax	-11.8582
Phats	-11.859
baif	-11.8592
▁Henj	-11.8594
▁Mieeu	-11.8608
▁Towis	-11.8608
20.000	-11.8613
▁XNK	-11.8617
hoangr	-11.8624
▁ngoocs	-11.8626
tieen	-11.8626
▁1.7	-11.8628
Thuwowng	-11.863
▁Rawng	-11.863
▁WikiLeaks	-11.8651
▁Depp	-11.8663
▁Cheenh	-11.8663
ddeer	-11.8666
▁Tiin	-11.8669
▁Paraguay	-11.8674
▁hybrid	-11.8674
▁Vinaphone	-11.8675
▁Rui	-11.8687
ICO	-11.8689
▁hotboy	-11.8698
▁LLVT	-11.8709
▁Nhuaanj	-11.8709
▁Adele	-11.8709
▁Khieeus	-11.8721
▁Trailer	-11.8721
▁Benfica	-11.8732
▁Orlando	-11.8744
▁Brit	-11.875
▁Chair	-11.8802
▁treej	-11.8803
▁Noopj	-11.8818
▁spa	-11.882
▁Basel	-11.8823
▁Nghenj	-11.8826
▁phaatj	-11.8834
▁Eden	-11.8846
▁Harper	-11.885
▁Pleiku	-11.885
▁Smith	-11.8862
▁nhays	-11.8863
phee	-11.8869
▁Sets	-11.887
▁Chins	-11.8871
▁Jurgen	-11.8885
ddua	-11.8891
▁Ghees	-11.8921
▁nhoaf	-11.8924
▁Blatter	-11.8933
▁NLĐ	-11.8939
▁Vanhf	-11.894
▁saays	-11.8942
▁Espanyol	-11.8945
▁Everest	-11.8945
▁nhichs	-11.8956
▁PVC	-11.8957
game	-11.8966
▁titan	-11.897
▁Blackberry	-11.898
▁nins	-11.8984
▁nheps	-11.8985
▁Beta	-11.8989
▁Vardy	-11.8992
▁Chamf	-11.8994
vux	-11.8997
win	-11.8999
▁Rets	-11.9001
xit	-11.9005
queen	-11.901
▁Baghdad	-11.9016
▁Holmes	-11.9016
▁Citi	-11.9017
▁2017/18	-11.9028
▁Pele	-11.9036
▁AIG	-11.904
▁Lachj	-11.9041
▁bipj	-11.905
ddoif	-11.9056
▁Galatasaray	-11.9064
▁Rafa	-11.9075
▁Adebayor	-11.9076
▁Wave	-11.9088
▁PPP	-11.9089
ddinh	-11.9096
nhayr	-11.9099
trong	-11.9102
▁xor	-11.9102
▁blue	-11.9113
▁William	-11.9114
▁meens	-11.9118
▁Bois	-11.9133
▁LĐBĐ	-11.9137
▁Yaya	-11.915
Quan	-11.9151
▁Trawcs	-11.9153
nhais	-11.916
▁Cameron	-11.9161
▁1.800	-11.9164
▁HSG	-11.9168
▁Januzaj	-11.9173
ence	-11.9179
beenhj	-11.9184
▁Jaguar	-11.9186
▁Xoms	-11.9186
▁muwowts	-11.9187
▁tua	-11.9193
▁luwown	-11.9197
▁Jae	-11.92
▁Diana	-11.9203
▁Fidel	-11.921
▁Peter	-11.9211
▁REE	-11.9213
▁Suzy	-11.9222
▁ruwng	-11.9233
▁Donbass	-11.9235
▁gowmf	-11.9235
▁Vaaps	-11.9237
▁Kagawa	-11.9247
▁Giawng	-11.9252
▁truaats	-11.9259
▁THTT	-11.9262
chuwa	-11.9265
txc	-11.9269
Soongs	-11.9283
▁Wanbi	-11.9284
▁Duwowis	-11.9284
▁Santa	-11.9284
▁TCT	-11.9285
▁007	-11.9285
nghieenj	-11.9296
▁Hodgson	-11.9308
▁Ghana	-11.9321
▁Reus	-11.9322
▁Hebdo	-11.9333
▁kenf	-11.9346
▁Championship	-11.9346
▁trots	-11.9356
ddieeuf	-11.9358
▁3,6	-11.9369
Bom	-11.9377
▁thots	-11.9383
▁Ngoaif	-11.9384
bee	-11.9384
back	-11.9384
vowx	-11.9395
▁Leverkusen	-11.9395
▁CASA	-11.9396
▁guix	-11.9397
▁Xaam	-11.9401
▁Gioongs	-11.9408
Quais	-11.9411
▁Premiership	-11.942
Hanhf	-11.942
Hayx	-11.942
▁gaof	-11.9425
▁Prudential	-11.9433
▁Xuoongs	-11.9433
▁dance	-11.9433
Bawts	-11.9434
▁2,8	-11.9439
ppe	-11.9445
▁Poroshenko	-11.9445
▁Evra	-11.9445
▁nem	-11.945
▁Khoai	-11.9454
▁Brussels	-11.9458
▁Interpol	-11.9458
▁Center	-11.947
▁Wells	-11.9483
▁titj	-11.9516
CoV	-11.9519
▁Thacs	-11.9525
▁Type	-11.9533
enFone	-11.9547
Buwowcs	-11.9549
350	-11.9558
▁Stamford	-11.9559
▁Boonf	-11.9559
▁trieets	-11.9561
▁Carey	-11.959
▁Steven	-11.959
▁Ranieri	-11.9597
▁guitar	-11.9597
▁Angelababy	-11.9609
▁Baayx	-11.961
▁Philips	-11.9622
xaaus	-11.9623
▁Shayk	-11.9635
uwowcj	-11.9635
▁buwcj	-11.9638
▁Viglacera	-11.9648
▁ddieemf	-11.9648
raapj	-11.9648
illa	-11.9649
▁ngowi	-11.9665
▁VietJet	-11.9673
▁CMND	-11.9673
▁vomf	-11.9679
▁2-9.	-11.968
▁Phantom	-11.9686
▁Sawms	-11.9686
▁Yeon	-11.9688
▁cuir	-11.9693
▁Erdogan	-11.9699
▁Cienco	-11.9712
▁Watson	-11.9712
▁dayx	-11.9725
▁Macau	-11.9727
esut	-11.9729
doaj	-11.9737
▁Hezbollah	-11.9738
▁White	-11.9738
nangf	-11.9747
thooir	-11.9753
▁Mobifone	-11.9763
xuaats	-11.9765
Thaam	-11.9768
▁3,2	-11.9778
▁rooix	-11.9791
▁Khan	-11.9791
▁Buns	-11.9799
▁Becamex	-11.9802
▁Fund	-11.9807
Caauf	-11.9813
▁Fortuner	-11.9815
tuyts	-11.9816
▁Masan	-11.9818
ddiaj	-11.9819
▁Ivanovic	-11.9828
▁XKLĐ	-11.9829
▁Port	-11.984
▁smartwatch	-11.9841
troons	-11.9845
▁Daau	-11.9847
▁theeu	-11.9852
▁Subaru	-11.9854
Chaan	-11.9855
▁Oezil	-11.9867
▁Shakira	-11.988
▁Texas	-11.988
▁Amy	-11.9893
▁Shangri	-11.9894
(!?)	-11.9894
▁Chanel	-11.9894
giowf	-11.9896
▁Quinvaxem	-11.9907
Avatar	-11.992
▁for	-11.992
▁Kerry	-11.9927
▁wifi	-11.9933
▁Cbiz	-11.9938
▁Heat	-11.9947
dduwowcj	-11.9962
▁House	-11.9972
▁vaaps	-11.9979
▁SeABank	-11.9986
phuf	-11.9995
▁Hinh	-11.9997
▁NXB	-11.9999
▁Khacs	-12.0004
▁Nano	-12.0007
▁sopcast	-12.0012
ngoaij	-12.0015
▁Comp	-12.0017
ddawng	-12.0033
Star	-12.0035
▁Valdes	-12.0039
▁Vinpearl	-12.0039
▁gieeux	-12.0039
▁huaan	-12.004
thaats	-12.0043
▁Holding	-12.0052
▁THAAD	-12.0052
treen	-12.0057
▁UBT	-12.0076
▁Tennis	-12.0079
▁Mike	-12.009
group	-12.0092
▁ngoais	-12.0092
zone	-12.0099
mawtj	-12.0105
▁muts	-12.0109
▁Buffett	-12.0122
ddaof	-12.0131
▁goongf	-12.0132
▁muwowtj	-12.0136
▁Thaco	-12.0136
▁limj	-12.0173
▁nhai	-12.0176
▁Boko	-12.0176
▁Billboard	-12.0186
▁2,1	-12.0199
▁Kaspersky	-12.0199
▁Kuwait	-12.0199
▁gameshow	-12.0201
▁Doaj	-12.0203
▁Chows	-12.0204
▁vuoots	-12.0216
▁leeuf	-12.0217
▁Nhuwaj	-12.0217
▁1,9	-12.0225
▁CNLĐ	-12.0227
7,5	-12.0239
▁Sociedad	-12.0254
▁BCTC	-12.0254
▁TTCN	-12.0261
▁Giotj	-12.0272
▁NBA	-12.0273
▁Gary	-12.0274
▁McDonald	-12.0281
▁Lawrence	-12.0281
▁Haram	-12.0281
▁EPS	-12.0294
▁eem	-12.0304
Phaps	-12.0313
sowf	-12.0313
▁Nelson	-12.0322
▁Sarkozy	-12.0322
▁Frank	-12.0322
▁thocs	-12.0322
▁hanx	-12.0322
▁Jakarta	-12.0335
▁Kremlin	-12.0335
▁TCty	-12.0335
▁Royal	-12.0335
▁Bosque	-12.0336
Series	-12.034
5,6	-12.0344
khocs	-12.0346
Messi	-12.0354
▁Kiatisak	-12.0363
▁UBCK	-12.0363
▁Iron	-12.0372
▁nhaoj	-12.0379
▁Khedira	-12.039
▁Palm	-12.0393
▁veenh	-12.0404
▁neem	-12.0407
chowj	-12.0409
ddeej	-12.0409
▁Byung	-12.0418
▁quawng	-12.042
▁Azerbaijan	-12.0432
▁Raayx	-12.0432
▁Transformer	-12.0436
▁tuir	-12.0442
▁bichs	-12.0442
▁CHUYEENR	-12.0445
▁Joon	-12.0458
▁Brook	-12.0473
▁Julia	-12.0475
▁hus	-12.0486
▁Khaaur	-12.0487
uckerberg	-12.0501
▁Ninja	-12.0501
▁Scolari	-12.0515
ichi	-12.0515
▁chieem	-12.0518
Muaf	-12.0526
▁Earth	-12.0529
▁AVG	-12.0529
chems	-12.0538
▁full	-12.0543
▁idol	-12.0543
▁hocs	-12.0545
▁Cameroon	-12.0557
▁Khaisilk	-12.0557
▁Scarlett	-12.0557
▁SVĐ	-12.0562
▁4.500	-12.0577
Bawcs	-12.0581
▁XVI	-12.0587
▁Veyron	-12.0599
▁Cesc	-12.0599
▁Andre	-12.0609
▁Viagra	-12.0613
▁Psy	-12.0613
▁xieets	-12.0619
▁Getafe	-12.0627
▁startup	-12.0627
▁600.000	-12.0628
▁Suwur	-12.0647
▁QĐND	-12.0655
▁ATTP	-12.0657
5,000	-12.0657
▁Philipp	-12.067
▁Elite	-12.0671
▁series	-12.0684
▁Warren	-12.0684
▁raayr	-12.0685
!!!	-12.0686
▁Neville	-12.0698
▁Palmyra	-12.0698
▁Phelps	-12.0698
▁Puyol	-12.0698
▁Standard	-12.0698
▁Thoais	-12.0698
baauf	-12.0709
▁NHUWOWNGJ	-12.0712
▁Rowts	-12.0718
▁beta	-12.0726
Hangf	-12.0733
▁gym	-12.074
▁Oracle	-12.0755
▁TNXP	-12.0755
▁2015/16	-12.0755
▁Naams	-12.0777
hows	-12.0794
▁Vinacomin	-12.0798
▁Glass	-12.0798
Computex	-12.0812
▁Sturridge	-12.0812
▁Toni	-12.0815
▁Lownj	-12.0819
▁diesel	-12.0826
▁concert	-12.0841
▁dduoongs	-12.0841
▁Chamj	-12.0842
haauj	-12.0851
▁Ezzor	-12.0855
▁BNHV	-12.0855
▁Vanessa	-12.0855
▁nguwowngj	-12.0855
AATJ	-12.087
wood	-12.087
▁Burnley	-12.0884
▁Etihad	-12.0884
▁Venus	-12.0913
▁dootj	-12.0913
▁5.0	-12.0921
▁goir	-12.0922
▁Jean	-12.0928
vongf	-12.0929
Nhaan	-12.0936
▁buoomf	-12.0942
▁Kroos	-12.0942
▁Looi	-12.0949
trumf	-12.0965
▁Vogue	-12.0971
▁single	-12.0971
▁Angeles	-12.0986
▁marathon	-12.0986
▁PET	-12.099
▁3,3	-12.0997
▁PGĐ	-12.1001
▁nail	-12.1006
▁TTXVN	-12.103
▁cuoongs	-12.1044
▁Kosovo	-12.1059
▁Ghes	-12.1059
▁River	-12.1062
daayj	-12.1062
baayx	-12.1083
choongs	-12.1083
▁Elizabeth	-12.1089
▁Levante	-12.1089
▁DPM	-12.1089
▁BLV	-12.1089
▁Liberty	-12.1103
▁Limited	-12.1103
▁ddaanj	-12.1103
dduwa	-12.1117
▁Vongj	-12.1133
▁CĐCS	-12.1137
khoawngs	-12.1145
▁Frankfurt	-12.1148
▁chawps	-12.1148
▁lius	-12.1169
vui	-12.1177
▁kex	-12.1179
▁Kennedy	-12.1192
▁Atl	-12.1192
Fone	-12.1193
▁model	-12.1207
▁quetj	-12.1207
▁Vujicic	-12.1222
▁Hugh	-12.1222
▁OGC	-12.1222
▁marketing	-12.1237
▁Thieeuf	-12.1237
▁ddawns	-12.1252
▁MTXT	-12.1267
▁Ramsey	-12.1267
▁bitcoin	-12.1267
▁Ultrabook	-12.1283
▁Muller	-12.1283
▁Saint	-12.1284
▁nacj	-12.1284
▁Ruwowcs	-12.1291
▁Richard	-12.1297
▁Celta	-12.1297
▁MSI	-12.1298
▁10,000	-12.13
▁Bluetooth	-12.1312
▁Bremen	-12.1312
▁Retina	-12.1312
▁Forbes	-12.1312
▁Truwowtj	-12.1312
Davidson	-12.1318
▁Pacquiao	-12.1328
▁Seven	-12.1328
50,000	-12.1335
▁Blanc	-12.1339
▁HaSTC	-12.1343
▁Raqqa	-12.1343
▁naacs	-12.1343
▁nilon	-12.1344
▁VHTTDL	-12.1373
▁goomf	-12.1373
▁Navibank	-12.1403
▁Edward	-12.1419
▁Nhieemx	-12.1419
▁Ucraina	-12.1419
▁VAT	-12.1421
▁Thaapj	-12.1437
▁Podolski	-12.1449
▁Bolton	-12.1452
quaayr	-12.1459
suwj	-12.1461
▁Rossi	-12.1465
▁Hamburg	-12.1465
▁Khoangs	-12.1467
▁Isco	-12.148
▁Vaart	-12.1483
cawms	-12.1491
▁Baggio	-12.1511
▁General	-12.1511
5,5	-12.1521
ddangs	-12.1525
▁HHTG	-12.1526
▁dooif	-12.1526
field	-12.1536
▁muoongs	-12.1542
▁Marketing	-12.1543
▁Thiago	-12.1557
▁boocj	-12.1589
▁Shaw	-12.1593
Chuwa	-12.1595
girl	-12.1598
OWN	-12.1603
▁rocket	-12.1605
▁DSLR	-12.1619
▁Johansson	-12.1619
▁Blackburn	-12.1666
▁Adobe	-12.1666
▁khuynh	-12.1666
▁ddungf	-12.1674
▁Vinatex	-12.1681
Arsenal	-12.1694
▁giownx	-12.1697
▁Gheps	-12.1713
▁phawng	-12.1741
▁Thomas	-12.1744
▁size	-12.1745
Phair	-12.1757
Caauj	-12.1757
▁Guinea	-12.176
▁School	-12.176
▁bauxite	-12.176
ounce	-12.176
30.000	-12.1762
▁Thacj	-12.1764
▁aapj	-12.1764
▁TTTM	-12.1776
▁Armata	-12.1792
▁Foxconn	-12.1808
▁Romney	-12.1808
Awn	-12.181
▁Focus	-12.1823
▁Lugansk	-12.1823
▁Beck	-12.1835
▁huwowu	-12.1839
▁shopping	-12.1855
▁VietJetAir	-12.1871
▁Kaesong	-12.1919
▁chocolate	-12.1919
Tuwj	-12.1933
▁Novak	-12.1935
▁nhownf	-12.1939
dawnf	-12.1951
▁Azarenka	-12.1951
▁KBC	-12.1951
▁Slam	-12.1952
▁Girl	-12.1958
▁Watford	-12.1967
▁Moody	-12.1985
▁Classic	-12.2001
▁Netbook	-12.2016
▁Walker	-12.2016
chaams	-12.2017
▁Sukhoi	-12.2032
▁VietGAP	-12.2048
▁Food	-12.2048
▁AAG	-12.2048
▁OSCE	-12.2065
▁PlayStation	-12.2065
hoopj	-12.207
tieeur	-12.208
▁Moskva	-12.2081
▁xieem	-12.2081
▁Dzeko	-12.2097
▁Fujifilm	-12.2113
▁Kidman	-12.2113
▁Nishikori	-12.2113
▁VCCI	-12.2114
▁Fernando	-12.213
▁TTATGT	-12.213
▁danj	-12.213
▁ngawtj	-12.2132
▁short	-12.2146
▁Giongs	-12.2146
▁thuwowts	-12.2146
▁Neuer	-12.2179
▁Volvo	-12.2179
▁KSND	-12.218
Chelsea	-12.2195
▁Matteo	-12.2196
Phowts	-12.2196
▁Hotboy	-12.2212
▁Nintendo	-12.2212
▁Vovinam	-12.2212
▁1/9	-12.2214
hucs	-12.2215
▁800.000	-12.2229
LienVietPostBank	-12.2245
▁nguwowngr	-12.2245
▁Riedl	-12.2262
▁hattrick	-12.2262
tuyeetj	-12.2278
▁Aspire	-12.2312
▁Picture	-12.2312
▁Winehouse	-12.2312
▁baanf	-12.2313
▁Prime	-12.2319
▁Photoshop	-12.2328
▁phablet	-12.2328
▁Angola	-12.2345
Kinh	-12.2347
6,5	-12.235
▁muwowps	-12.2362
▁1-0-2	-12.2364
▁Sunrise	-12.2395
▁nowps	-12.2395
▁Celtic	-12.2412
▁Wozniacki	-12.2412
▁Tony	-12.2414
▁Corolla	-12.2446
▁Explorer	-12.2446
▁Mumbai	-12.2446
▁Platini	-12.2446
▁chuoonf	-12.2447
▁Friday	-12.2463
▁NSNN	-12.2463
▁Asean	-12.2463
Choangs	-12.2464
▁700.000	-12.2481
Kieen	-12.2484
▁Silicon	-12.2497
▁VNTM	-12.2497
▁Micro	-12.2498
40.000	-12.2504
▁uaats	-12.2531
sowj	-12.2533
▁Khuaats	-12.2548
Nangf	-12.2549
form	-12.2565
▁Kevin	-12.2582
▁Timberlake	-12.2582
▁TMV	-12.2582
Cawpj	-12.2584
▁Falk	-12.2587
▁Anderson	-12.2599
cuoomx	-12.2601
▁Fansipan	-12.2617
▁mieeus	-12.2617
4,5	-12.2629
▁bolero	-12.2634
▁Spurs	-12.2634
▁JVC	-12.2634
▁Santos	-12.2634
Nusra	-12.2635
3,5	-12.2652
▁Sudoku	-12.2668
Suwj	-12.2688
▁Courtois	-12.2703
choangs	-12.2706
▁Droid	-12.272
▁Kyi	-12.272
▁Macbook	-12.2721
myx	-12.2723
▁Lazada	-12.2738
▁maanj	-12.2738
▁Vowts	-12.2739
▁Carrick	-12.2755
Game	-12.2758
▁Armenia	-12.279
▁Jonas	-12.2808
▁teaser	-12.2825
▁boxing	-12.2825
Vowj	-12.2845
Nhieeuf	-12.2863
Khanhs	-12.2863
▁Deportivo	-12.2896
▁Design	-12.2896
▁Mozilla	-12.2896
▁tuyr	-12.2913
▁Maanx	-12.2913
▁Happy	-12.2931
▁HSSV	-12.2931
