, 330104696
. 192934725
▁và 92395600
▁của 89843607
▁có 71777380
▁các 63670898
▁là 61642421
▁được 54203045
▁trong 51959089
▁cho 51738071
▁với 49156063
▁đã 46829265
▁một 46426058
▁không 46233592
▁người 44950786
▁công 33902434
▁những 32739995
▁( 31534869
: 31072313
▁này 30989948
▁để 30816337
▁về 28968079
▁ở 28202029
▁năm 28002634
▁khi 27909816
▁tại 27360663
▁đến 26737209
▁ra 26306170
▁- 25165906
▁vào 24654516
▁hiện 24387203
▁từ 24295828
▁định 24237655
▁trên 24006899
▁thể 23956981
▁bị 23084536
▁đầu 23078701
▁cũng 22924049
▁đồng 22910443
▁đó 22885503
▁việc 22667252
▁số 22643351
) 22297996
▁ngày 22264145
▁sẽ 22048407
▁động 21820379
▁nước 21729818
▁nhiều 21427725
▁làm 21389609
▁nhà 21221938
▁như 20923020
▁quan 20870374
▁sự 19987906
▁lại 19931122
▁thành 19758154
▁nhân 19452759
▁phải 19347167
▁chính 17950459
▁hàng 17887203
▁chỉ 17784731
▁" 17711042
▁Nam 17660702
▁gia 17394835
▁cơ 17057582
▁ông 16849806
▁trường 16512141
▁thực 16481508
▁học 16233103
▁dân 16163964
▁Việt 16126244
▁hành 16013833
▁theo 15438765
▁hợp 15423022
▁tôi 15175241
▁vụ 15088621
▁thông 14889264
▁giá 14870508
▁thời 14837745
▁chức 14822600
▁hơn 14745919
▁nhất 14645185
▁còn 14614478
▁điều 14566473
; 14241324
▁lý 14231100
▁sau 14208091
▁phát 14008861
▁biết 13916691
▁thì 13915869
▁đi 13676845
▁đang 13641853
▁viên 13625859
▁nhưng 13605886
▁nhận 13439934
▁con 13367086
▁mới 13365872
▁sản 13278297
▁trình 13133153
▁dụng 12997387
▁sinh 12905692
▁qua 12901002
▁đối 12718501
▁hội 12648701
▁nghiệp 12475284
▁tế 12438003
▁mà 12385285
▁hình 12381528
▁cao 12202122
▁thế 12131904
- 12107123
▁tư 11997500
▁cấp 11886032
▁bộ 11850001
▁xuất 11798382
▁trước 11708684
▁cùng 11657724
▁rất 11457223
▁tin 11410558
▁mình 11399897
▁Quốc 11330024
▁xe 11250632
▁tiếp 11198043
▁kết 11169889
▁anh 11162653
▁lên 11139143
▁cả 11045338
▁do 11004551
▁lượng 10978035
▁điểm 10926585
▁tác 10851726
▁án 10697243
▁đường 10690844
▁tháng 10686707
▁tỉnh 10640692
▁nên 10583677
▁dự 10533816
" 10493370
▁kinh 10398957
▁Trung 10334080
▁giải 10331609
▁tăng 10314793
▁tình 10207356
▁báo 10191016
▁cầu 10111523
▁Công 10043646
▁Bộ 9932154
▁hai 9907319
▁xã 9885074
▁khác 9859456
▁quy 9830343
▁đề 9754994
▁vẫn 9706099
▁tới 9701216
▁vì 9677053
▁nói 9676485
▁nay 9661971
▁chủ 9628806
▁năng 9588092
▁triển 9492008
▁đây 9438809
▁bạn 9404100
▁doanh 9398949
▁cách 9340469
▁lực 9332235
▁Hà 9301831
▁cuộc 9252581
▁bảo 9251601
▁tổ 9178504
▁tiền 9153196
▁thị 9058157
▁2 8901730
▁an 8809951
▁bản 8790300
▁quyết 8735844
▁pháp 8732866
▁toàn 8719305
▁vị 8673997
▁giới 8592761
▁giao 8581455
▁tài 8540942
▁lớn 8500702
▁tâm 8482601
▁Mỹ 8420917
▁độ 8418478
▁thủ 8389019
▁quốc 8385979
▁thi 8374593
▁sử 8353890
▁địa 8266265
▁thống 8240950
▁rằng 8219431
▁mặt 8168785
▁loại 8156918
▁tự 8142040
▁phòng 8098190
▁thu 8091916
▁Nguyễn 8046312
▁tạo 8026794
▁thấy 8015425
▁bằng 8013309
▁quả 7997387
▁phần 7992617
▁nhiên 7949475
▁tra 7946006
▁Theo 7907577
▁khu 7905728
▁diễn 7861328
▁họ 7832774
▁gian 7803126
▁liên 7798186
▁phương 7789026
▁máy 7771608
▁chưa 7746757
▁Trong 7739367
▁ảnh 7693076
▁đất 7601257
▁lần 7590334
▁dựng 7534766
▁cần 7516501
▁ý 7505570
▁hoạt 7461733
▁đạo 7454542
▁tục 7448466
▁tính 7386003
▁đại 7357918
▁hóa 7341689
▁tiêu 7322835
▁cô 7319885
▁nào 7317075
▁yêu 7279845
▁Nội 7273584
▁thường 7272497
▁đội 7246027
▁bán 7204864
▁vực 7157946
▁triệu 7135003
▁thương 7118543
▁hiệu 7115357
▁khách 7101035
▁hệ 7090289
▁trưởng 7087143
/ 7081637
▁tập 7078223
▁quyền 7045744
▁3 7038832
▁ty 7010691
▁điện 6993573
▁sở 6976739
▁chúng 6970816
▁hay 6952983
▁Anh 6943216
▁tuổi 6940951
▁nhiệm 6878894
▁khai 6873593
▁1 6842158
▁trọng 6841003
▁em 6834290
▁chất 6814827
▁tham 6789382
▁đưa 6729408
▁đơn 6724312
▁xây 6663635
▁thức 6656029
▁quá 6649086
▁phố 6609078
▁trở 6608560
▁trị 6608162
▁ngoài 6561901
▁phẩm 6557670
▁ban 6522338
▁chiến 6507379
▁tỷ 6494799
▁Văn 6481833
▁sống 6471627
▁chế 6448664
▁bệnh 6442379
▁sát 6244257
▁trung 6237409
▁sĩ 6205086
▁văn 6190423
▁đổi 6154326
▁dịch 6146639
▁gần 6081412
▁tích 6062649
▁sách 6057752
▁cáo 6026114
▁hoặc 6018059
▁giảm 6017947
▁mạnh 5987430
▁thứ 5975224
▁lập 5975075
▁bắt 5917329
▁TP 5906754
▁ăn 5905468
▁đấu 5898037
▁vừa 5892627
▁bố 5877570
▁thiết 5867770
▁đình 5858668
▁giờ 5857056
▁quản 5854291
▁đánh 5813348
▁bất 5799875
▁kiến 5783836
▁thuộc 5780272
▁mức 5757210
▁huyện 5755504
▁quân 5748613
▁trẻ 5714806
▁kiểm 5706979
▁khoảng 5701412
▁bàn 5677735
▁chuyển 5666791
▁vấn 5641032
▁cảm 5630783
▁bà 5626118
▁mua 5580629
▁ta 5563028
▁dẫn 5511290
▁Các 5476654
? 5464120
▁khiến 5458492
▁đều 5455643
▁biệt 5449302
▁trang 5438976
▁khó 5433708
▁cứu 5426457
▁tượng 5420391
▁phạm 5417065
▁tốt 5408403
▁tay 5393927
▁hoàn 5315644
▁nghị 5290921
▁diện 5287087
▁phủ 5285767
▁kế 5273790
▁giúp 5262542
▁vậy 5259893
▁cảnh 5240048
▁vi 5201913
▁sáng 5198669
▁thêm 5184835
▁gây 5183810
▁luật 5183062
▁Tuy 5181054
▁vệ 5177122
▁trợ 5174899
▁vật 5152082
▁dùng 5126778
▁nghệ 5118567
▁chứng 5102416
▁hoạch 5098480
▁gì 5096208
▁Chính 5093406
... 5091803
▁kỳ 5080374
▁nhau 5068823
▁tìm 5050659
▁bên 5017409
▁Bình 4980797
▁tên 4979378
▁Tổng 4973913
▁xử 4967566
▁tiên 4956238
▁ứng 4950862
▁cá 4947383
▁trận 4933531
▁phục 4926933
▁giữa 4915489
▁từng 4900116
), 4858159
▁nữ 4843996
▁tiếng 4832035
). 4826511
▁muốn 4819882
▁bình 4812015
▁mang 4808346
▁cổ 4784970
▁ngành 4779999
▁Thanh 4777665
▁nhập 4762628
▁chị 4759543
▁hướng 4743369
▁chiếc 4725743
▁đặc 4696123
▁đoàn 4695838
▁phí 4677749
▁tịch 4676881
▁truyền 4673322
▁4 4672201
▁chuyên 4633582
▁sức 4627281
▁lời 4623102
▁5 4609599
▁ký 4603401
▁hộ 4594037
▁chi 4586565
▁chí 4578645
▁, 4545976
▁biểu 4545001
▁tiến 4540596
▁giáo 4533295
▁kiện 4499775
▁bóng 4499450
▁trí 4499129
▁bao 4497032
▁bay 4487645
▁rồi 4482986
▁phụ 4481868
▁hết 4469676
▁thân 4465168
▁mẹ 4455616
▁Chủ 4443178
▁nguyên 4440964
▁lợi 4438997
▁nếu 4429991
▁giữ 4400052
▁Sau 4386980
▁nơi 4356119
▁liệu 4353909
▁Nhà 4353447
▁Ông 4346931
▁hạn 4293755
▁đạt 4286226
▁10 4281058
▁vốn 4277561
▁lịch 4268060
▁thuật 4264348
▁thanh 4261558
▁lúc 4256624
▁tổng 4254482
▁xác 4241346
▁biến 4226677
▁nội 4203471
▁Điều 4202187
▁thích 4196294
▁bỏ 4187834
▁sao 4182550
▁thay 4129900
▁Minh 4113954
▁tranh 4106298
▁chung 4104932
▁phân 4096890
▁chuyện 4058355
▁Một 4043101
▁dài 3989558
▁tử 3985112
▁Đại 3966419
▁đẹp 3965903
▁cứ 3952369
▁chương 3951651
▁biển 3950931
▁Hội 3945116
▁đủ 3916942
▁vùng 3911421
▁cái 3885726
▁tàu 3877824
▁mạng 3851542
▁viện 3850411
▁nạn 3843946
▁tiết 3842727
▁mục 3835076
▁gặp 3819402
▁rõ 3814406
▁sân 3808065
▁xem 3802997
▁nguồn 3794465
▁so 3783522
▁Thủ 3758816
▁giả 3754676
▁Hải 3751632
▁mỗi 3751017
▁chọn 3746554
▁danh 3737858
▁trực 3731605
▁UBND 3730999
▁mất 3721413
▁trả 3717138
▁mọi 3713954
▁Nga 3705258
▁nhỏ 3695252
▁cuối 3680827
▁đảm 3673871
▁kể 3669288
▁ca 3651312
▁USD 3641676
▁chia 3618434
▁chuẩn 3616922
▁Sở 3612452
▁chồng 3600119
▁tướng 3595826
▁Ban 3586143
▁trách 3579845
▁ngay 3573914
▁vận 3570793
▁sơ 3570698
▁hồ 3538664
▁Tôi 3538143
▁ngân 3530239
▁phim 3528731
▁mắt 3525190
▁phía 3519339
▁Thị 3489455
▁gái 3478464
▁khẩu 3462014
▁6 3458023
▁Thành 3457921
▁ấy 3448884
▁mở 3445228
▁khí 3430426
▁minh 3430239
▁Đức 3425714
▁Đông 3423160
▁xuống 3422827
▁An 3404929
▁khả 3404739
▁phép 3398810
▁nữa 3395906
▁vàng 3390538
▁đặt 3390224
▁đốc 3371921
▁chơi 3365290
▁Những 3358025
▁lãnh 3349561
▁vợ 3339378
▁bởi 3335016
▁hưởng 3333602
▁cửa 3296650
▁luôn 3294186
▁dù 3290299
▁hỗ 3286524
▁xét 3283866
▁xảy 3276258
▁cố 3273963
▁Sơn 3268446
▁chống 3262813
▁Hoàng 3257162
▁ít 3253471
▁đời 3252347
▁nông 3242660
▁nổi 3240552
▁du 3238623
▁đúng 3234476
▁khoa 3233391
▁Bắc 3223116
▁vô 3219317
▁nó 3218603
▁đá 3193163
▁dục 3174043
▁áp 3170157
▁đoạn 3169375
▁tương 3159370
▁lao 3150554
▁yếu 3149992
▁gồm 3148938
▁lấy 3146340
▁thắng 3130614
▁nhóm 3130147
▁sang 3127659
▁trạng 3108451
▁cạnh 3100768
▁dung 3085970
▁gọi 3068706
▁tấn 3054188
▁đăng 3026966
▁đóng 3026603
▁dưới 3019056
▁Liên 3018609
▁vòng 3016978
▁nghiệm 3003678
▁cung 2999641
▁luận 2992427
▁Phó 2992110
▁tối 2985778
". 2985659
▁nhằm 2980588
▁hôm 2976298
▁Khi 2974228
▁hỏi 2969932
▁mô 2969918
▁ba 2968840
▁cây 2955606
▁khăn 2944921
▁thư 2941594
▁chân 2934692
▁Người 2929639
▁Ảnh 2920630
▁tuần 2917661
▁sắc 2909524
▁ai 2906839
▁bé 2905563
▁phối 2897274
▁kỹ 2892153
▁lưu 2889826
▁Lê 2889631
▁khá 2884838
▁hậu 2881305
▁Trần 2880651
▁tố 2877764
▁nhanh 2872533
▁giám 2871502
▁bài 2869039
▁Ủy 2861509
▁hồi 2860369
▁lệ 2856502
▁tải 2844780
▁Không 2841514
h 2835806
▁rộng 2830290
▁Thái 2829583
▁tất 2827490
▁đáng 2807368
▁ghi 2802407
▁Nhưng 2800425
▁Ngày 2798303
▁nhạc 2786100
▁tinh 2785443
▁Tây 2779783
▁trái 2773904
▁Nhật 2769174
▁hoa 2758346
▁toán 2758245
▁góp 2757432
▁cán 2752864
▁mẫu 2740338
▁câu 2736365
▁Thể 2732120
▁chiều 2706142
▁đô 2703943
▁quận 2687290
▁càng 2687278
▁Nếu 2685623
▁tuyển 2684402
▁hữu 2683345
▁Dương 2682894
▁Trường 2676091
▁Đồng 2672471
▁chết 2668326
▁thật 2667179
▁lòng 2662835
▁7 2656095
▁ngoại 2649291
▁Trước 2649282
▁mùa 2646292
▁đồ 2638425
▁sẻ 2638095
▁chịu 2624210
▁cực 2620815
▁Có 2619850
▁trò 2619278
▁màu 2617996
▁nâng 2613920
▁phiên 2604475
▁chạy 2602955
▁nhìn 2599469
▁khoản 2597482
▁thuốc 2594227
▁Hồ 2593525
▁đầy 2591790
▁nghĩa 2588680
▁phong 2585924
▁đảo 2581009
▁môi 2576904
▁đàn 2565985
▁Ngọc 2555789
▁di 2541343
▁Đây 2537199
▁Long 2534671
▁cụ 2532852
▁gửi 2525551
▁nghĩ 2524503
▁độc 2524126
▁thẩm 2521364
▁phản 2517860
▁tội 2511543
▁căn 2503895
▁hiểu 2485708
▁lĩnh 2481694
▁8 2478235
▁riêng 2470202
▁thoại 2463732
▁=!= 2461707
▁đêm 2457221
▁thiếu 2456096
▁chấp 2446995
▁tuyến 2441723
▁phiếu 2438685
▁tuyên 2435114
▁đứng 2432554
▁cộng 2432410
▁vọng 2429923
▁y 2425914
▁nghề 2423365
m 2421910
▁lộ 2415500
▁Từ 2412484
▁thần 2409220
▁hòa 2403497
", 2400958
▁nằm 2400082
▁dễ 2388376
▁thuế 2388308
▁đông 2384245
▁cử 2375199
▁bổ 2370675
▁lễ 2368422
▁Bản 2362607
▁Ngoài 2361393
▁Tại 2358825
▁Với 2354967
▁20 2350910
▁suất 2344869
▁kỷ 2322978
▁mại 2319567
▁đa 2318452
▁trai 2316359
▁châu 2313539
▁12 2309979
▁cư 2307465
▁phá 2300236
▁vai 2299680
▁nghiên 2287034
▁Lan 2286651
▁Hiện 2284535
▁Thông 2283542
▁khỏi 2281436
▁môn 2281235
▁dành 2276541
▁hại 2274150
' 2267437
▁bước 2255089
▁thuận 2247930
▁hiểm 2244158
▁Quảng 2220518
▁giấy 2215529
▁phút 2214295
▁đôi 2211442
▁9 2209645
▁Luật 2207794
▁' 2199783
▁Tài 2192354
▁tưởng 2191422
▁nguy 2187889
▁đào 2186741
▁Xuân 2177775
▁xa 2176967
▁tai 2166485
▁chú 2165680
▁buổi 2158738
▁khẳng 2158294
▁thấp 2156673
▁Hòa 2155099
▁lo 2135557
▁Hoa 2133783
▁niên 2133035
▁thôn 2125198
▁đẩy 2119497
▁ngờ 2118082
▁huy 2110399
▁xin 2110330
▁hạ 2106894
▁soát 2106795
▁thảo 2104947
▁lớp 2102293
▁biên 2100601
▁phạt 2094996
▁vượt 2094971
▁vài 2092692
▁áo 2087530
▁tiện 2084574
▁Giám 2084001
▁cải 2080584
▁thiện 2052312
▁kéo 2042195
▁vũ 2041272
▁nuôi 2040692
▁xúc 2035579
▁nặng 2035133
▁cường 2033419
▁khảo 2028868
▁Pháp 2028244
▁âm 2024308
▁ngôi 2020619
▁tín 2017259
▁thủy 2014512
▁dầu 2014339
▁Nghị 2001623
▁nghe 1995524
▁vui 1988765
▁A 1984359
▁lửa 1983593
▁Đảng 1981176
▁phù 1980688
▁nền 1973717
▁hát 1970908
▁Năm 1967823
▁chỉnh 1960364
▁họp 1957735
▁30 1951834
▁nghiêm 1950918
▁giống 1948006
▁Phòng 1940012
▁lâu 1940009
▁Giang 1933515
▁Phú 1933345
▁thưởng 1930887
▁thúc 1917902
▁trì 1915586
▁Hàn 1909596
▁tầng 1907571
▁sâu 1906015
▁nam 1904907
▁khỏe 1904761
▁kiếm 1894583
▁bác 1892995
▁trao 1882711
▁Tổ 1879175
▁15 1877979
▁Quang 1876557
▁Phương 1865269
▁11 1864681
▁phường 1863506
▁Tân 1859821
▁ủy 1859136
▁Nguyên 1845685
▁phóng 1844964
▁khởi 1841910
▁ô 1836005
▁nợ 1829764
! 1827784
▁phê 1823374
▁hút 1823145
▁miền 1820708
▁viết 1812241
▁sư 1811105
▁Á 1810042
▁xuyên 1809516
▁duy 1803967
▁Vì 1800859
▁Phạm 1796758
▁Chỉ 1796019
▁sớm 1791620
▁da 1789255
▁sông 1775454
▁ương 1769849
▁Cục 1769051
▁HLV 1768960
▁thăm 1756904
▁Kim 1751424
▁cháu 1751418
▁ổn 1750355
▁C 1741199
▁dòng 1734997
▁quý 1734048
▁tòa 1731508
▁thất 1728534
▁Y 1725368
▁thuê 1724757
▁Tiên 1724387
▁bức 1724109
▁Hồng 1721021
▁chỗ 1719197
▁buộc 1715995
▁ninh 1713976
▁sung 1713347
▁chiếm 1713280
▁tốc 1705578
▁thí 1704837
▁Quyết 1701244
▁tức 1700619
▁chữa 1698143
▁vay 1695598
▁T 1693492
▁Nhiều 1692374
▁mong 1692045
▁nghỉ 1688538
▁chắc 1679917
▁hạng 1678401
▁Thế 1676938
▁Kỳ 1673954
▁sai 1668277
▁Ninh 1667948
▁giai 1661125
▁dấu 1659895
▁Đà 1659288
▁đau 1650816
▁Việc 1650339
▁đâu 1645809
▁tỏ 1645658
▁quay 1644804
▁Phát 1639926
▁mối 1636382
▁Châu 1631094
▁chẳng 1630236
▁bầu 1625013
▁Vũ 1622100
▁hãng 1619622
▁dưỡng 1618184
▁mưa 1616167
▁sửa 1615696
▁mặc 1615402
▁thác 1614411
▁Bảo 1614320
▁đáp 1613284
▁Bà 1610996
▁Ngân 1605718
▁Để 1598010
▁đỏ 1590199
▁uống 1588990
▁tạm 1586172
▁cháy 1585487
▁nhớ 1585371
HCM 1584778
▁khán 1583152
▁ưu 1580406
▁tránh 1577718
▁biện 1571857
▁nhu 1568231
▁bảng 1567082
▁nghi 1566554
▁kích 1564132
▁lương 1561459
▁quán 1561079
▁tái 1558358
▁Chí 1557816
▁giành 1557088
▁làng 1554037
▁phúc 1552628
▁Dự 1551971
▁1. 1550892
▁Do 1547178
▁xanh 1545880
▁Tuấn 1543841
▁2. 1542869
▁màn 1540082
▁H 1539808
▁cánh 1538444
▁Cơ 1538220
▁cục 1533342
▁vẻ 1524686
▁U 1522813
▁Chi 1520337
▁khắc 1519519
▁Chúng 1518054
▁trú 1515632
▁nóng 1515174
▁quanh 1514233
▁chuyến 1513962
▁tộc 1510290
▁đổ 1508361
▁binh 1506659
▁xếp 1504443
▁thử 1504429
▁trời 1490583
▁loài 1487933
▁rừng 1480869
▁khủng 1480556
▁chăm 1478975
▁cầm 1478149
▁Đối 1475670
▁thiệt 1471313
▁Tết 1460090
▁Linh 1457516
▁nhờ 1455976
▁ngồi 1455565
▁trồng 1453614
▁khối 1453351
▁thái 1451753
▁chờ 1451410
▁siêu 1449047
▁Âu 1442910
▁Hai 1442205
▁hạt 1440511
▁B 1439224
▁chứ 1438235
▁bày 1437550
▁hải 1435602
▁mắc 1429344
▁100 1428535
▁tờ 1427717
▁cấu 1426845
▁Đến 1425652
▁khám 1425563
▁kịp 1423627
▁Bên 1419871
▁hôn 1419388
▁Mai 1418307
▁tặng 1417152
▁tỉ 1413873
▁lựa 1411022
▁Và 1409930
▁thẳng 1409426
▁M 1406306
▁máu 1404934
▁Nẵng 1403164
▁nghèo 1402033
▁Kinh 1386759
▁đón 1385132
▁họa 1384059
▁nối 1383442
▁tả 1381354
▁cân 1380654
▁luyện 1372410
▁Triều 1371758
▁niệm 1369000
▁loạt 1368155
▁nhiệt 1367199
▁ấn 1364769
▁Như 1364758
▁Cô 1364108
2 1361171
▁Còn 1360376
▁trắng 1360023
▁gắn 1359715
▁ánh 1359207
▁Thương 1358492
& 1349198
▁may 1347927
▁thao 1346086
▁quen 1344523
▁cũ 1344493
▁lạc 1343800
▁18 1343356
▁lái 1340923
▁quần 1340198
▁m 1332281
▁lệnh 1329035
▁cập 1326011
▁sẵn 1325191
▁Nhân 1323500
▁lãi 1322580
▁dạng 1321958
▁song 1317935
▁nhẹ 1313951
▁lẽ 1312219
▁quê 1312073
▁coi 1309630
▁Báo 1308467
▁16 1307486
▁thú 1297239
▁cắt 1295639
▁nhiễm 1292157
▁lượt 1287509
▁cha 1284277
▁dạy 1283724
▁## 1282797
▁tiểu 1279022
▁rút 1277173
▁mật 1277052
▁ma 1276819
▁Hùng 1274993
▁suy 1274940
▁Về 1274052
▁tô 1273483
▁HCM 1272252
▁S 1269106
▁món 1266863
s 1264442
▁Dũng 1262106
▁duyệt 1261605
▁Hương 1260271
▁Lý 1258055
▁Ở 1255302
▁ước 1254831
▁DN 1253873
▁ích 1253693
▁thừa 1249062
▁suốt 1248060
▁đột 1247976
▁đích 1244783
▁tắc 1244352
▁Chương 1241355
▁chợ 1239398
▁nổ 1236409
▁sắp 1235489
▁giác 1234952
▁tầm 1228375
▁Gia 1225456
▁lược 1225009
▁Lâm 1224345
▁trụ 1224130
▁Yên 1223254
▁Tiến 1222162
▁chóng 1221079
▁Hiệp 1220688
▁khúc 1219713
▁Thời 1217687
▁chặt 1216515
▁14 1216425
A 1214092
▁cận 1213379
▁thỏa 1212008
▁ngủ 1211980
▁phận 1210633
▁thậm 1210000
▁Hưng 1208114
.. 1207217
▁Số 1205703
▁sợ 1203504
▁Quy 1202887
▁kê 1201910
▁vững 1200840
▁ngại 1198967
▁đương 1198066
▁dây 1197807
▁phổ 1196449
▁Thu 1195281
▁Đoàn 1191309
▁V 1190506
▁Khánh 1190132
▁đua 1189875
▁13 1187293
▁thoát 1187081
▁Đó 1185799
▁lỗi 1184316
▁địch 1180264
▁Đình 1179597
▁kém 1179451
▁tồn 1178895
▁Cũng 1174921
▁tận 1173413
▁chắn 1173146
▁chụp 1171301
▁bánh 1170929
▁truy 1169393
▁nộp 1169268
▁thiên 1167739
▁to 1166957
▁D 1166631
▁nhấn 1166079
▁Vụ 1162004
▁Ba 1156001
▁mộ 1154952
▁+ 1154480
▁ngăn 1151917
▁thụ 1150866
▁lá 1149289
▁gốc 1148999
▁khóa 1146401
▁dư 1146144
▁trải 1143506
▁liệt 1141746
▁giản 1141529
▁sóng 1140883
▁lục 1139816
▁trăm 1139204
▁Ngoại 1139059
▁lai 1138756
▁Cảnh 1138534
▁Hóa 1137620
▁Quân 1137393
▁dịp 1136550
▁ngắn 1134944
▁kèm 1134292
▁rơi 1133783
▁50 1132999
▁thôi 1128179
▁đứa 1126059
▁núi 1125183
▁Tư 1122933
▁trấn 1122266
▁đọc 1121800
▁Tham 1120690
▁mấy 1119385
▁xấu 1118344
▁vong 1117296
▁3. 1115537
▁bạc 1114343
▁Bệnh 1109671
▁xung 1107378
▁ủng 1105808
▁Syria 1104567
▁Trưởng 1103475
▁phi 1103247
▁Trang 1102858
▁nêu 1102101
▁bại 1099532
▁cười 1099467
▁dần 1099226
▁dừng 1098261
▁Tập 1097248
▁cam 1096721
▁VN 1095122
▁mời 1094107
▁kẻ 1093546
▁mã 1093250
▁thầy 1092434
▁– 1091687
▁Đầu 1091015
▁Sự 1090381
▁Phong 1089248
▁đen 1088908
▁hài 1084480
T 1084017
▁b 1082048
▁17 1081269
▁thải 1080913
▁chứa 1080865
▁bồi 1080460
▁sạch 1078434
▁trương 1076176
▁sóc 1075956
▁hạnh 1075706
▁lạ 1073582
▁tù 1067841
▁chở 1065209
▁khoán 1062684
▁cấm 1060977
▁Thực 1059979
▁Thủy 1059884
▁khuyến 1057360
▁Khu 1056546
▁Họ 1053842
▁nghìn 1053416
▁I 1053174
▁thịt 1052993
▁tuyệt 1051080
▁P 1050989
▁vé 1049424
▁Nha 1047435
▁tệ 1046337
▁thiệu 1044010
▁Viện 1041073
▁hấp 1037923
▁lạnh 1036299
▁can 1036221
▁hơi 1035590
▁chục 1034333
▁Xây 1033728
▁nỗ 1033453
▁Căn 1032091
▁bật 1029317
▁niềm 1027820
▁liền 1025397
▁kiểu 1023648
▁Ngay 1023460
▁Vĩnh 1021408
▁sàng 1020182
▁Thứ 1018025
▁dữ 1015498
▁N 1015178
▁Hàng 1012926
1 1012731
▁súng 1010775
▁nắm 1008887
▁Đào 1007358
▁sỹ 1007137
▁thầu 1005494
▁thua 1003684
▁chữ 1003681
▁Nghệ 1003398
▁kim 1002151
▁bão 1001756
▁cậu 1000744
▁băng 1000339
▁Dù 1000338
▁túy 1000241
B 999937
▁tạp 999860
▁Chú 998846
▁bí 997500
▁pha 996370
▁hầu 990702
▁Biên 989696
▁hy 986824
▁đám 986559
▁a 986442
▁Bí 983301
CP 982937
C 981337
▁Được 979108
▁lưới 976493
▁chiếu 976247
▁25 974168
▁phán 973184
▁chàng 971897
▁Định 971080
▁nhắc 970909
▁Phúc 970524
▁Vinh 970087
▁Kết 969594
QĐ 969466
▁Trên 968503
▁dõi 968145
▁Giáo 967616
▁quảng 966055
▁hoàng 965807
▁The 964000
▁40 963481
▁Độ 961762
▁Dân 961240
▁Phan 958173
▁ràng 956681
▁24 956438
▁đem 956348
▁hương 956347
▁cưới 956026
▁ĐH 955242
▁tôn 952863
); 952663
▁kính 951557
▁phó 951547
▁kêu 949811
▁hãy 945638
▁tim 945177
▁miễn 943225
▁bắn 942652
▁nhật 941486
▁xăng 940013
▁đỡ 939897
▁đòi 939714
▁mái 939486
▁gắng 939357
▁sắt 935595
▁Thiên 934988
3 934653
▁mừng 934297
▁lắm 934138
▁Giao 933491
▁tuy 931941
▁bờ 930167
▁bãi 929311
▁kịch 927132
▁chút 926643
TT 925762
▁hè 925599
▁21 924989
▁quỹ 923968
▁dứt 922205
▁sữa 921405
▁xong 920796
▁Bạn 920187
▁chậm 919092
▁km 915806
▁sàn 914126
▁Vân 913243
▁Cup 912948
▁gió 912719
▁Đặc 912521
▁ngang 911606
▁Quản 910597
▁Nông 909959
▁Đường 908571
▁cặp 906468
▁tấm 905291
▁rời 901441
▁thai 900503
▁hiệp 900154
▁19 899019
▁Giá 898844
▁khổ 897747
▁cuốn 897734
D 897211
▁bào 896377
▁đợt 895936
▁La 895853
▁đoán 895425
▁K 895031
▁Ấn 893906
▁nguyện 892433
▁Kế 888346
▁Điện 887803
▁nửa 886298
▁mềm 885949
▁lắng 885698
H 884215
▁đảng 883634
▁thuyết 882751
▁F 879536
▁ngược 879361
▁tóc 878636
▁Sài 878508
▁bang 878228
▁buồn 877962
▁dàng 877736
▁bè 875746
▁Cao 875026
▁Huy 870427
▁Thuận 867986
▁22 866412
▁Khoa 866060
▁thơ 865906
▁đàm 862563
▁Thường 862439
./. 861497
▁Đội 857793
▁quà 855769
▁gương 852932
▁cà 851260
▁ngôn 849908
▁L 848589
▁tung 848359
▁rượu 847910
▁mẽ 846209
▁Gòn 846006
▁chặn 844317
▁Sáng 844132
▁mê 843896
▁lẫn 843851
▁huấn 843734
▁in 842977
▁giết 840170
▁cướp 838646
▁lũ 837659
▁Giải 836075
▁ly 835679
▁thẻ 834758
S 832046
i 830871
▁đợi 830866
▁Thắng 830625
▁Xã 830563
▁Cần 830070
▁lối 828675
▁Cùng 828259
▁dáng 825554
▁cựu 822965
▁0 822240
▁Con 817682
▁hủy 816863
▁ngữ 816050
▁200 816022
▁trữ 815422
▁giàu 814911
▁nhuận 812144
▁Mặc 811451
▁Man 811246
▁hề 810818
▁Giấy 810553
▁2, 808697
▁23 808535
▁khắp 808311
▁chấn 806194
▁trừ 805888
▁rau 804880
▁Trương 802567
▁khấu 802069
▁Phi 801924
▁Tiền 800122
▁lâm 799890
▁khiển 798374
▁sứ 797334
▁G 797239
M 794824
▁Đài 792801
▁kia 792623
SN 792322
▁c 791290
▁mỹ 790969
▁Chị 790821
▁. 788343
▁gói 787807
NĐ 787015
▁dọa 785616
▁thuyền 785518
▁tươi 780241
▁mơ 780186
▁ngã 779260
▁nàng 778471
▁cơn 776967
▁Hữu 776492
▁Cụ 774717
▁Tâm 774514
▁Du 774438
▁thiểu 772983
▁khích 771592
▁lan 770183
▁hoảng 769910
▁Phước 769471
▁đoạt 769103
▁nỗi 768681
▁Duy 767347
▁ 767307
▁xu 767240
g 766234
▁chấm 765950
▁yên 765717
▁dựa 765131
▁dao 765036
▁linh 764871
▁đèn 763607
▁Em 762841
▁vỡ 761712
▁căng 761621
▁Lào 760725
▁ngừng 760284
▁bối 759127
▁gấp 757605
▁buôn 757210
▁ngũ 757093
▁trưng 756874
▁chào 755499
▁Sa 755389
▁2014 754241
▁sạn 753286
▁tá 752518
▁League 750580
▁khen 748959
▁Chiến 748744
▁nắng 748582
▁New 748482
▁kênh 747572
▁Võ 747540
L 742567
▁trúc 742348
▁trào 741775
▁gỡ 740887
▁: 739960
▁đẳng 739656
▁Cầu 738108
▁Trọng 737622
▁Trump 736842
▁mưu 736684
G 736387
▁4. 735533
▁500 735035
▁Cách 734766
▁Cuộc 734299
▁túi 734162
▁gỗ 732624
▁thập 732450
▁kiệm 731949
▁Cường 731419
▁Real 728580
▁xứ 726312
c 726195
▁gà 726032
▁đuổi 725593
▁Kiểm 725397
năm 722846
vn 722824
▁thách 721204
▁mãi 720826
▁CLB 719948
▁nét 719531
▁X 718808
▁2015 717185
▁TPHCM 716805
▁Lưu 715876
▁bom 715459
▁khẩn 715022
▁II 714803
▁trạm 714583
▁Hồi 714447
Theo 712883
▁chạm 712815
▁hẹn 712514
▁hào 712304
▁Cộng 712255
▁trộm 712136
▁Mỗi 712039
▁ấm 711749
▁ép 711672
▁Lương 711013
N 710909
▁góc 710259
▁Ukraine 710084
▁R 710072
▁vết 709485
▁2016 709279
▁khuôn 706691
kg 706266
▁bền 705185
▁Lao 704493
▁Thượng 704141
▁kháng 704009
▁già 703745
▁Vương 703361
▁Huế 702991
▁60 702572
▁bậc 701207
▁đỉnh 700589
▁Lúc 699418
▁ngàn 699262
▁đe 698383
▁Lộc 697530
▁ngập 696449
▁& 696109
▁trật 691998
▁dương 690780
▁tán 690286
▁khung 688926
▁Biển 687996
▁1, 687663
▁rác 686970
▁cứng 685039
▁Ngô 684932
▁cú 684418
▁lúa 683903
▁đài 683866
▁E 683692
▁trùng 683497
▁City 683187
▁trông 682631
▁lẻ 682212
▁trích 682108
▁nhảy 681434
▁Chiều 680440
▁quên 680383
▁Tất 680163
▁kho 679659
▁Đề 678578
▁ống 677947
P 677253
▁ngoái 674976
▁huyết 674742
▁video 673591
▁đạn 673472
▁đâm 672938
▁Bùi 671743
▁mạch 671707
▁2010 671556
▁* 671071
▁01 669066
Ảnh 668246
▁tri 667739
4 667656
▁hẳn 667584
▁ghế 666535
t 665709
▁mắn 665681
▁cảng 665532
▁dậy 664319
▁bây 663767
U 663655
▁Tình 663203
▁Chelsea 659922
▁hâm 659676
▁ngư 658447
▁iPhone 657916
▁Nghĩa 655310
n 654445
▁đai 654235
▁rối 654078
▁World 653621
▁bò 653402
7 653123
▁mạc 652906
▁trốn 652870
▁ung 651771
▁thận 651657
▁Nữ 650941
▁Đất 650717
▁giọng 650273
▁lắp 649232
▁gạo 648798
▁đập 648646
▁huống 646931
▁ngầm 645323
▁Tỉnh 645272
▁Qua 644923
▁vườn 644920
▁Malaysia 644046
▁Vào 643985
▁lỗ 643494
▁xóm 642539
▁Mặt 642467
▁26 641245
a 641224
▁trúng 640872
▁bạo 640098
30 639614
▁ơn 639026
▁2013 638577
▁Bởi 638117
▁xế 637293
▁phức 637075
▁khóc 636592
▁dụ 635714
▁mai 635474
▁giảng 634654
▁tỏa 634147
▁Tĩnh 632697
▁sổ 632411
▁Hạnh 632142
▁Toàn 631205
Tôi 631134
▁dị 631024
▁chảy 630550
▁loạn 628196
▁đãi 628073
▁Học 627197
▁phấn 626737
ĐT 625558
▁thù 625223
▁thảm 625136
▁giam 623668
▁cơm 621965
▁lãm 621546
▁hứng 621467
▁TNHH 620938
▁Tàu 618962
▁Tấn 618019
▁2017 617806
▁trại 617699
▁Hình 617631
▁Tiếp 617612
▁đáo 616757
o 616577
▁xinh 614576
▁Hợp 613247
▁sút 612174
▁Chánh 610659
▁miệng 610063
▁ẩn 609620
▁THPT 609566
▁tiềm 608916
▁Cả 606826
▁hồng 605618
▁bốn 604818
▁khô 604650
▁Tòa 604247
▁Thơ 603636
23 603505
▁Hơn 602335
▁hùng 601760
▁thổ 600708
▁bữa 600691
▁300 600259
▁ngọt 598065
▁hộp 597320
▁2011 596514
▁lành 594856
▁nhiêu 594705
6 593284
in 593141
▁3, 592603
▁cột 591487
▁cản 590946
▁Iran 590783
8 590704
▁bụng 590463
▁ha 590189
▁tùy 589914
b 588962
▁dám 588240
er 587656
▁chẽ 587481
K 587405
▁dày 587268
▁27 586038
▁Đa 585821
▁29 585303
▁Loan 584670
▁Thảo 584276
▁làn 584190
▁Hậu 583967
▁Bác 582688
▁PV 582484
▁Đỗ 582217
▁2012 581916
V 581709
▁28 581244
▁đấy 580849
▁lừa 580411
▁Tự 578915
▁rẻ 578499
▁Lai 576692
▁tang 576384
▁sốt 575388
▁phẫu 574833
▁Huỳnh 573767
km 572442
▁chối 572268
▁giáp 571354
5 571103
▁Cổ 569641
▁GD 569323
▁tật 568707
▁tràn 568388
▁bến 568329
▁Singapore 567967
▁Hạ 567698
▁đền 567023
en 566936
▁Quỳnh 566561
▁Q 566258
▁Đinh 565387
2, 565368
▁non 565303
▁mũi 564588
▁hiếm 564259
UBND 563608
▁nhánh 563524
▁Mạnh 562952
▁Loài 562695
▁xâm 562129
▁Hoàn 562008
▁Bằng 561938
▁ngon 561403
▁nhũng 561163
▁Tùng 561016
▁kiên 560576
▁Hôm 559756
▁kín 558897
▁Philippines 557356
▁tường 557329
▁Cho 556768
▁điển 556648
▁Arsenal 555834
▁tiếc 555387
▁d 555220
▁Lễ 555210
▁pháo 554984
▁2018 554938
▁hoang 554833
▁thép 554660
▁Apple 554138
y 554044
▁Truyền 553194
▁hỏng 553102
▁xưa 551549
▁Tháng 551235
▁túc 551080
▁giỏi 550918
▁Thọ 549670
▁Song 549626
▁ASEAN 548550
▁x 548130
▁treo 547845
▁trục 547470
▁rà 547208
▁thở 546669
▁nhắn 546288
▁giật 545551
▁thượng 544664
▁5. 544463
▁Nó 542789
▁dâm 542189
▁nhượng 542009
▁khiếu 541772
▁điệu 541494
▁ôm 541489
▁Thụy 541186
▁đốt 540386
▁đồn 540096
▁đo 539892
▁tổn 538707
▁HĐND 538185
▁thang 537384
▁tụ 534543
▁Thổ 533805
▁chốt 533773
▁Vậy 533750
▁chăn 533549
▁Đặng 533037
▁Nai 532236
▁Danh 532151
▁game 531383
▁clip 531060
▁đừng 530861
▁cờ 529886
u 529603
▁tháo 529467
▁1.000 529439
▁sắm 527122
▁phú 526815
▁đậu 526326
▁Quỹ 526287
es 525919
▁TS 525299
▁hỏa 523919
▁mát 523607
▁lãng 523485
▁trần 522925
▁ga 522896
▁Mới 522382
▁lưng 520279
▁Phần 519940
): 518665
an 518363
R 518039
l 518009
Hà 517899
9 517863
▁Đơn 517771
▁la 517276
▁váy 517157
▁hư 516757
▁of 516418
us 515977
▁tiêm 515421
▁J 514164
▁tông 513067
▁Ai 512839
▁bạch 512105
▁Cái 512005
▁thăng 511197
▁uy 510870
▁Internet 510781
▁xương 510646
▁Trà 510287
▁Quý 510014
▁niêm 509379
▁Nhất 509292
▁Bài 509268
is 509249
▁Hằng 509115
▁hứa 508579
▁Môi 508531
▁ro 507629
▁đức 507034
▁hiến 507024
▁tắt 506414
▁GTVT 506198
▁TT 505873
▁Xem 505738
▁rào 504666
▁Nhĩ 504329
▁bù 504325
▁quang 504283
▁Facebook 503848
com 503758
▁Chiếc 503003
▁mực 502823
▁gợi 502793
▁Là 502240
▁tây 501143
▁cãi 500945
▁Sinh 500834
▁thờ 500542
▁rủi 500444
▁70 500288
▁Kiên 498805
▁bó 498766
▁Thống 498427
x 497128
▁ruột 496842
▁ôtô 496349
▁Lực 493746
▁dâu 493627
▁mùi 492783
▁tàng 492393
▁vinh 492393
▁Phụ 491954
▁bắc 491265
▁chúc 490987
▁ngưỡng 490663
▁huynh 490557
▁Indonesia 490529
▁viêm 490093
e 489524
▁trứng 488399
▁Tiểu 488386
▁35 487979
▁hồn 487626
d 487317
▁lô 486702
▁nấu 486453
▁não 486335
▁Thăng 486173
▁Điểm 485365
▁Hoài 484678
▁Obama 484330
▁kg 483799
▁Tuyên 483731
ha 483721
▁CHỦ 483698
▁phỏng 483170
ch 482650
▁Quan 482438
v 482173
▁Hy 481217
▁bột 480872
▁chùa 480193
▁khoe 480081
▁cổng 479973
▁giấu 478841
▁Madrid 478060
▁xóa 477551
▁trầm 477106
k 476936
▁Hệ 476678
p 476316
▁diệt 475807
al 475506
▁rửa 475117
on 474760
▁xuân 474747
▁Tính 473298
▁bốc 470641
▁IS 469903
▁vỏ 469610
ing 469406
▁Huyền 468269
▁lầm 467897
▁sôi 467860
▁ĐT 467542
▁Lợi 467429
▁canh 467325
F 467114
▁Dung 466719
▁Đăng 466383
▁cát 466186
▁than 466073
▁Doanh 465626
▁ngụ 465465
▁Diễn 464725
▁lặng 463822
▁cương 463545
▁mệnh 462933
." 461897
▁45 461857
▁bê 461588
▁nhãn 461158
▁tan 460109
▁Hành 459853
▁dinh 459687
▁lạm 459461
▁tốn 459076
▁Cty 458900
▁Thúy 458624
▁31 458542
▁mệt 457006
▁hầm 456641
▁ĐỊNH 456567
▁Tên 456550
▁vắng 456530
▁nhi 456063
▁vời 455405
▁đậm 455361
▁đạp 454772
▁mảnh 454547
▁dường 454307
▁sa 453782
▁Hãy 453737
▁vẽ 452875
▁cất 452728
▁gọn 452699
▁tắm 452383
▁ví 451930
▁viễn 451748
▁giây 450419
▁Thi 449949
▁Riêng 449467
▁tròn 448706
▁hối 448530
▁Australia 448484
▁Khoảng 448462
## 448342
▁80 447876
▁Reuters 446602
▁chừng 446465
▁ngực 445543
▁che 444819
▁Máy 444795
▁vua 444762
▁32 443885
▁chó 443852
▁dọc 443272
▁Chung 442951
▁Tăng 442148
20 441810
▁Tú 441772
▁lậu 441624
▁nại 441027
▁tôm 441017
▁02 439947
ia 439681
▁xứng 439544
▁Samsung 439440
▁Tam 438866
▁Xe 438347
E 437918
▁bếp 437756
▁4, 437235
▁Lãnh 437085
▁CP 437080
el 436975
▁đắt 436567
▁the 435052
▁dược 434622
▁hắn 434542
▁yết 434223
▁phái 434095
▁My 434086
▁trưa 433885
▁Địa 433455
▁Nói 432709
▁thả 432658
▁Tin 432312
▁Cuối 431296
19 431179
▁xả 430888
▁Bước 430866
▁lính 430351
▁thuẫn 430178
▁khoáng 430074
▁III 429970
ar 429619
▁dàn 429298
▁mét 426664
▁lang 426545
▁CSGT 426371
▁Campuchia 426106
▁bia 426061
▁lệch 424997
at 424992
▁Barca 423577
▁mỏi 423005
X 422813
▁Di 422805
▁Hiền 421803
▁2009 421506
▁Hiếu 421357
▁thước 421227
▁tân 421082
▁trôi 420048
▁ven 419443
▁Nguồn 419147
▁Đã 418862
theo 418809
▁nghiện 418700
▁cốt 418661
▁TAND 418264
▁bám 418084
▁6. 417070
▁100% 416214
▁chìm 415889
▁Al 415835
▁Phượng 415710
▁mổ 414919
▁90 414575
▁cắp 414436
'. 414061
▁điệp 413776
▁Ronaldo 413445
▁Iraq 412153
▁thoải 412022
▁lợn 411688
▁hàm 411451
▁mỏ 410956
▁Israel 410856
▁giường 410777
▁Thậm 410616
▁Bến 409740
▁York 409653
▁chuyền 409583
▁răng 408903
▁hung 408873
▁bọn 408435
▁va 407989
TP 407693
▁vướng 407681
▁sót 407304
▁fan 406253
▁5, 405659
▁W 405351
2. 405141
Thực 404928
▁ẩm 404628
▁khuyên 404603
▁chủng 404570
▁triệt 404524
▁lọc 403837
▁Brazil 402222
▁Câu 401797
O 401068
▁đỗ 400148
▁camera 399726
▁bớt 398950
▁miếng 397889
▁trống 397681
▁hảo 397636
▁rắn 397600
▁400 397314
▁Trịnh 397250
▁duyên 397027
▁Trinh 396963
▁Thư 396835
▁web 396790
▁Ý 396668
người 396436
▁cỏ 394838
▁đà 394440
▁Champions 393954
I 393639
▁O 392924
▁giày 392572
▁Mục 392044
▁Washington 391922
▁s 391712
▁Nhóm 391218
um 391131
▁Giới 391000
ngày 390139
r 389724
▁săn 389667
................ 389512
▁36 389120
▁móc 388558
▁thiệp 388542
.000 388391
▁EU 388281
▁mốc 387965
▁Nhi 387570
▁chuỗi 387449
▁Tối 387059
▁nhé 387037
▁Thiết 386654
ic 386388
▁Ngãi 386183
▁lọt 385964
▁tàn 385351
lượng 385299
▁hô 384951
▁Trị 384070
▁cỡ 383345
▁Làm 383329
▁giận 383223
▁chín 382956
▁Nước 382606
▁táo 382010
▁ngừa 381709
▁Chưa 380718
▁Liverpool 380588
▁Putin 380150
▁vợt 380082
▁tĩnh 379761
▁tiệc 379723
▁giấc 379582
▁Z 379408
▁lồ 379145
▁muối 378705
▁tết 378158
▁say 378010
00 377416
▁tảng 377399
▁tuân 376660
▁Vietnam 376249
▁Kiều 376115
▁soạn 375984
1, 375890
▁Độc 375826
▁dắt 375809
▁cụm 375382
▁sánh 374264
▁ngộ 373714
▁dính 373650
▁tách 373354
▁Bị 373009
▁Bạch 372841
▁nhựa 371647
▁Mã 371528
▁Đ 370919
▁ác 370695
tháng 370627
▁su 370599
▁béo 370273
▁News 370250
▁tứ 370187
▁150 369983
▁vĩ 369761
▁Chu 369598
▁Sản 369518
▁vương 369494
os 369206
▁Cát 369144
▁khổng 368697
▁e 368569
▁đĩa 368478
▁khuyết 367987
▁Cà 366569
▁Mẹ 366550
▁đựng 365786
as 365156
▁Thiếu 364801
▁Động 364578
▁ấp 364216
▁BAN 364137
▁thùng 364125
ed 364010
▁Trí 363894
▁Thùy 363615
▁mãn 363496
▁hằng 363086
▁vội 362841
▁đ 362792
▁6, 362211
3, 361944
▁Google 361936
▁Gần 361322
et 360792
▁smartphone 360595
▁ghép 360338
▁Cấp 360145
▁bá 360016
10 359515
▁Ca 359096
▁trừng 357897
▁CĐ 357796
▁Thạch 357749
▁Yến 357723
▁lão 356731
▁bơi 356649
▁ném 356643
▁khát 356379
▁hoan 356122
▁Thịnh 355852
▁ngạch 355379
▁buýt 354472
▁thói 354021
▁lông 353944
▁Mọi 353791
▁hẹp 353781
f 353654
▁Đô 353362
▁lò 353346
▁7. 352386
▁Lệ 352159
▁Tử 352098
▁trà 352058
▁truyện 351987
▁Mức 351906
▁bùng 351814
▁>> 351415
▁cống 351174
▁khâu 351146
▁Nhận 350812
▁thơm 350781
▁nhịp 350763
▁nhàng 349709
▁khống 349571
▁Cai 349521
▁HỘI 349371
▁TỈNH 348739
▁ngạc 348417
▁Vị 347844
▁Phải 347336
▁AFP 347096
▁lở 346611
▁chim 346552
▁mâu 346323
▁DÂN 346226
▁(1 346150
▁7, 345843
▁QUYẾT 345843
▁bề 345839
▁03 345361
▁2008 345147
idae 345078
▁vả 344202
▁bỏng 343836
▁Rất 343475
▁bổng 343466
z 343429
▁Ánh 342981
▁NHÂN 342890
▁tu 342691
▁Thạnh 342665
▁khuẩn 342654
▁đẻ 342586
▁ảo 342040
▁Triệu 341649
▁leo 341363
▁Park 340016
▁g 340004
▁khớp 339678
▁mầm 339472
▁Cẩm 339444
▁đam 338746
▁sáu 336352
▁khoan 335922
▁Lần 335816
it 335611
▁hưu 335096
▁Chứng 334972
▁mây 334830
Chúng 334474
▁Trao 333877
▁ngọn 333821
or 333523
Đ 333058
▁Mourinho 333040
▁chiêu 332954
▁33 332930
▁Thừa 332649
▁2014, 332479
▁đói 332391
▁sơn 332112
un 332014
đ 331896
▁nề 331631
▁dò 331316
▁võ 330769
▁bận 330432
▁50% 330408
▁trọ 330036
%, 329575
▁Đạo 329532
▁Nghiên 329247
▁sốc 328738
th 328547
▁dạ 328371
%. 327934
▁nở 327918
▁thô 327693
▁al 327436
▁đeo 327392
▁Sông 327270
▁pin 326940
▁Hãng 326681
▁Phật 326319
▁gánh 326064
▁gan 325692
▁Sao 325526
▁Giờ 325400
▁Thay 325356
▁mù 325348
▁Galaxy 325054
▁2013, 324624
▁muộn 324128
▁Messi 324097
▁Paris 324013
▁2015, 323657
▁xạ 323550
▁Nghi 323518
▁ái 323362
▁Nhìn 323306
▁34 323227
ol 323117
▁David 323090
▁taxi 322871
▁chu 322836
▁chua 322720
▁ám 321957
▁tiễn 321812
▁2010, 321450
▁Vận 321374
▁MU 321294
▁lấn 321142
▁London 321093
▁Vàng 321069
▁nút 320731
▁trọn 320582
▁Khoản 320453
▁vẹn 320195
Bộ 319643
▁ổ 319524
▁Lam 319195
▁thâm 318211
▁XÃ 317719
▁vất 317707
▁Mau 317627
50 317241
▁miêu 316646
▁mỏng 316309
▁Loại 315824
▁Bồ 315783
Nguồn 315680
▁Kiến 315420
▁NAM 315420
▁vang 315328
▁Vi 315259
không 315192
▁cẩn 314586
▁dập 314379
▁37 313982
▁10.000 313810
▁bụi 313311
▁mạo 313067
▁ngõ 312761
▁Tờ 312533
▁xoay 312507
▁cưỡng 311717
▁2.000 311697
▁Thiện 311260
▁thợ 311124
▁Bất 311076
▁BV 310983
▁kì 310858
▁Vũng 310715
▁vây 310663
▁38 310238
▁rạng 309997
▁Liêm 309433
▁kiêm 309289
5, 309115
▁Bá 308877
▁co 308209
em 308048
▁múa 307865
▁Sang 307820
▁rũ 307536
▁1,5 307188
▁Canada 307120
▁John 305988
nếu 305641
▁vươn 305373
▁Đắk 305167
3. 305132
▁Ch 304974
▁Tỷ 304895
▁Huyện 304668
▁ngựa 304497
▁trộn 303998
▁thoái 303647
▁BHXH 303412
▁vải 303387
▁củng 302889
ra 302789
▁v 302594
▁Nơi 302391
▁thuần 302149
▁khói 301831
▁Ma 301283
▁inch 300512
▁Lập 300251
▁Olympic 300244
▁Chẳng 300211
▁; 299423
▁nhạy 299150
▁lấp 299018
▁mạn 299016
huyện 298874
▁rãi 298603
am 298124
▁Lịch 297868
▁VIỆT 297775
▁bông 297569
▁mỡ 297329
il 297070
▁Lee 296883
▁mượn 296853
▁Nhờ 296633
4, 296584
W 296511
Trong 296218
▁Dầu 296155
▁thự 295920
▁u 295720
▁nồng 295508
▁600 295307
▁Mẫu 294801
▁trinh 294451
▁Video 294416
8, 294168
▁8, 293995
▁ngắm 293579
▁hổ 292476
▁dã 292125
▁MC 291932
▁hỗn 291928
▁Milan 291923
▁Đạt 291882
▁Donald 291645
▁Triển 291619
▁Tháp 291611
▁ốc 291426
▁xách 291410
▁tha 291306
Mỹ 291188
▁chênh 291161
▁Trái 290854
▁lật 290646
▁ruộng 290638
▁gìn 290637
net 290594
▁hôi 290540
6, 290443
7, 290226
▁lít 289886
▁album 289448
▁h 289357
▁Tiêu 289241
▁chai 289052
▁rỡ 288544
▁bỗng 288484
▁So 288067
▁8. 288050
▁Dưới 287929
le 287751
▁lỏng 287708
▁Dịch 287623
▁nát 286833
▁Hiệu 286351
▁Điển 286173
▁sợi 285944
▁đắp 285733
▁dọn 285618
▁nhẫn 285507
▁Tường 285006
▁TV 284994
▁lồng 284849
▁sưu 284449
▁bảy 284425
▁Đáng 284000
▁05 283919
om 283883
▁quyến 283454
▁khơi 282828
▁heo 282142
▁Bích 281932
ad 281644
ie 281590
▁2020 281535
40 280921
▁2016, 280562
▁mũ 280300
▁Thuế 280258
▁xưởng 280146
▁euro 280101
TS 280034
▁mày 280014
▁lây 279720
ong 279675
▁khoác 279503
▁top 279423
▁tủ 278980
ng 278663
▁Th 278657
▁bút 278561
▁ức 278253
▁ỦY 278103
▁Thấy 277946
▁Hiến 277903
▁Tín 277640
▁HÒA 277373
9, 277240
▁gạch 276035
▁bơm 275950
▁dội 275931
▁VÀ 275708
▁bát 275617
▁GS 275598
▁bọc 275271
▁Ly 274941
▁Đàm 274912
▁Xuyên 274728
▁cắm 274502
▁Trẻ 274396
15 274072
▁sập 273917
▁nụ 273523
▁Cập 272814
▁Android 272780
▁Viên 272567
▁khôi 272538
▁website 272140
▁2012, 271862
▁dời 271828
▁dâng 271826
▁Nhiệt 271707
▁bón 271660
quận 271546
▁9, 270761
▁Xin 270673
▁vở 270648
▁Sư 270575
▁tọa 270449
.1 270221
id 270172
xã 269971
▁Top 269527
▁2016. 269482
▁chuột 269307
▁nhầm 269269
▁Hướng 269187
▁(2 268942
▁cai 268745
▁bế 268597
▁quét 268472
▁nảy 268471
▁đế 268319
▁Barcelona 268157
▁Tôn 267910
▁San 267881
▁Games 267822
ai 267704
▁Xô 267622
▁vỉa 267568
▁Khách 267484
▁Quận 267423
▁10, 267411
.2 267293
▁HĐQT 267207
▁lùi 267029
▁Tr 266963
▁chém 266806
▁dồn 266739
TTg 266482
▁Windows 266272
▁triều 266205
▁9. 265812
▁ân 265667
▁Tương 265524
▁im 265347
▁Úc 265167
▁Trận 265142
▁2017, 264490
▁mến 264277
▁> 264224
1. 264199
▁củ 264181
▁CỘNG 264082
▁hụt 264057
▁and 264039
▁ngợi 263950
▁gã 263742
▁khứ 263553
Trung 263210
▁t 263140
▁đành 263023
4. 262868
▁ùn 262848
VN 262649
▁lôi 262572
▁show 261646
▁Argentina 261484
▁10. 261463
▁Kể 261337
▁lụt 260895
▁ưa 260785
▁Siêu 260737
▁chúa 260650
▁dốc 260624
▁Lạc 260455
▁cước 260226
▁thắt 260207
j 260106
▁Mùa 259944
12 259743
▁Vừa 259735
45 259589
▁Ví 259372
▁Thật 259242
▁Tô 259217
▁Huệ 259164
J 259098
▁2015. 258982
▁Nhơn 258820
▁cúm 258495
▁NGHĨA 258448
▁120 258299
5. 258189
▁chán 258086
▁Sĩ 258013
▁đầm 257810
▁khéo 257717
▁Su 257371
▁Giáp 257370
▁Vợ 257340
▁39 257259
có 257070
ro 257015
▁Tuổi 256966
▁tiệm 256469
▁mặn 256365
▁sạt 256107
▁p 256082
▁) 256079
▁2011, 256062
▁liều 255916
Anh 255757
▁Tiếng 255635
▁VFF 255383
▁Trắng 255292
▁Italy 255151
▁hò 255129
▁phu 255069
▁Đêm 255030
▁bi 254946
25 254723
▁mồ 254376
▁IV 254132
▁trượt 254121
( 254115
▁Đan 253836
▁Honda 253774
▁Chợ 253736
▁Phía 253714
60 253560
▁mì 253432
▁l 253234
▁gom 253204
▁United 252968
mm 252926
▁dịu 252803
▁rực 252616
Q 252409
▁de 252218
ac 252073
▁Rồi 251867
▁giãn 251841
▁vitamin 251378
▁phe 251339
▁đồi 251269
▁AP 251040
▁đuôi 250955
BTC 250837
▁tráng 250804
▁3.000 250621
▁Chuyện 250325
▁ngự 249947
▁kẹt 249925
▁10% 249923
▁lộn 249695
▁Kỹ 249588
▁Bayern 249355
▁Cam 249355
▁Myanmar 249306
▁tuệ 249246
▁Xuất 249198
▁mờ 249161
▁MV 249052
▁Vấn 248563
▁hiếp 248382
▁mm 248360
▁Thần 248023
▁Chuyên 247972
im 247920
▁55 247862
▁Van 247841
▁luồng 247762
▁cáp 247735
▁Bố 247632
▁kem 247231
▁Chia 247201
▁04 247163
▁tụng 246933
▁Đi 246545
▁ngào 246309
▁QL 245824
▁dĩ 245339
▁long 245326
▁thoáng 245271
21 245135
▁chinh 245126
▁2007 245001
▁Premier 244759
▁dỡ 244443
▁măng 244435
▁HIV 244335
▁Trả 244267
▁trùm 244099
▁mảng 243941
▁Nhung 243223
▁2017. 243201
ov 243143
▁Quá 242977
6. 242794
▁lứa 242600
▁GDP 242561
▁huyền 242398
▁Lạp 242298
▁đùa 242195
▁Phân 241926
▁Bảng 241858
▁100.000 241837
▁48 241592
▁virus 241263
▁5.000 241238
▁Thêm 240929
▁Lạt 240555
▁lí 240453
▁42 240157
▁Hầu 239980
22 239569
▁sụt 239441
Index 239206
ul 238989
▁cài 238670
8. 238659
▁hoãn 238642
▁Bàn 238498
▁... 238408
▁giàn 238374
▁trâu 238346
▁cóc 238135
ph 238112
▁đáy 238083
▁ngón 238043
▁800 238010
▁n 237970
▁Quyền 237937
▁2018. 237815
▁CĐV 237482
từ 237345
0, 237305
▁Sóc 237222
▁Tuyết 237001
▁THCS 236887
▁gối 236761
▁2014. 236642
9. 236197
▁móng 235756
90 235545
▁Na 235407
▁Cá 235222
▁Ngôi 235074
▁Yêu 234899
▁tháp 234868
Người 234861
▁CSĐT 234832
▁Phùng 234660
▁BKS 234292
7. 233775
▁đắc 233686
▁Phủ 233523
▁Bạc 233436
80 233422
cm 233109
▁Nhưỡng 233016
▁san 232987
▁nhạt 232850
ang 232672
▁chăng 232572
▁nhan 232369
▁Trạm 232362
▁Hong 232340
▁cự 232263
▁nướng 232060
▁SEA 231799
▁đới 231709
▁Jong 231614
▁Moscow 231262
▁20% 231182
▁Cảng 231169
▁rét 230766
▁Mexico 230691
▁? 230648
League 230215
-1 230210
▁màng 230029
▁250 229948
▁/ 229925
tr 229888
▁lỡ 229853
▁2006 229690
▁gián 229690
▁đê 229427
▁hở 229189
▁gãy 229150
▁Sỹ 229103
▁Microsoft 229100
▁voi 228845
▁St 228308
▁xi 227598
▁NN 227537
▁Khai 227473
▁phổi 227423
▁thầm 227285
▁ơi 227139
▁Kong 226770
ur 226475
▁Inter 225722
', 225605
▁Cây 225591
▁Tuần 225483
▁đớn 225480
▁nấm 225432
▁nếp 225162
▁KH 225077
▁phiến 224875
)- 224864
▁VĐV 224846
▁30% 224644
▁NHNN 224493
▁May 223866
▁mẻ 223548
▁Đúng 223431
Công 223312
0 223220
▁Bé 223193
Y 223021
▁Mình 222740
▁dở 222672
▁đứt 222512
▁phun 222174
▁rộn 222114
▁Airlines 221911
▁mọc 221764
▁sáp 221509
01 221013
▁09 220975
▁Sử 220975
▁NATO 220872
▁khoảnh 220839
▁thổi 220599
▁f 220457
Các 220167
ot 219745
▁ho 219716
+ 219684
▁Đánh 219454
▁nhắm 219420
▁hoại 219388
▁cm 219056
▁kiều 218719
Ư 218689
▁chặng 218661
▁cúng 218590
▁xô 218483
▁úy 217762
▁Điền 217366
▁cay 216900
▁43 216722
70 216689
▁Băng 216618
USD 216450
▁suối 216265
▁Phiên 216259
▁bì 216156
▁ngơi 216027
▁lường 215911
▁nhở 215779
ine 215596
.... 215555
▁Manchester 215394
▁Nên 215144
▁vành 215046
▁bể 214920
▁tím 214830
▁khe 214592
▁ròng 214406
ri 214309
▁Ghi 214076
ảnh 213666
▁Phim 213593
▁hãi 213566
▁2009, 213363
▁Cựu 213345
oc 213325
11 213263
▁dệt 212944
một 212937
io 212806
▁i 212578
▁rèn 212536
▁lăn 212519
▁cậy 212479
ers 212459
,5 212369
▁Le 212293
▁Duyên 211994
ne 211845
▁Khê 211738
▁hang 211677
@ 211563
▁xao 211315
▁Xét 211292
▁Cửa 211196
▁bẩn 211056
▁thưa 210674
▁TỊCH 210623
▁Liêu 210475
▁gắt 210381
▁El 210295
▁cạn 210258
▁ong 210223
▁lề 210203
ay 210141
ak 210005
ta 209750
▁700 209732
▁thoảng 209675
▁CNTT 209622
▁PGS 209388
▁NH 209304
giờ 209278
▁hiển 209271
▁65 209212
▁Afghanistan 209172
▁Phút 209072
▁Quả 209004
NQ 208993
▁Niên 208830
▁Toyota 208828
▁chẩn 208663
▁Bắt 208360
▁12, 208249
▁phế 208028
▁manh 207896
▁phiền 207547
▁Ho 207538
au 207240
op 207200
▁xông 207035
▁ranh 206984
▁Môn 206974
▁khép 206887
▁Kiếm 206822
▁Nghe 206681
▁BỘ 206529
▁20.000 206319
▁trắc 206225
w 205947
▁Chân 205709
▁41 205408
▁hiếu 205254
▁quái 204953
▁75 204489
▁tựa 204392
▁2,5 204370
▁Cung 204336
▁rủ 204245
▁chép 203923
▁thửa 203725
▁loa 203678
TTXVN 203570
▁Pakistan 203285
▁HD 203211
▁Chất 203181
▁Viễn 203174
▁BHYT 203046
▁nhậu 202970
▁oan 202850
▁phanh 202721
16 202716
▁trội 202703
▁dưa 202320
▁1: 202168
▁11, 202152
▁nghiêng 202147
▁Đừng 202048
▁thọ 202029
▁Trăng 201907
▁bội 201879
▁cong 201863
▁46 201714
▁lùng 201663
▁nhí 201558
▁tẩy 201526
▁VTV 201328
trong 201291
▁Đôi 201144
75 201112
CT 201004
▁06 200959
▁Khối 200957
▁đụng 200953
▁Michael 200739
▁51 200726
▁Đàn 200504
▁CÔNG 200453
▁ngột 200322
▁HĐXX 200255
▁Hoạt 200192
Không 200099
▁07 200058
▁chôn 199880
▁bưu 199635
▁Trình 199622
man 199594
▁Ngành 199559
▁lăng 199332
▁lân 199063
▁ao 198865
▁HAGL 198806
▁Vy 198700
▁gũi 198687
▁hoành 198454
▁tựu 198411
▁Hay 198370
▁Bái 198113
▁Trưng 198000
▁Khắc 197903
▁FPT 197805
▁thằng 197430
▁xá 197414
ian 197161
▁dán 197137
▁bắp 197105
▁08 197071
Một 197022
con 196546
▁Cứ 196519
▁Thẩm 196502
▁44 196218
▁Thân 196175
▁quãng 196110
▁rể 196059
▁điên 195912
▁mười 195862
sinh 195523
Bình 195521
▁chè 195372
▁Cương 195368
▁châm 195299
▁lặn 195266
▁thánh 195246
▁dối 195178
-2 195016
▁Phối 195010
35 194988
▁Sân 194732
▁Nokia 194722
ab 194610
▁lưỡng 194530
▁mò 194474
% 194339
Những 194216
ina 194105
▁De 194079
▁tần 193968
▁QH 193897
▁gay 193852
▁Áo 193641
▁dạo 193626
▁In 193557
▁má 193522
▁kiềm 193493
., 193283
▁rải 193229
▁Đoạn 193108
▁gác 192907
▁CỦA 192876
▁nhì 192875
▁tour 192719
▁PCCC 192641
▁Sh 192601
▁xà 192564
▁r 192520
▁xỉ 192430
▁bấm 192310
▁ốm 192227
▁Bỉ 192206
▁vạn 192172
▁tuyết 192121
ir 192055
▁30.000 192052
nh 191978
▁Kon 191815
▁thấm 191679
▁rạp 191607
▁50.000 191439
▁Diễm 191194
▁hạm 191169
▁Hiển 191111
▁chê 191046
3/ 191015
▁ồn 191001
▁hi 190997
▁mộng 190985
.". 190935
14 190932
▁hiền 190925
▁Quán 190883
▁Hỗ 190727
▁Lời 190616
▁Tác 190591
▁CHÍNH 190479
/2016 190336
▁container 190284
▁côn 190198
▁men 189945
13 189913
▁64 189859
▁đọng 189526
/2013 189390
▁hố 189386
▁HS 189266
CN 189157
▁dũng 189153
▁gục 188918
▁VỀ 188910
▁47 188903
Nếu 188844
▁Lạng 188824
▁đòn 188721
17 188666
▁mi 188598
▁11. 188502
▁lắc 188396
▁hận 188122
▁lội 188115
▁Cuba 187970
▁lũy 187949
▁nã 187850
▁Toán 187835
▁PC 187619
▁sương 187482
▁Sáu 187416
▁2018, 187356
▁Tokyo 187254
▁ghen 187188
▁đúc 187119
▁52 186740
▁súc 186654
▁Bây 186633
PTNT 186604
▁| 186393
▁Viết 186230
▁2013. 186226
ana 186134
ton 186124
▁thấu 185894
▁Euro 185854
khoảng 185795
▁rẽ 185682
▁trân 185510
▁khoăn 185504
▁soi 185487
▁dải 185420
▁lận 185336
▁Kh 185239
▁hot 185029
▁CTCP 184938
▁rung 184792
▁Cảm 184507
▁CA 184485
▁ngoan 184252
ma 184224
▁chuộng 184080
▁thắn 184018
ata 184007
▁đoan 183984
▁Cận 183735
▁Ô 183728
▁Times 183693
▁lõi 183387
▁HÀNH 183227
▁2012. 183220
/2015 183044
▁Italia 182557
▁2: 182437
▁lát 182391
▁hái 182357
▁Online 182042
18 182022
▁buông 181780
▁hoài 181750
▁thắc 181612
▁Cán 181596
▁200.000 181588
▁Cửu 181524
▁49 181480
▁ớt 181414
▁Tre 181399
▁tr 181379
▁đán 181366
▁đạc 181271
▁Trì 181255
▁Rịa 181244
99 181148
▁hước 180787
▁vóc 180629
/2014 180387
▁Sony 180345
▁Tuyến 180309
GB 180252
,... 180236
▁Mở 180204
▁Diệu 179897
▁nồi 179841
▁Lục 179758
▁băn 179752
▁tồi 179391
▁Air 179221
▁BTC 179198
▁internet 179186
▁70% 179129
▁tê 179019
▁rỉ 178770
▁nương 178751
▁Rooney 178452
▁QUY 178299
▁Quế 178175
▁xưng 178095
▁cuồng 177976
Z 177927
▁2005 177816
▁Cậu 177798
▁hạch 177773
▁Libya 177724
▁ngô 177628
st 177323
▁dại 177297
▁Oanh 177087
▁Phóng 177069
▁k 177026
▁nứt 176817
▁bướm 176736
▁Trạch 176734
▁chửi 176732
▁xích 176668
▁ngâm 176582
▁Uyên 176564
▁cua 176447
Ông 176304
▁đằng 176283
▁54 176280
XH 176091
▁nạp 175856
ter 175782
▁dừa 175751
▁bọ 175659
▁kiệt 175600
▁HTX 175509
Quảng 175451
▁1,2 175417
▁Mi 175280
▁West 175122
▁Chấp 175030
▁cúp 174805
▁cởi 174718
▁Lắk 174630
▁Bách 174316
▁ào 174304
▁láng 174284
co 174254
▁mươi 174246
od 174146
▁James 174080
▁56 174045
▁SJC 173910
▁Chế 173901
▁Khang 173865
▁Viettel 173740
▁khôn 173704
▁chip 173669
▁12. 173542
▁mắm 173404
re 173243
▁ạ 173134
▁ôn 173047
▁hòn 173035
▁lưỡi 173000
▁rắc 172983
▁Khởi 172861
▁bộc 172730
ag 172653
▁chật 172408
▁Nguyệt 172357
▁dông 172301
▁mèo 172152
ip 172071
▁trăng 171989
▁Năng 171946
▁man 171901
▁Xác 171742
ah 171620
▁sướng 171585
▁phơi 171247
▁TTXVN 171181
te 171154
▁Tottenham 171096
▁63 171009
▁Atletico 170977
▁van 170859
▁khoai 170709
▁bàng 170623
▁kề 170622
▁BĐS 170503
▁Vật 170096
▁phím 170062
MT 169947
▁hà 169839
▁iPad 169797
▁lặp 169709
▁Nhã 169698
▁(3 169697
/1 169420
▁Khanh 169387
▁62 169288
▁chuối 169156
▁qui 169084
▁500.000 168936
▁Mường 168892
▁Vạn 168552
ut 168549
eb 168502
▁tặc 168481
▁Sức 168425
▁Đống 168304
ap 168249
▁2008, 168199
▁Sen 168166
▁Liga 168089
▁mụn 167843
▁đuối 167839
46 167810
▁sụp 167593
▁Kỷ 167569
▁rồng 167381
▁khái 167138
▁Trúc 167077
▁chả 166977
▁luân 166968
▁80% 166962
na 166873
▁chanh 166785
ent 166668
▁2000 166585
▁Thầy 166576
ea 166573
▁email 166491
▁cốc 166323
▁Kiệt 166298
▁Vùng 166058
▁đính 166058
▁vuông 165967
▁đôn 165943
32 165887
▁Kông 165828
▁Bảy 165798
?" 165553
▁Vịnh 165543
▁110 165510
▁khánh 165466
/2010 165462
▁Utd 165367
▁dãy 165341
65 165262
▁KT 165236
▁Thí 165230
ly 165193
▁cắn 165180
▁vớt 165128
▁Bức 164959
▁BBC 164916
ec 164887
▁vã 164857
85 164495
▁Juventus 164469
▁LHQ 164190
▁Nhạc 164167
Có 163984
▁1.500 163849
▁tám 163646
▁Khải 163607
▁thủng 163507
▁Clinton 163459
▁TH 163332
▁vịt 163269
/2011 163247
▁85 163177
▁nhặt 163029
▁online 162913
▁Đồn 162756
▁hàn 162622
/2013/ 162598
▁đệ 162555
▁léo 162491
▁lui 162249
▁Vòng 162191
▁nhát 161961
▁Ar 161936
▁Lĩnh 161857
▁xôn 161616
▁tống 161595
▁nhiếp 161521
▁đắn 161448
▁4.000 161296
▁VnExpress 161177
▁Quyên 161018
▁= 161012
▁Giáng 160924
▁bùn 160920
▁BOT 160893
▁lót 160803
▁Mà 160733
▁Huân 160730
▁Gò 160701
▁khiêu 160527
▁Tum 160385
▁đống 160288
▁gas 160214
▁Cha 160164
▁giọt 160106
ik 159937
▁Mar 159923
▁Bóng 159912
one 159752
▁nhường 159611
▁túng 159384
▁buồng 159330
▁Tu 159327
▁Pro 159267
ao 159186
▁Hàm 158974
▁Giai 158736
▁California 158699
/2017 158552
▁CN 158549
▁xơ 158520
▁Nạn 158339
▁showbiz 158339
▁TN 158301
▁Dùng 158001
▁Clip 157831
ig 157731
▁nén 157727
ông 157607
▁Paul 157534
▁ráp 157295
▁Buổi 157281
38 157246
▁Thánh 157246
ard 157134
▁Min 157015
▁dẹp 156775
son 156742
▁ngất 156677
▁vú 156647
▁Bank 156603
▁ch 156585
▁72 156532
▁son 156359
▁Miss 156296
▁Thất 156252
▁tùng 155905
▁Ph 155904
▁trễ 155881
Sau 155858
▁mòn 155783
▁Biết 155781
▁Dược 155773
▁thạch 155422
▁Twitter 155312
▁bách 155306
▁KCN 155122
▁tước 154947
36 154932
▁Daily 154888
Khi 154844
▁Tìm 154759
▁ngưng 154306
▁Ứng 154273
▁ham 154264
▁kép 154216
▁nâu 154185
▁HCV 154093
ey 154017
ell 153947
la 153944
▁HNX 153856
▁MTTQ 153750
tương 153715
▁BS 153327
▁bấy 153067
▁thiêng 152934
▁táng 152874
▁53 152832
▁LG 152811
▁Trách 152746
▁Tám 152681
▁TƯ 152590
▁nôn 152538
-3 152457
▁hao 152304
▁à 152264
▁đắng 152257
▁57 152237
▁Lượng 152061
▁tò 151971
kh 151740
▁kẹo 151707
▁đạm 151534
▁xót 151363
▁ngọc 151346
▁vạch 151325
▁Sẽ 151310
▁Phố 151254
▁Tông 151242
▁Lăng 151211
▁Âm 151072
▁Nâng 150973
▁nghịch 150887
▁đệm 150856
▁Lại 150815
▁58 150782
▁quát 150748
▁tre 150658
▁Biểu 150645
▁thềm 150485
92 150424
▁Seoul 150326
▁CT 150124
▁eo 149921
▁Ng 149826
95 149804
▁2010. 149627
▁đè 149387
47 149007
Thanh 148694
▁Tới 148580
42 148537
▁Mộc 148434
▁40% 148384
▁Bưu 148250
▁khiếp 148109
▁giếng 148016
▁Thức 147892
▁Kính 147853
▁Mông 147707
TB 147688
▁Vốn 147658
▁|| 147634
▁nàn 147500
▁Ford 147379
▁hoạn 147305
▁TTHC 147296
▁Đảo 147058
▁Hollywood 147010
▁FDI 146992
▁tóm 146985
▁Cố 146983
▁Xử 146949
/2012 146816
▁bồ 146566
▁Oscar 146392
▁2004 146391
500 146382
▁rộ 146372
48 146316
▁Trấn 145914
▁mía 145844
▁Phù 145746
IS 145636
▁mồi 145572
▁thám 145534
▁Co 145524
▁bồn 145402
▁sởi 145363
▁lau 145209
300 145200
▁GB 145025
▁thiêu 144962
▁Sun 144861
▁3,5 144834
▁67 144773
37 144707
▁giềng 144488
▁Barack 144425
▁ngần 144412
▁tị 144310
▁FIFA 144281
▁Kho 144264
do 144254
▁Hang 144042
▁nhọn 144034
▁Xanh 143932
▁2011. 143929
▁Khương 143912
▁Vua 143905
▁ngỡ 143900
eo 143884
33 143793
▁90% 143663
▁xí 143641
▁vặt 143503
▁VI 143164
▁tưới 143086
▁còi 143077
▁đếm 142892
▁lơ 142828
▁Diện 142801
▁Tạ 142705
▁vịnh 142627
▁Cúp 142604
▁Tạo 142600
▁EVN 142566
▁Diệp 142546
▁kĩ 142363
ens 142330
▁xôi 142291
▁lướt 142218
▁Muốn 142213
▁Alex 142030
ion 142027
▁180 141965
▁Cặp 141914
▁ghé 141805
▁khao 141703
▁vứt 141649
▁Hán 141474
▁Am 141460
▁xen 141457
▁VND 141376
▁Tứ 141357
▁0,5 141315
▁One 141284
▁Chắc 141069
▁VT 141000
▁ACB 140850
▁vọt 140694
▁khoang 140479
▁(4 140454
▁Trực 140327
▁Mô 140099
▁Vladimir 140090
ate 139971
đối 139910
▁Bao 139697
▁nghiệt 139630
▁Đồ 139617
▁Mạch 139616
▁Palestine 139449
Ban 139405
▁mộc 139188
▁61 139093
▁Vẫn 139036
▁Đang 138806
▁CEO 138690
▁cọc 138680
▁[ 138635
▁5% 138593
é 138575
..., 138355
▁Hân 138190
▁Cổng 137916
VOV 137690
▁nh 137687
▁th 137654
▁Liệu 137474
ry 137314
▁gầm 137299
▁khuất 137266
▁MTV 137265
▁00 137235
▁ghét 137192
▁300.000 137067
▁xám 137018
▁cồn 136963
▁Tinh 136872
ở 136769
▁Trời 136746
▁Zealand 136637
▁TQ 136633
▁vân 136474
▁hét 136410
▁Ngược 136379
▁giang 136188
▁sen 136106
TC 135970
▁3: 135871
6% 135768
▁MH 135759
▁dỗ 135677
▁Plus 135535
▁Venezuela 135300
▁Old 135297
phường 135228
▁chọc 135219
ev 135210
Tổng 135104
▁Khả 135095
▁Wenger 135046
▁cành 135034
thuộc 134984
▁CH 134942
▁đắm 134768
▁kỉ 134744
/2009 134717
▁kí 134583
ley 134561
Tuy 134538
▁VOV 134468
hi 134408
▁Bangkok 134372
▁điền 134358
41 134262
▁chui 134256
trái 134226
▁1.5 134181
▁khốc 134156
▁ván 133918
▁sạc 133908
▁(19 133894
▁thèm 133791
▁Mark 133779
▁CHỨC 133720
▁điêu 133707
up 133693
▁Giữa 133554
▁68 133432
49 133366
▁mịn 133301
▁AFF 133262
▁rò 133214
▁Dòng 133202
▁rệt 133159
▁lê 133039
▁neo 132947
▁59 132887
▁xát 132863
▁nới 132841
▁Crimea 132595
▁Chồng 132589
▁dạn 132560
▁Luân 132534
▁Grand 132533
▁LĐ 132522
▁lột 132456
▁xăm 132454
▁ướt 132382
li 132332
44 132267
▁2003 132243
▁Can 132207
▁Re 132039
▁LĐLĐ 131979
▁1000 131890
▁tia 131767
Ch 131764
▁Ăn 131761
VTC 131740
▁Munich 131716
▁bar 131661
▁CÁC 131634
▁SỐ 131595
▁thịnh 131510
▁Kiev 131416
▁Pa 131383
8% 131273
▁trán 131213
ounce 131174
▁nắp 131124
sau 131067
▁Lộ 130873
▁bẫy 130732
▁quyển 130711
▁Chinh 130638
▁Uy 130593
▁2020, 130526
Đây 130427
▁(5 130361
▁lốp 130316
▁dồi 130237
43 130178
ensis 130172
tỉnh 130092
Cầu 130089
▁viếng 130084
7% 130063
▁Mười 130062
24 130060
▁rao 130029
▁mìn 129941
ba 129798
▁chéo 129785
▁kè 129517
▁mùng 129430
▁model 129408
▁Tp 129379
▁Ra 129302
▁TRƯỞNG 129244
▁ATGT 129151
▁chuông 129107
▁Mấy 129059
▁Jose 129042
▁giặt 128990
▁ráo 128873
▁lánh 128735
▁dặn 128645
▁60% 128544
▁Từng 128536
▁Tom 128515
▁Chàng 128442
bao 128393
and 128386
▁Phổ 128329
▁Chuẩn 128249
▁Quỷ 128227
▁Ả 128214
▁1.2 128162
▁phẳng 128143
▁Nhiệm 128024
68 127982
▁TM 127912
▁chay 127828
▁Sam 127712
ou 127691
4% 127652
▁ti 127637
tức 127539
▁nốt 127314
▁thắp 127229
88 127213
▁sườn 127206
▁Saudi 127182
Th 127177
▁BMW 127174
Trước 127172
▁họng 127158
▁Km 127076
▁Miền 127045
▁set 127028
▁vĩnh 126974
▁Phường 126963
ica 126888
▁130 126848
▁thỉnh 126793
▁HIỆN 126685
67 126683
TNO 126452
98 126426
▁Group 126395
lít 126285
▁no 126239
▁Dư 126205
▁o 126106
▁trăn 125991
▁ĐB 125930
▁Làng 125906
▁77 125856
▁VTC 125721
▁Ân 125681
▁chậu 125559
anh 125536
▁xuôi 125470
▁cấy 125390
▁Khuyến 125350
ella 125308
▁Màn 125295
▁nho 125254
ex 125177
▁Gi 125154
ium 125114
▁Tranh 125067
▁đinh 125055
est 125031
▁tạng 124931
▁HTC 124913
▁văng 124876
▁Ngư 124565
▁Young 124514
▁scandal 124483
ek 124482
▁900 124437
▁Bi 124375
▁dưng 124308
▁Mời 124275
▁ANTĐ 124228
'' 124092
▁Vườn 124053
▁Neymar 124003
ara 123986
▁THỰC 123938
▁hẻm 123807
▁bóp 123445
▁sét 123258
▁Los 123237
▁NSƯT 123235
▁Cháu 123071
▁Vệ 123036
▁xì 123018
hoặc 122891
.10 122887
▁66 122849
▁Tim 122625
▁Mua 122580
600 122554
▁CAND 122403
PL 122232
▁đặn 122190
▁VIỆC 122124
39 122069
▁THỦ 122064
▁chen 121994
66 121934
cổ 121915
▁Lấy 121905
▁liveshow 121874
DL 121856
số 121720
▁đùi 121699
▁350 121594
▁15.000 121557
/2018 121441
▁trơn 121355
▁Phụng 121280
▁đôla 121253
▁tỏi 121159
ich 121099
▁quạt 121090
▁rong 121086
▁Ký 120994
▁Đắc 120696
▁Tri 120470
▁13, 120423
▁Robert 120327
▁Mercedes 120294
to 120241
▁chìa 120150
▁dép 120073
▁000 119993
▁chốn 119928
Đà 119876
▁Núi 119825
▁tụt 119736
ya 119675
▁Ta 119609
31 119577
▁Bãi 119551
▁Trâm 119504
PC 119483
000 119454
▁Ít 119443
▁RAM 119212
ib 119199
▁gai 119196
▁râu 119183
▁92 119152
▁Bán 119091
▁FC 119058
av 118798
▁êm 118672
▁Lu 118667
▁Li 118609
▁nan 118583
▁SHB 118544
▁nhục 118525
▁Đỏ 118525
400 118521
▁quầy 118479
▁76 118443
▁CNN 118432
▁chén 118358
..." 118351
▁Cư 118333
Từ 118306
?". 118293
▁tao 118288
▁APEC 118269
▁bôi 118125
▁Bar 118115
▁NLĐ 118059
/2014/ 118015
▁Trafford 117966
3% 117882
▁tam 117842
▁chèo 117802
▁2007, 117766
97 117698
/2012/ 117689
ô 117688
ant 117587
Thái 117581
▁ph 117581
▁Lo 117564
▁Sách 117512
▁cẩu 117502
▁13. 117471
▁giò 117303
all 117302
iv 117287
96 117242
800 117200
▁Hào 117131
▁Qu 117122
▁lam 117118
▁Idol 117085
2% 117043
▁tràng 117014
▁1-2 117007
▁Than 116982
ier 116951
ill 116949
▁PSG 116757
▁Đá 116749
▁bóc 116643
▁6.000 116609
▁gậy 116601
▁Tai 116598
▁HN 116553
▁axit 116529
▁SV 116506
] 116486
▁< 116478
▁tú 116413
▁Buôn 116412
▁ủi 116411
▁thìa 116388
▁36, 116348
da 116336
▁Giống 116320
Điều 116319
▁Chuyển 116304
▁nạ 116084
▁khiêm 116064
▁78 116002
▁xắn 115926
▁71 115851
▁Nhuận 115750
▁SLNA 115745
gi 115648
▁Ham 115375
ist 115339
▁âu 115274
," 115227
▁nghênh 115142
▁Big 115030
▁tạ 115005
▁nhộn 114976
▁lách 114964
▁xẻ 114947
▁đục 114942
▁w 114929
▁vắc 114874
▁vấp 114780
▁Chấn 114763
▁Martin 114701
▁Hạt 114522
HĐND 114450
AN 114443
▁laptop 114439
▁Lang 114433
▁Chúc 114394
▁69 114363
▁% 114320
ani 114238
Ngày 114186
▁diệu 114166
62 114103
▁40.000 114078
34 114049
!" 114034
▁gấu 114002
▁thạc 113992
▁xoa 113978
▁0, 113970
▁nhức 113897
▁radar 113897
▁golf 113876
▁facebook 113873
/2011/ 113820
▁ngẫu 113737
▁chợt 113731
▁Mê 113686
▁ODA 113675
▁125 113656
qu 113603
▁Khuê 113500
▁ATM 113397
▁mập 113330
▁mài 113293
▁Super 113285
▁mắng 113272
▁88 113215
72 113198
▁Star 113132
▁Đăk 113007
▁lung 112952
era 112930
▁Rõ 112925
▁Ben 112883
▁Maria 112868
▁mác 112840
▁Cúc 112801
▁14, 112800
▁tem 112732
▁rạch 112729
▁SN 112632
▁2002 112613
▁cám 112604
▁Note 112590
▁xoắn 112586
▁VNPT 112557
▁ĐBQH 112528
▁Intel 112374
▁Mong 112291
/2010/ 112197
/2016/ 112169
ow 112138
▁Bốn 112096
▁quyên 112082
Em 112081
Với 112079
▁tivi 112072
▁Tố 112005
ca 111972
The 111950
▁2-3 111928
▁rốt 111928
▁BĐBP 111924
▁mông 111905
land 111900
▁lộng 111862
▁ập 111852
sk 111825
▁Vô 111796
▁Lò 111784
▁đũa 111776
▁Đời 111774
ce 111773
Việt 111759
▁XI 111755
▁gạt 111750
▁rách 111734
ini 111712
27 111696
▁hốt 111679
▁gieo 111606
▁cớ 111438
Hải 111436
▁George 111408
▁cháo 111347
▁phà 111313
▁chiết 111311
▁chiêm 111302
▁VH 111220
▁84 111210
▁Lầu 111192
/2007/ 111147
▁nha 111098
▁siết 111093
QH 111022
▁quật 111007
▁lộc 110949
▁đèo 110792
▁14. 110747
▁Car 110725
▁sành 110662
▁rùa 110637
▁iOS 110601
▁15, 110510
▁nuối 110424
▁út 110418
▁Khôi 110406
▁hoi 110372
▁đun 110343
▁ngặt 110273
ee 110219
▁Giọng 110219
▁chuồng 110214
ti 110210
ino 110153
ep 110143
▁tấu 110111
▁THÀNH 110073
▁1,3 110038
▁mạ 109973
▁phô 109875
▁khuya 109870
▁15% 109855
▁bạt 109752
28 109702
▁thối 109695
▁Chùa 109660
▁chì 109636
▁Colombia 109597
▁lẫy 109540
og 109531
▁(6 109362
▁vách 109362
/2008 109240
▁khía 109204
phải 109202
/2015/ 109181
▁VKSND 109158
▁Khám 109133
ung 108986
▁2019 108958
▁Khí 108916
▁teen 108896
▁cưng 108881
-6 108871
▁oxy 108864
▁khoái 108851
▁tấp 108833
▁(18 108828
▁Nhằm 108712
▁Br 108654
▁Thú 108637
Động 108534
▁vác 108503
az 108480
▁ĐBSCL 108402
yl 108392
▁83 108372
▁DC 108347
▁Roma 108346
▁girl 108332
uk 108304
▁kíp 108304
▁Khác 108243
26 108128
▁FA 108110
▁run 107930
▁hãm 107922
▁bừng 107919
▁cỗ 107851
oi 107820
▁hé 107612
▁Qatar 107587
chưa 107528
▁Cải 107434
▁Vietcombank 107429
▁ủ 107380
▁Lão 107361
ob 107326
▁Đằng 107275
▁phì 107249
▁Lữ 107214
▁Mậu 107203
▁vỗ 107197
ok 107146
▁160 107053
end 106799
...) 106795
▁Boeing 106728
Con 106704
▁nòng 106697
▁95 106669
▁1.200 106617
▁sexy 106460
▁86 106329
▁Quách 106290
▁Áp 106256
05 106246
Nhật 106228
▁HP 106197
-8 106160
▁Giảm 106141
▁Trụ 106111
▁tát 106111
▁Ngũ 105987
▁TTO 105936
▁sex 105921
▁15. 105894
Nhà 105809
▁cò 105795
▁Un 105746
▁Chúa 105744
▁ngỏ 105735
▁(20 105683
▁gam 105671
▁79 105547
▁Tuyển 105531
▁suýt 105509
Tr 105496
▁lén 105451
▁NĂM 105338
▁diễu 105325
▁Đậu 105302
▁Tạp 105279
▁tẩu 105242
▁Cú 105193
▁rớt 105168
9% 105100
▁Ngã 105082
▁73 105008
▁Trở 104995
▁nọ 104847
▁Nay 104846
▁thản 104815
▁gốm 104749
▁karaoke 104741
.000.000 104655
▁Nh 104592
▁20. 104558
Nam 104482
▁Chuyến 104479
▁robot 104462
▁Lân 104429
▁xướng 104426
công 104418
Xem 104411
▁xào 104376
▁Tiết 104326
▁sỏi 104306
– 104248
▁rụng 104174
▁1/3 104171
▁BIDV 104118
▁Góc 104087
men 104067
▁vòi 104067
Hiện 104025
▁xoáy 104006
▁lụa 103980
▁Mac 103953
▁Vài 103912
▁ngây 103904
chi 103878
▁AC 103751
▁81 103741
▁ngoạn 103728
▁việt 103712
▁am 103577
▁2020. 103452
▁bực 103441
▁Victoria 103418
▁Điệp 103395
▁nhôm 103355
▁LED 103291
▁mâm 103221
▁gầy 103217
▁Son 103174
▁choáng 103117
▁Lớn 103032
▁Ước 102918
▁Mạc 102810
▁nhược 102806
▁2.0 102733
▁bơ 102700
▁Mạng 102653
▁Model 102626
▁Black 102621
29 102607
ation 102525
▁TPO 102493
▁Villa 102426
▁Da 102382
ran 102320
▁Mail 102303
se 102302
▁sim 102277
▁Đẩy 102253
ff 102234
/2014, 102194
▁đò 102162
▁20, 102160
▁bạ 102142
▁Cu 102097
▁đan 102035
▁dẻo 102010
/2008/ 101996
▁Đưa 101962
▁140 101905
▁TNGT 101894
▁dào 101779
▁TPP 101774
▁nô 101704
ler 101688
700 101635
▁LÝ 101633
▁Serie 101612
▁Bầu 101368
▁Everton 101265
▁2009. 101264
▁óc 101257
KT 101188
8/ 101170
tăng 101146
▁CATP 101136
▁nuốt 101104
▁Kẻ 101078
▁Me 101061
▁Hiểu 100998
▁Tưởng 100967
▁hả 100966
▁Tay 100959
▁Costa 100951
▁Ji 100925
▁chiên 100922
▁TỔ 100862
/2009/ 100840
▁rẫy 100721
▁74 100685
▁cuộn 100650
▁16. 100598
▁Zing 100596
▁bú 100478
▁báu 100398
▁uốn 100382
76 100361
▁bẩm 100338
▁sưng 100261
▁Post 100170
Vietnam 100156
▁Ái 100141
▁tớ 100126
▁nản 100067
▁nhiễu 100023
▁Nadal 100000
▁25% 99991
▁Phẫu 99959
▁phao 99895
▁2001 99888
UB 99832
ae 99827
▁bong 99710
Đồng 99669
▁ngàng 99610
▁bìa 99605
▁Diego 99592
▁Táo 99587
▁99 99547
▁www 99545
▁Côn 99492
▁As 99429
▁bưởi 99402
▁1-1 99370
▁đấm 99277
▁lún 99220
mã 99181
▁ruồi 99149
▁xay 99070
▁Suốt 99039
▁lữ 98944
đã 98921
▁đẫm 98919
▁Harry 98836
▁Federer 98800
▁Pha 98792
tấn 98785
▁lọ 98695
thùng 98661
trừ 98609
▁XII 98590
▁Gaal 98575
ka 98571
▁Tràng 98528
▁nhã 98512
▁4,5 98499
Nghệ 98472
77 98468
▁Vấp 98458
▁Ukraina 98390
_ 98379
▁Ad 98376
▁nhăn 98375
▁Món 98358
▁Củ 98312
▁Tướng 98284
TH 98265
▁Khó 98219
▁Đọc 98172
▁háo 98122
▁Hoặc 98099
)... 98067
▁bún 98010
78 97894
ari 97865
▁tạt 97861
ml 97803
▁nhọc 97803
▁Angeles 97789
▁Bill 97786
▁Chăm 97775
▁Đứng 97743
▁sếp 97707
▁Bát 97687
▁1.0 97593
▁ND 97538
▁Sống 97456
▁Ki 97448
đường 97441
▁Đôn 97413
▁kẽ 97386
▁lốc 97372
DN 97361
▁82 97287
▁THÔNG 97239
▁ạt 97228
▁tơ 97168
▁105 97146
▁Miura 97016
▁náo 96985
▁Đế 96956
▁Mùi 96951
▁dai 96951
▁gót 96939
▁Kar 96889
▁Email 96881
ty 96840
▁Jennifer 96791
▁Phí 96736
▁Tịnh 96622
= 96620
▁trêu 96600
▁gõ 96592
▁nấy 96589
▁xấp 96571
▁sọ 96516
▁ngậm 96511
▁Nghiệp 96423
▁Ngọ 96387
▁Chile 96377
Việc 96351
▁Wall 96337
▁91 96285
▁rước 96265
▁kệ 96249
như 96222
-4 96192
55 96061
▁sừng 96056
▁Đổi 96020
▁Ireland 95999
▁luộc 95972
▁tăm 95867
▁Bánh 95854
▁rổ 95838
▁2006, 95814
2) 95783
▁nộ 95743
▁Chữ 95639
▁18. 95609
▁gặt 95592
▁vét 95571
▁rễ 95562
▁hưng 95551
Tại 95508
▁Thích 95474
▁hăng 95415
▁xé 95341
-7 95249
▁Bo 95216
▁USB 95216
ner 95201
▁Đền 95192
▁chót 95167
▁mini 95159
An 95151
▁mí 95129
▁bã 95122
▁cối 95093
▁Dortmund 95059
▁chưng 95044
▁quấy 95024
▁răn 94873
TW 94870
/2007 94858
▁triết 94840
▁Guardiola 94815
▁Camp 94791
▁Suarez 94742
▁Sch 94717
▁16, 94666
EU 94640
ena 94626
▁cọ 94625
2/ 94624
▁Rồng 94579
▁ng 94576
▁rụi 94570
▁Dinh 94551
▁giã 94482
▁Nghiêm 94475
▁87 94434
để 94410
▁len 94388
▁Nằm 94298
▁thòi 94281
▁nức 94170
81 94111
▁nhuộm 93984
▁Dĩ 93973
▁(7 93924
▁thon 93915
▁(10 93892
▁CHDCND 93811
▁ướp 93748
▁Thới 93705
900 93630
▁chọi 93616
oz 93612
tên 93594
▁ê 93521
▁protein 93492
▁NSND 93491
▁xài 93488
ess 93465
chỉ 93455
▁Festival 93437
▁Han 93376
▁cúi 93321
ăn 93310
▁Chiểu 93263
▁rã 93225
ê 93222
▁ồ 93185
▁sấu 93086
▁tí 93059
▁tui 93054
▁Ferguson 92988
ach 92980
▁35, 92977
.> 92956
▁Sir 92945
▁Abe 92884
▁mương 92857
/2 92786
▁CR 92784
▁Hết 92781
▁nang 92780
▁lờ 92754
▁heroin 92720
▁Quần 92716
▁Tùy 92687
▁Tống 92650
▁hức 92591
áo 92537
▁150.000 92521
▁International 92434
▁(30 92390
TV 92306
▁nhện 92294
▁17. 92179
▁gừng 92098
Đại 92049
Chi 92044
▁89 92019
chiếm 91986
ew 91907
▁mãnh 91903
▁nhái 91881
if 91801
▁TTCK 91741
▁Hòn 91648
q 91628
▁ngửa 91610
▁bới 91520
▁nhỉ 91510
▁Hảo 91503
79 91490
eg 91488
▁gen 91462
▁muôn 91414
▁TW 91412
▁for 91412
ei 91389
▁kìm 91331
/2006/ 91300
▁Cánh 91299
▁Hộ 91238
▁ĐỒNG 91235
▁vùi 91208
▁ĐỊA 91206
▁Lô 91203
▁Thuốc 91173
▁nhịn 91109
▁khan 91101
▁Taylor 91081
▁Angela 91035
▁Hường 90901
▁nhị 90858
▁thục 90759
▁li 90756
1% 90748
▁dang 90743
phút 90658
▁vắt 90647
▁AS 90628
▁khiếm 90617
▁Nàng 90517
các 90463
▁Peter 90428
▁30, 90420
KH 90358
▁Jordan 90318
▁gật 90315
▁Valencia 90308
▁nguội 90221
AIDS 90210
▁USS 90079
69 90031
▁Mang 89901
▁tản 89896
▁khử 89884
▁8.000 89875
▁nạo 89796
▁bén 89790
▁96 89741
ub 89737
▁Sacombank 89708
▁7.000 89702
▁NĐT 89679
▁VKS 89665
.200 89484
▁côi 89470
▁Bang 89342
▁chớp 89335
▁keo 89306
▁(8 89293
▁450 89293
1) 89262
▁né 89255
▁Bale 89225
Năm 89158
▁muỗi 89150
▁STT 89131
▁kiêng 89031
▁TX 89013
▁Càng 88955
▁CS 88954
▁18, 88927
▁! 88888
▁viền 88882
▁quỷ 88839
▁1,8 88820
▁NGHỊ 88816
ash 88806
▁2.500 88794
▁220 88791
▁1,6 88767
▁1999 88745
▁đả 88739
▁Sửa 88737
▁Lâu 88709
▁kh 88672
▁mốt 88610
▁nể 88557
▁Tuân 88547
▁Tel 88533
▁2008. 88445
▁sâm 88441
▁Tần 88430
▁Won 88412
▁phẫn 88403
-5 88361
Cô 88327
▁lụy 88231
▁). 88223
▁2005, 88201
64 88185
73 88161
▁dặm 88136
ge 88069
/2017, 87995
▁ầm 87978
▁AN 87943
lo 87819
▁XK 87806
/2016, 87773
▁Ưu 87749
▁Kênh 87680
86 87659
xem 87625
▁Màu 87610
▁khỏa 87574
TTr 87542
▁Bush 87482
▁Trân 87473
▁Sp 87428
': 87268
▁2-1 87255
▁NV 87022
▁bịt 86986
▁nhậm 86946
▁bệ 86945
▁1.3 86880
▁(25 86868
▁Xương 86764
thành 86755
▁hoán 86755
▁Gu 86730
▁khỉ 86713
▁hổng 86709
-10 86694
iz 86692
▁mau 86657
▁dè 86584
▁Thôn 86552
▁Doãn 86541
-35 86481
▁Thỏa 86452
uc 86433
▁Mây 86354
▁4: 86336
▁CTCK 86299
▁gi 86288
▁VỤ 86258
CS 86249
▁Uber 86181
▁Bổ 86108
▁QUAN 86064
art 86041
71 86028
▁(199 85996
▁Rập 85972
▁Hyundai 85923
▁Berlin 85912
▁Pháo 85905
▁Gặp 85892
▁Cụm 85791
▁Mr 85768
▁Xá 85743
▁Jones 85728
▁Đen 85672
.3 85670
▁Cl 85542
▁17, 85531
eh 85502
▁đốn 85435
sửa 85353
▁rầm 85352
▁Hè 85347
▁quỵ 85302
▁Del 85288
/2010, 85281
▁bẻ 85195
▁giòn 85195
▁ngươi 85167
200 85116
▁Sport 85106
▁vôi 85090
▁Website 85088
age 85010
gồm 84999
▁En 84990
▁Đáp 84962
▁Suối 84959
▁Mưa 84941
▁nóc 84918
▁Út 84854
▁nghẹn 84850
ue 84846
▁19. 84837
làm 84792
▁bứt 84787
▁úng 84765
▁vượng 84726
▁ngài 84693
▁115 84645
▁ghê 84601
▁Xu 84594
▁Vượng 84590
63 84574
▁Ha 84470
▁Er 84433
!". 84426
▁19, 84424
▁gò 84396
▁Go 84355
▁dê 84289
▁1.1 84275
▁Tốt 84237
▁Cristiano 84220
▁Tuyền 84175
▁21. 84103
▁phở 84083
▁Par 84070
▁(24 84057
▁2-0 84020
▁Đảm 84012
▁170 83996
▁liêng 83979
▁ngạt 83938
▁tốp 83934
▁cào 83925
▁vu 83866
▁TMCP 83829
▁sẹo 83827
▁Binh 83825
ano 83812
▁Beckham 83799
▁Djokovic 83763
sen 83697
BS 83691
mua 83680
ii 83669
▁NTM 83667
▁Land 83652
AM 83561
▁Oai 83521
▁1,4 83464
▁Moyes 83451
▁VP 83345
▁CD 83336
▁Ga 83332
▁Luis 83295
▁đúp 83293
▁60.000 83284
▁Louis 83276
▁HOSE 83237
▁Thomas 83211
▁ngả 83162
▁NƯỚC 83143
▁Pr 83062
▁trù 83061
▁Ngữ 83044
▁CẤP 83022
▁nghẽn 82991
74 82989
▁China 82967
▁Cầm 82918
ga 82904
▁(15 82899
ez 82772
▁mỉm 82755
/2013, 82750
▁Justin 82723
/2015, 82711
▁Hắn 82711
▁Chức 82547
▁Mối 82525
▁Hyun 82466
▁búa 82413
▁Liệt 82406
▁Per 82403
/2011, 82390
▁lúng 82366
▁Hỏa 82304
NG 82220
▁cu 82174
▁Pep 82156
▁khốn 82144
▁nhủ 82110
▁Vĩ 82099
▁rạn 82037
oy 82033
▁400.000 82032
▁Bờ 82005
3) 81982
▁rưỡi 81977
▁101 81887
▁Liễu 81876
89 81865
▁vá 81793
▁lừng 81778
aria 81771
▁PHỐ 81763
cho 81751
ama 81735
EC 81662
▁Arabia 81650
▁đu 81629
▁HC 81612
▁chùm 81611
▁Ranh 81569
▁Mon 81511
▁quấn 81510
nguyên 81504
sh 81477
▁Nỗi 81472
▁Bàng 81407
▁SH 81386
lin 81384
ix 81347
▁5,5 81338
▁25, 81332
▁Phục 81279
▁Phấn 81244
▁GĐ 81194
ore 81188
▁LS 81167
▁ĐỘNG 81137
▁đao 81136
ast 81126
nhà 81124
▁Bin 81119
▁Steve 81077
▁NSNN 81075
per 81074
▁Ab 81056
▁98 81042
▁chảo 81037
▁Red 81028
▁TRÊN 81023
▁William 80997
▁Noel 80974
our 80925
▁lũng 80915
đồng 80907
▁xảo 80905
▁Trại 80898
▁Ea 80842
▁phàn 80830
▁26, 80818
82 80803
▁Trải 80778
chủ 80776
▁Dần 80756
▁toa 80682
▁Sắp 80651
▁vờ 80629
▁Thưa 80582
▁Trãi 80581
▁hông 80577
91 80563
tổng 80550
▁Audi 80535
▁MỤC 80519
▁Cử 80512
IC 80451
▁Bông 80446
▁toan 80427
▁giục 80408
▁Seo 80392
▁Shi 80364
NLĐO 80344
LĐ 80330
▁2.5 80191
▁Don 80174
ish 80052
­ 80019
▁), 80007
▁Viet 79907
▁(9 79805
ick 79785
/2018, 79774
▁Chọn 79672
▁Sky 79661
▁hít 79614
▁miệt 79602
▁CƠ 79560
oo 79550
-9 79510
▁MB 79491
▁Đám 79491
/2005/ 79488
▁Har 79484
▁MobiFone 79478
lần 79458
▁Jackson 79423
▁thốt 79421
▁nhuyễn 79414
di 79401
▁1/2 79400
GD 79329
▁0. 79234
▁QUẢN 79229
▁21, 79159
61 79156
lan 79151
▁bọt 79149
▁cược 79060
Huế 79046
▁22, 79020
▁dạt 79018
ala 79015
▁thạo 78925
NT 78879
ita 78857
▁Hungary 78843
▁Nhu 78791
▁Lệnh 78787
▁ni 78782
93 78707
▁Huấn 78699
▁file 78617
▁UNESCO 78600
được 78493
▁Or 78381
ide 78341
▁Láng 78315
▁Gửi 78279
ain 78243
▁1% 78220
▁(21 78084
▁tà 78068
▁gân 78046
MP 78038
▁sờ 78007
▁búp 77950
ass 77933
▁No 77932
▁Canh 77902
▁Sắc 77900
GDVN 77858
/3 77847
▁Saigon 77844
▁Đấu 77781
▁Giả 77775
▁lựu 77770
87 77756
.2. 77746
ki 77744
▁DNNN 77717
/2017/ 77666
▁Vang 77524
▁ách 77523
▁Khảo 77475
▁Thục 77473
▁cày 77473
aw 77405
Đức 77313
Bà 77268
▁GDĐT 77233
▁nón 77164
▁(22 77160
▁93 77157
▁YouTube 77095
CC 77026
▁hit 76950
▁miên 76923
ien 76922
▁25.000 76888
▁á 76872
ud 76865
▁trèo 76794
▁ngơ 76788
▁Thuột 76772
▁2004, 76771
▁xịt 76717
ax 76686
94 76628
BC 76597
▁Kurd 76579
▁bikini 76562
▁sấy 76547
de 76522
▁Rio 76486
▁lầu 76476
▁ngứa 76476
08 76356
▁cưa 76347
▁Nhớ 76324
▁Niềm 76303
▁Thử 76251
▁360 76220
▁2% 76200
ath 76172
▁Moon 76156
▁Amazon 76111
nam 76050
▁1998 76026
▁Daniel 76008
▁mít 75984
/2006 75973
370 75961
▁108 75958
83 75943
▁BÀN 75942
▁nến 75916
▁lanh 75900
-20 75777
xe 75766
▁bênh 75696
Thành 75690
84 75658
ico 75580
▁GT 75543
▁Xung 75535
xin 75532
▁lượn 75505
▁Sung 75472
oC 75427
▁". 75424
SC 75403
ada 75400
▁Séc 75388
▁lẩn 75377
▁Yemen 75353
▁xáo 75345
▁VĂN 75327
▁Nigeria 75303
▁phiêu 75283
AT 75280
ary 75279
▁Is 75266
án 75222
▁Hillary 75219
▁Jack 75176
khủng 75137
▁Khán 75130
▁chững 75049
▁Scotland 75044
▁giơ 75027
á 75025
▁PHỤ 74989
▁Mor 74965
▁khóm 74949
▁mép 74935
▁Ag 74900
▁phác 74859
▁Bl 74780
▁(17 74718
▁canxi 74713
▁NGHIỆP 74689
▁Croatia 74683
Ngoài 74671
ite 74667
▁ngán 74665
▁KTĐT 74662
▁Vai 74619
▁Nguy 74579
▁Rạch 74528
▁Chào 74518
▁nguyệt 74456
▁Tóc 74410
▁Se 74348
▁Mal 74346
▁Trưa 74313
▁thề 74250
▁kiêu 74246
Nguyễn 74222
▁Taliban 74212
▁2030 74086
▁ve 74081
mg 74079
▁hệt 74053
▁thính 74027
▁vụn 73988
▁mỳ 73907
▁(23 73861
▁Quyến 73851
.5 73814
▁Hu 73814
ova 73811
-19 73699
▁24, 73657
Vì 73652
ind 73651
nay 73643
▁Thiêm 73498
▁miện 73440
Để 73430
▁NXB 73423
▁Đam 73403
▁PHÓ 73395
▁Vọng 73346
▁xít 73344
▁trổ 73337
▁Pl 73297
▁giằng 73290
▁trặc 73285
▁Pal 73276
▁quỳ 73270
▁khoanh 73248
▁Kạn 73224
:. 73221
▁1) 73206
▁Hoan 73192
▁rảnh 73141
▁(27 73139
▁FLC 73124
▁Thịt 73093
ula 73076
▁muỗng 73066
./ 73061
í 73001
ni 72988
ts 72985
ron 72945
▁You 72924
30, 72916
Kh 72916
▁vs 72902
ura 72894
▁Persie 72881
▁sắn 72852
▁1,1 72837
▁12.000 72813
02 72809
.11 72784
▁Uống 72776
▁Vin 72730
▁Jung 72667
▁lu 72607
▁33, 72603
▁Wales 72591
ero 72589
▁28, 72533
ale 72463
.) 72413
▁xổ 72403
▁Sơ 72396
▁ẩu 72382
NH 72366
▁nhào 72366
▁Ed 72346
▁Cấm 72330
▁ngắt 72323
▁Mo 72310
▁Lái 72270
▁Phản 72255
▁1990 72249
▁sòng 72228
▁King 72219
uy 72176
▁nhồi 72169
▁TRÌNH 72167
tu 72159
▁vuốt 72156
▁Gương 72148
▁gàng 72083
▁Ancelotti 72013
ity 71981
▁sưa 71969
Tây 71951
▁Tích 71946
▁logo 71885
▁ưng 71877
▁Mẫn 71830
.0 71823
▁HOẠCH 71791
▁2007. 71787
▁1,7 71783
▁Ro 71765
▁Bridge 71738
▁kẹp 71722
▁Silva 71716
▁VCK 71649
▁Sal 71624
▁Móng 71606
▁TC 71595
▁trệ 71574
▁2000, 71566
Ở 71554
▁dấy 71508
▁trút 71499
Pháp 71492
▁(28 71468
▁MP 71460
▁liễu 71451
▁Thạc 71449
▁135 71392
▁rỗi 71388
▁Đệ 71372
▁BT 71360
đại 71341
▁giặc 71320
▁Show 71279
ans 71276
▁chốc 71251
▁thuở 71229
Hồ 71221
▁Bè 71133
yr 71118
▁me 71105
▁Bloomberg 71088
▁Hi 71040
▁mượt 71035
ko 71017
▁(26 71017
▁bin 71012
▁chánh 71003
Ký 70984
▁Dao 70958
▁Richard 70931
▁Nghề 70923
CH 70910
▁Johnson 70907
▁thốn 70903
▁Bay 70867
.1. 70816
▁Sc 70812
▁ứ 70769
▁yến 70733
▁Xa 70722
▁Mazda 70711
SA 70681
▁3.1 70672
▁1-0 70628
"; 70626
▁chuộc 70560
100 70536
/19 70527
▁bồng 70489
▁Dẫu 70487
▁sào 70456
▁Voice 70447
▁Tầng 70436
▁Tấm 70419
amb 70384
▁Gr 70291
▁ngoặt 70282
▁Hỏi 70262
▁cẩm 70262
▁Vẻ 70254
Xã 70253
▁2.1 70179
▁SX 70149
4) 70145
/01 70133
▁22. 70112
NN 70070
▁hóc 70001
ys 69995
▁27, 69967
-15 69920
▁mải 69890
▁97 69886
▁ngục 69864
ngụ 69846
▁103 69842
iss 69774
▁Torres 69771
▁Vu 69770
▁NỘI 69758
▁Jin 69738
▁Instagram 69730
▁Chống 69726
;, 69707
Ph 69704
▁80.000 69659
▁Cr 69634
▁Yamaha 69614
▁1990, 69594
▁Uruguay 69590
▁PVN 69564
▁Chris 69534
▁2/3 69532
▁ĐIỀU 69493
▁Max 69488
▁Grab 69482
▁Jolie 69470
▁On 69406
▁thoa 69406
kể 69400
▁Wi 69341
▁Assad 69312
ber 69309
▁3-4 69250
▁Green 69207
▁1992 69186
▁Open 69185
eng 69182
4/ 69168
▁SE 69156
NHNN 69150
▁Đương 69133
▁Đặt 69132
▁Ferrari 69116
▁Ung 69084
▁trói 69078
trú 69076
▁Đóng 69051
▁1,0 69047
▁trọt 69020
Về 69015
▁Saint 69012
▁vẫy 69009
▁Newcastle 69008
ies 68994
ost 68987
▁Sương 68897
▁chải 68891
▁Arab 68876
sa 68874
▁Khiêm 68845
▁XIII 68763
tự 68756
▁Henry 68744
va 68694
▁Quất 68666
▁thắm 68662
tuần 68649
▁Col 68631
▁To 68601
▁(16 68593
▁TIN 68586
▁70.000 68563
▁1.4 68555
/4 68545
ure 68542
▁Lá 68538
▁Getty 68519
▁stress 68515
▁cúc 68487
▁Hóc 68470
orn 68452
▁visa 68451
ech 68422
▁ngòi 68398
▁giáng 68369
▁lay 68366
▁Kha 68353
▁Ac 68351
▁Texas 68341
▁2.2 68322
▁Cống 68311
▁CPI 68310
▁on 68304
▁chích 68287
▁Ngà 68274
.12 68264
▁xoài 68260
les 68252
▁Trợ 68228
▁Next 68185
ug 68171
▁Mobile 68143
▁thâu 68141
▁ĐTQG 68132
▁Pu 68106
▁VII 68064
▁Dong 68029
▁Lãng 68017
▁Thao 68003
▁Kerry 67987
▁dầm 67950
▁ấu 67934
▁LỤC 67927
▁lửng 67908
ho 67881
▁LHP 67859
▁2) 67827
ER 67786
▁đực 67766
▁then 67758
▁Gaddafi 67738
AS 67736
▁TR 67726
▁(1) 67672
▁Thụ 67671
▁Bỏ 67627
ND 67624
▁WTO 67614
▁rập 67609
▁nêm 67588
▁váng 67565
▁khắt 67526
▁Lớp 67525
SE 67524
ốt 67511
▁Vinamilk 67445
▁Aston 67440
▁quặng 67438
▁vãn 67362
▁Của 67323
▁Agribank 67251
ona 67250
▁Merkel 67231
▁Leicester 67229
▁sầu 67176
▁Dường 67166
▁tỉa 67128
▁nhốt 67107
▁Eximbank 67099
▁Cực 67085
ja 67082
▁ghe 67072
và 67032
▁NHIỆM 67015
▁massage 66978
▁Nhàn 66925
▁Joe 66922
▁BCH 66918
▁1.6 66885
▁Ibrahimovic 66809
▁Khen 66790
▁khoát 66787
▁bừa 66779
▁DỤNG 66746
▁Nou 66700
▁ơ 66681
▁23, 66662
▁TÀI 66589
▁3% 66555
▁Global 66552
▁LCD 66548
Hoàng 66546
bán 66542
▁Ali 66498
Gia 66494
▁ỏi 66473
▁Tehran 66430
▁NTK 66396
Nữ 66394
▁Donetsk 66382
▁Tiệp 66359
trên 66356
ét 66351
Nhân 66334
▁Fox 66322
▁Jae 66297
▁THỊ 66258
▁méo 66253
▁Luận 66232
▁NHÀ 66217
.19 66178
▁gội 66157
▁Rau 66148
.10, 66115
▁Mất 66103
▁Jean 66048
za 66045
▁rót 66026
▁ngóng 66010
▁240 66002
▁lười 65972
,5% 65963
ros 65910
aka 65889
ua 65881
▁tạc 65878
▁NK 65877
▁Tang 65859
/2012, 65826
▁Kiểu 65817
/7 65807
▁TỤC 65788
▁lều 65784
▁Be 65782
▁4.0 65769
▁gu 65727
▁Sữa 65699
▁Rẫy 65672
▁lóc 65655
▁lì 65639
ke 65620
▁Krông 65595
▁Plaza 65595
Sao 65573
▁Kate 65570
▁Đấy 65549
han 65517
▁se 65514
ji 65470
▁Str 65451
▁Hứa 65447
▁môtô 65441
Nhiều 65409
▁Williams 65403
▁7,5 65396
▁kỵ 65352
▁tưng 65346
▁hấu 65323
▁ASIAD 65314
ius 65247
▁thêu 65187
▁Giết 65182
▁đàng 65182
▁rang 65155
%) 65071
▁TDTT 65071
▁Phu 65059
▁1/1 65045
▁phật 65014
▁ANTT 65002
▁Đợt 64989
▁Truy 64981
▁Tốc 64955
▁Thì 64942
▁Ni 64934
▁Ryan 64885
▁Tan 64867
▁tua 64822
▁Dubai 64807
▁Florida 64753
▁laser 64736
IA 64721
-0 64707
▁Dậu 64622
▁Sanchez 64616
/2009, 64615
▁2003, 64590
▁SUV 64579
▁diesel 64552
▁rock 64550
▁UEFA 64511
▁Nậm 64509
▁24. 64497
▁Hộp 64495
by 64478
▁toát 64467
-22 64464
▁pop 64463
Cần 64462
▁ếch 64460
▁Tràm 64458
▁qu 64433
ola 64395
Hàn 64387
/2018. 64386
PT 64385
▁Kia 64377
▁té 64375
▁BĐ 64353
▁mủ 64342
▁Bính 64314
▁diều 64299
▁cụt 64290
ane 64275
▁At 64251
AC 64243
▁Moskva 64237
▁khinh 64221
osa 64209
▁TẠI 64206
/3. 64193
▁ngùi 64191
▁tro 64190
▁Xperia 64184
▁hán 64172
▁23. 64145
▁6,5 64143
▁Cơn 64070
Nga 64064
▁CHẾ 64058
▁Brad 64043
aya 64041
▁BlackBerry 64030
▁Gold 64030
su 64020
▁CO 64019
') 64016
▁Sar 63996
▁EURO 63993
▁j 63955
▁Aleppo 63947
▁Cer 63895
AP 63891
▁mỉ 63890
đoạn 63862
▁quất 63811
Chinhphu 63810
▁Phone 63773
▁Ri 63760
Nhưng 63748
▁Asia 63711
▁Youtube 63706
▁Dạ 63697
▁Alexander 63695
▁Angelina 63651
▁Bitcoin 63606
ox 63586
▁South 63585
▁Suzuki 63582
gọi 63571
▁Terry 63529
▁Chăn 63522
▁1995 63518
hay 63516
▁Calisto 63513
▁PTNT 63473
Dân 63468
OS 63439
:// 63438
und 63429
▁Murray 63429
▁Sai 63418
▁185 63416
▁25. 63409
▁tụy 63405
▁Tượng 63401
▁Mat 63393
▁Lumia 63369
▁võng 63341
▁Juan 63330
▁Gươm 63318
Sự 63288
▁VIII 63272
▁blog 63263
▁Phê 63244
▁ngụy 63225
▁Nhì 63208
TN 63192
▁195 63178
▁Phiếu 63168
▁ư 63164
▁Cốc 63161
ôn 63105
Hai 63076
▁(29 63029
Tân 63027
▁Serbia 63022
▁Mắt 63014
▁PHỦ 62977
những 62930
TTLT 62873
ert 62854
Phú 62839
▁Tour 62833
là 62795
▁CB 62746
▁SỞ 62741
▁ế 62733
▁29, 62723
▁CIA 62713
▁Mật 62702
▁Vỹ 62680
▁'' 62661
▁khang 62612
▁Cờ 62604
▁ren 62591
▁Hye 62588
▁Diên 62586
▁Xí 62571
ida 62532
▁Cắt 62526
▁ngó 62518
ốc 62501
▁nần 62488
▁VietNamNet 62380
▁Bal 62353
▁lầy 62343
▁Love 62324
/2016. 62316
▁Thôi 62315
▁tụi 62311
▁Rạng 62303
▁Thắm 62253
▁Damascus 62238
▁HA 62205
▁Giữ 62163
▁VPF 62144
cùng 62139
TM 62123
/10. 62122
bo 62112
▁Manila 62110
▁Jun 62102
bản 62059
▁(12 62052
▁Street 62048
▁xua 62026
▁IMF 62017
▁Nổi 62015
Sinh 61981
▁chập 61974
ice 61950
▁Ngồi 61931
▁Phạt 61897
cô 61864
▁VietinBank 61863
▁Tuệ 61859
▁37, 61855
▁1/4 61781
▁Đoan 61743
▁Bernabeu 61729
/2014. 61673
▁khiết 61669
ve 61661
yc 61654
mer 61630
▁Nà 61621
thị 61615
▁32, 61610
▁dằn 61583
▁Đỉnh 61576
▁vàn 61547
▁cõi 61519
▁nung 61511
▁Nm 61481
▁Đầm 61478
▁Hạng 61462
.23 61455
▁1996 61422
▁94 61418
▁Cứu 61350
Chủ 61328
▁cừu 61301
▁Sevilla 61288
03 61278
▁Ka 61269
▁Hạm 61240
▁Las 61236
▁Tức 61188
▁Fabregas 61169
▁phôi 61157
▁1997 61121
▁Peru 61120
▁DJ 61083
▁rơm 61063
▁(2) 61059
hơn 61054
▁Tho 61044
▁1.8 61026
▁Thiệu 61012
▁gang 60995
▁chạp 60982
> 60957
▁chèn 60929
-30 60928
▁nếm 60918
▁Lim 60903
▁Vietinbank 60887
▁Tuất 60886
52 60871
▁tủi 60848
▁Smith 60802
▁Miếu 60765
▁KSND 60744
▁America 60739
ith 60718
ins 60709
aceae 60687
▁Yahoo 60682
▁250.000 60671
▁nude 60664
▁Lãi 60650
▁ÁN 60589
▁vung 60584
▁le 60582
ny 60545
▁CQĐT 60517
▁He 60477
▁Sergei 60476
▁190 60447
▁Mil 60432
▁Pogba 60430
▁Sergio 60407
▁34, 60387
▁Cuốn 60379
res 60344
▁Kremlin 60342
▁hủ 60333
▁BÌNH 60326
▁31/12 60324
▁1- 60316
▁Mer 60309
▁níu 60283
▁phen 60279
▁Mike 60267
▁Thìn 60228
▁Dựa 60227
▁All 60207
▁ru 60175
▁Vượt 60174
▁GTGT 60161
▁Cor 60110
▁ray 60081
▁Nobel 59987
▁Carlos 59970
▁KẾ 59951
giảm 59943
▁320 59931
▁TỔNG 59900
alis 59893
▁DVD 59891
▁ĐẤT 59884
hiện 59864
▁Sol 59840
▁128 59826
▁uất 59813
yn 59805
Hoa 59784
▁xuồng 59742
mar 59726
/5 59706
▁Kịch 59705
▁102 59674
▁Ramos 59667
còn 59661
▁Lady 59660
▁Triết 59642
▁Giảng 59617
▁Game 59561
▁Shin 59554
▁3.2 59550
▁tẩm 59538
ơ 59522
Long 59509
04 59496
▁két 59450
▁Sunderland 59418
▁Napoli 59406
với 59405
▁Europa 59400
ack 59358
▁Dấu 59340
▁xước 59338
'), 59321
▁Gea 59319
▁Hari 59291
▁Formosa 59268
ock 59264
▁1994 59245
▁Sydney 59237
▁úp 59202
are 59194
▁Giúp 59174
els 59150
▁Ber 59136
▁Mũi 59091
▁ĐKVĐ 59086
▁nập 59078
VT 59020
▁cồng 58998
▁biếu 58995
/12. 58965
▁ngấm 58957
"... 58950
▁SIM 58942
▁(14 58941
▁AT 58931
HS 58930
▁Bom 58894
TA 58883
át 58877
▁mồm 58877
▁vun 58870
oph 58816
ann 58815
▁(11 58767
▁We 58760
▁CV 58720
▁Benzema 58716
▁Charles 58705
;) 58684
▁600.000 58677
▁ốp 58671
▁Dàn 58660
▁1/8 58659
cha 58640
Bắc 58638
▁Mu 58636
Lào 58617
▁GIÁ 58600
che 58571
▁Dr 58558
%/ 58536
▁Frank 58533
bà 58531
-16 58467
Trường 58459
▁Brown 58451
▁Yang 58449
Phó 58353
▁Bão 58347
° 58339
▁ATTP 58301
▁thà 58288
▁Pan 58282
▁nghẹt 58280
hai 58274
▁Mầm 58219
▁nghiền 58200
▁loãng 58181
▁Av 58178
/2005 58177
▁khẽ 58152
▁Camera 58142
▁GPMB 58120
▁DANH 58099
▁ISO 58082
▁Monaco 58078
▁SP 58064
▁Nghĩ 58056
ile 58038
+) 58007
▁Cháy 58006
▁1.7 57991
▁UB 57962
▁Bu 57951
▁113 57950
Thủ 57930
▁Nick 57875
▁Mas 57867
▁Duẩn 57837
-12 57823
▁Zidane 57820
▁chói 57795
rop 57767
▁Vui 57695
▁Music 57678
▁suôn 57676
▁quây 57669
▁Nhị 57645
ps 57632
▁quẩn 57628
▁Asian 57617
ern 57616
▁mu 57609
eri 57588
▁Nho 57587
▁Hạn 57586
▁Nền 57569
▁vạ 57558
▁đậy 57536
Ng 57533
▁phồng 57459
▁vòm 57417
oh 57383
don 57367
▁1.300 57356
▁Mộ 57331
▁giông 57321
06 57273
▁ngói 57247
Ninh 57244
▁nhóc 57244
▁xộn 57130
▁cội 57119
▁TRIỂN 57100
▁Tế 57096
Fi 57080
▁Album 57076
▁Valentine 57071
▁Uông 57070
▁Il 57065
▁Khmer 57050
gần 57011
▁sưởi 56988
▁khuấy 56972
▁củi 56957
/2015. 56939
▁chướng 56897
▁Kevin 56886
▁CMND 56858
▁kiếp 56849
của 56831
▁SSI 56796
▁series 56792
▁Home 56763
▁mẫn 56753
▁IX 56751
▁loét 56749
ora 56743
50.000 56696
▁Cự 56688
▁rêu 56679
út 56643
▁thung 56624
oll 56603
▁pixel 56587
đi 56574
▁Laden 56561
▁nhàn 56558
me 56552
▁Forbes 56508
ima 56505
▁vaccine 56477
▁nhét 56428
ăng 56427
▁750 56422
▁Adam 56409
▁2015; 56400
▁TK 56398
▁ĐTVN 56395
bi 56387
ene 56381
▁HUYỆN 56375
▁phông 56331
▁nhang 56326
NA 56310
Thời 56301
▁230 56297
▁Tà 56295
▁Blue 56268
▁Media 56242
▁Jang 56241
kin 56203
▁2002, 56200
▁megapixel 56186
amp 56181
▁reo 56173
▁It 56156
▁FBI 56145
ive 56126
▁rãnh 56117
DA 56098
▁Lavrov 56044
▁ươm 56043
▁Trò 56040
▁Lionel 56039
Qaeda 56038
▁Fed 56025
▁Hổ 56020
▁vò 56011
giá 55972
▁26. 55952
▁Abu 55948
▁Tý 55945
▁nhàm 55926
▁30. 55914
tô 55903
ES 55901
▁Mãi 55891
▁112 55884
.4 55854
Chỉ 55835
▁Phil 55819
▁dì 55809
▁Dẫn 55800
▁Biến 55775
▁Gà 55742
▁http 55731
CĐ 55721
▁Quỳ 55710
▁xiếc 55684
/02 55660
▁Val 55654
/1. 55649
▁Chín 55630
▁nhai 55587
▁khăng 55580
▁Nissan 55573
▁Gã 55562
▁tẻ 55562
▁niệu 55521
▁Gói 55499
▁ngà 55488
▁Bel 55483
▁mứt 55463
▁PHÁP 55454
tính 55453
▁QUYỀN 55446
▁Mekong 55443
* 55427
▁Nợ 55424
▁Hot 55410
MB 55407
▁NÔNG 55376
▁Sputnik 55348
▁bung 55332
▁Lư 55326
▁nhung 55317
-200 55308
▁nành 55307
▁Thoa 55277
▁bèn 55184
▁ngu 55183
/2013. 55175
▁yếm 55169
▁→ 55169
▁you 55126
▁Tạm 55104
▁Aguero 55099
▁xỉu 55094
▁Nhiên 55073
/2003/ 55036
▁quýt 55027
▁Vinashin 55026
▁ĐƠN 55013
cây 54995
▁Mata 54974
▁Wang 54973
▁nặc 54946
▁gáy 54912
▁Giêng 54910
mi 54880
▁XIV 54858
▁Bữa 54853
▁z 54844
▁Cal 54838
▁Lenovo 54820
▁bo 54813
▁hất 54807
▁29. 54784
▁Mario 54768
iana 54764
ghi 54743
▁", 54742
▁Toản 54738
ck 54722
▁AFC 54720
▁Power 54670
▁Xúc 54657
▁VinaPhone 54653
▁28. 54618
▁ĐỀ 54595
BCT 54575
▁120.000 54571
nóng 54556
▁40, 54552
▁cuống 54551
Đối 54535
Đó 54512
ui 54499
▁Telegraph 54486
▁HQ 54481
▁chằng 54470
▁xốp 54467
▁TCTD 54440
▁Ia 54435
▁Hazard 54434
07 54430
▁Guardian 54361
.100 54348
▁Dan 54309
▁50, 54305
▁Cột 54286
▁Stamford 54282
ase 54277
▁Thai 54259
▁mẩn 54259
▁Xi 54255
▁quế 54181
▁Nụ 54165
Được 54157
atus 54097
học 54095
▁rỗng 54056
BYT 54053
▁Gió 54048
▁Pacific 54037
CB 54023
▁Cannes 54010
▁Chiêu 54000
▁Ngài 53995
▁2.3 53986
▁Pleiku 53977
▁cabin 53972
Họ 53965
▁105° 53926
line 53917
HNM 53894
▁Club 53892
▁US 53892
▁Thúc 53878
▁Rock 53869
▁bỉ 53869
▁xíu 53853
▁University 53827
▁Xếp 53808
Cũng 53800
Thông 53790
▁chệch 53769
▁106 53765
▁sỡ 53760
▁KHCN 53723
/2. 53711
ham 53638
▁1993 53629
▁gào 53611
▁Kr 53609
Bạn 53600
FA 53586
oma 53575
▁thê 53546
▁Thơm 53537
▁trót 53524
▁Dịp 53520
▁Trồng 53509
▁2,2 53495
▁hoay 53463
▁QĐ 53451
siêu 53434
▁huyệt 53431
ồng 53429
▁Life 53413
▁Cole 53408
▁3.0 53407
▁Medvedev 53406
trước 53386
▁Antonio 53383
▁Mơ 53371
oni 53346
7) 53344
▁Bia 53339
▁Rừng 53330
khu 53300
▁550 53296
▁đọ 53294
▁5: 53282
GS 53281
▁Lên 53275
▁nhằn 53274
hàng 53230
so 53225
▁Duterte 53183
▁Gây 53181
giải 53158
▁Awards 53146
▁cạo 53117
▁Vina 53094
▁27. 53078
Chính 53071
/2017. 53066
Vũng 53060
▁Thy 53055
▁Mc 53054
▁Chư 53032
▁Ak 53029
▁tảo 53028
xi 53011
▁THUỘC 52994
▁Ngôn 52989
▁is 52975
berg 52951
▁Os 52945
▁Wayne 52936
thực 52909
▁Cạnh 52896
TU 52894
▁sedan 52894
si 52869
▁Lexus 52851
▁Si 52851
▁lùm 52843
po 52842
▁3.500 52829
▁104 52820
▁Com 52808
▁106° 52788
▁BẢN 52787
▁rán 52771
▁trơ 52744
▁kẽm 52743
▁Họa 52727
▁9.000 52723
▁107 52708
▁mg 52707
▁Soo 52700
ali 52697
▁carbon 52693
.11, 52679
▁bầm 52654
Hội 52630
▁marketing 52624
▁BXH 52614
▁(13 52612
▁Mel 52593
Kiến 52580
wa 52580
▁PHÁT 52577
▁Blues 52566
▁LĐBĐ 52551
/2004 52545
PV 52545
ID 52536
car 52525
▁THU 52518
ace 52507
▁XNK 52507
ord 52503
▁điếu 52485
▁nhích 52473
▁Cù 52469
▁NGÀY 52469
▁CHI 52463
ort 52453
▁SM 52453
▁Đau 52447
▁điềm 52431
vi 52413
▁Gar 52393
▁ex 52390
54 52388
▁BP 52368
▁Nepal 52355
▁TRONG 52340
▁GV 52336
▁Đốc 52276
▁Day 52249
▁DỰ 52243
Sở 52236
9) 52221
▁White 52203
▁ngao 52201
▁Lamborghini 52170
▁Snapdragon 52168
▁Kuala 52152
▁Yonhap 52139
▁hacker 52125
/6. 52122
▁bu 52102
Báo 52051
▁Gl 52041
▁năn 52027
▁giỏ 52000
▁Petrolimex 51971
▁Lumpur 51963
▁Đo 51948
▁Face 51941
▁Xê 51925
▁Cang 51921
▁(198 51918
/6 51913
▁31, 51888
▁Ros 51886
09 51864
▁MINH 51864
▁2- 51856
▁>>> 51752
▁Bundesliga 51739
▁băm 51731
BGTVT 51724
▁(200 51721
9/ 51718
▁kình 51708
/2004/ 51684
▁Tránh 51666
▁khét 51666
▁catwalk 51586
▁sô 51581
▁Bê 51573
▁Core 51564
inh 51563
▁7% 51544
▁Nguyen 51543
▁Quay 51536
▁Tab 51536
tin 51534
▁bẹp 51529
▁1/5 51509
▁SẢN 51497
▁Tả 51477
▁THI 51460
▁đố 51429
▁(31 51425
▁HÓA 51424
▁Airbus 51393
▁Mái 51393
▁gập 51384
▁ả 51381
▁650 51373
▁Belarus 51333
.12, 51326
▁Trầm 51315
ett 51311
▁Hun 51300
▁VNĐ 51298
▁GIẢI 51295
▁Luyện 51292
▁30/4 51284
/100 51280
ĐH 51264
▁bus 51223
ram 51208
▁Bọn 51199
▁War 51181
Phim 51173
▁RT 51164
▁thừng 51161
▁WB 51156
▁3-0 51144
Khu 51105
▁QĐND 51084
▁phai 51069
▁Business 51066
▁Mão 51053
▁Cameron 51049
ame 51008
▁2,4 50972
-18 50964
MS 50951
▁2.4 50949
56 50907
ky 50902
▁Tội 50879
▁Full 50878
▁Chan 50862
kV 50844
▁NDT 50836
▁nạt 50820
▁PR 50816
▁nilon 50815
/2012. 50801
Còn 50788
ole 50786
▁Giàu 50785
Ba 50777
▁xiết 50773
▁by 50761
▁pho 50733
▁0,0 50729
▁981 50728
▁ảm 50726
▁roi 50705
Văn 50701
▁175 50661
▁tuột 50661
▁Andy 50641
▁NASA 50637
▁1.600 50616
▁Gaza 50613
▁Yong 50606
▁Erdogan 50599
▁Vinalines 50575
khóa 50551
▁sảo 50548
▁.... 50512
▁2,3 50512
out 50510
▁Nhập 50489
pa 50487
act 50452
▁Thưởng 50450
%; 50446
▁Tào 50446
▁HÀ 50441
▁Hới 50382
▁Hee 50363
▁Thẻ 50357
▁Khoáng 50335
▁ki 50334
.8 50303
▁ngách 50263
▁Tony 50259
Tình 50257
ver 50253
▁Southampton 50239
tại 50234
▁nhổ 50200
yêu 50196
▁Emirates 50185
/8 50162
▁Giggs 50144
▁Thoại 50109
▁Thép 50078
▁Play 50063
▁Juve 50062
6) 50050
▁Ankara 50046
uz 50030
EA 50028
▁cholesterol 50005
▁Rafael 49993
▁Czech 49964
-48 49960
▁Huawei 49939
▁Gates 49923
▁1.800 49879
▁trau 49867
▁thẳm 49862
ail 49852
▁Nhắc 49849
▁4-5 49817
▁ngời 49776
ru 49775
▁PT 49765
▁|- 49756
BXD 49753
ON 49753
▁calo 49731
▁Thập 49716
▁THANH 49684
▁App 49680
min 49657
▁nỉ 49653
ela 49652
▁Phả 49632
▁Noo 49626
▁or 49626
▁ĐỐI 49624
ker 49611
▁chài 49598
▁American 49581
ỗ 49576
▁Thuyền 49569
53 49568
▁bầy 49562
▁Men 49558
▁Porsche 49474
▁mịt 49465
ó 49457
▁sọc 49437
▁2001, 49430
▁95% 49414
ics 49410
▁1992, 49393
▁Sim 49377
0. 49367
lượt 49365
▁NGUYỄN 49355
▁Rà 49330
▁Palace 49327
cc 49290
ise 49272
▁Thuyết 49269
▁von 49260
0,000 49248
▁Smart 49208
▁đái 49205
VnMedia 49194
▁NHTM 49193
▁Yingluck 49193
▁gắm 49119
▁chà 49089
ban 49087
Tiểu 49086
▁kWh 49066
▁Balotelli 49063
▁ĐƯỜNG 49049
eta 49042
▁VNIndex 49041
▁hãnh 49029
▁2003; 49026
-199 49025
▁3; 49024
▁Tầm 49021
Bên 49009
▁Khóa 49008
sky 49000
▁be 48992
▁bẩy 48978
PA 48969
▁Kích 48963
▁QUỐC 48958
▁Geneva 48942
▁Tuyệt 48939
Đến 48935
▁Motor 48916
▁1991 48890
201 48885
Dù 48853
der 48852
ling 48827
▁Anna 48820
▁3-1 48818
▁TIÊU 48795
▁Choi 48783
chiếc 48765
▁mênh 48755
▁trướng 48738
▁Swift 48726
▁Khung 48721
▁TƯỚNG 48703
▁ngẫm 48680
đơn 48661
.7 48651
▁VIP 48631
▁NDĐT 48611
▁Type 48611
Cuộc 48608
▁Victor 48599
NLĐ 48579
▁chước 48572
▁ngẩn 48572
▁Hart 48569
▁sặc 48558
▁dứa 48554
▁Mag 48545
▁Xăng 48545
▁nguyền 48537
SD 48528
▁800.000 48526
▁Tae 48521
▁Ôn 48512
▁Cỏ 48507
▁Stoke 48505
▁Asus 48500
▁186 48496
illa 48466
▁KINH 48463
▁lợp 48453
att 48436
▁loay 48436
▁Tái 48428
▁Tỵ 48389
▁210 48373
▁chat 48372
▁MiG 48362
▁thày 48359
▁VHTTDL 48345
▁tablet 48336
be 48314
▁cộ 48285
▁Web 48257
▁dăm 48255
Tiền 48237
▁dẫu 48227
▁Dmitry 48219
▁VNM 48198
vnexpress 48195
▁TCVN 48195
▁Az 48190
▁tuông 48183
▁chát 48178
▁TGĐ 48173
gr 48172
▁tủy 48160
▁yen 48145
aly 48140
ì 48140
-21 48127
▁Pitt 48091
▁1.400 48079
ami 48061
▁day 48041
▁CK 48030
▁rốn 48016
▁Jo 48003
▁GM 47992
ons 47991
▁Nhan 47981
▁XÂY 47976
▁1.000.000 47965
oss 47954
▁Bửu 47947
▁ngủi 47909
▁Hát 47906
▁Ð 47905
▁Canon 47896
điểm 47890
▁sục 47888
▁vơ 47874
▁hiên 47849
Nh 47846
▁BQL 47838
▁át 47801
▁Metro 47792
▁rượt 47785
▁Vitamin 47761
▁Elizabeth 47746
▁ADN 47743
▁đốm 47730
ger 47711
▁st 47688
▁45, 47683
▁khoắn 47652
▁Store 47607
▁Lin 47592
▁Conte 47589
▁Shinzo 47589
▁Dream 47588
▁4.1 47586
LA 47582
▁Capital 47579
uch 47576
▁cáu 47562
ris 47527
ila 47526
▁PCT 47506
ăm 47503
▁Sâm 47495
.6 47461
tel 47428
▁24/24 47421
▁thỏ 47420
go 47414
▁òa 47399
▁Gerrard 47391
▁Sóng 47387
▁miếu 47386
:- 47358
▁sảnh 47357
▁1/7 47333
▁Khe 47333
▁cafe 47332
▁găng 47324
▁Thuần 47285
▁riết 47277
▁Quyển 47260
▁PH 47254
rom 47201
▁Thỉnh 47126
Quận 47076
ten 47073
▁thiền 47069
Lúc 47061
Khánh 47021
▁MT 47021
▁Cap 47007
▁Giàng 47004
▁Steven 47000
▁SỬ 46984
▁Mart 46978
▁Sầm 46973
▁dột 46970
▁thun 46965
▁GiadinhNet 46949
▁Sổ 46945
▁VAT 46941
▁PHÍ 46932
▁FED 46923
/2018/ 46921
▁Bur 46893
▁Hoằng 46893
GT 46890
▁116 46890
▁Uzbekistan 46886
▁xùm 46886
Do 46881
ade 46865
▁muội 46863
▁Kelly 46844
▁Chạy 46837
▁Scott 46830
dự 46811
▁Vành 46811
▁35.000 46800
ren 46798
▁Bor 46796
ors 46794
ĐTCK 46785
▁2006. 46777
▁2019. 46773
▁Pop 46765
▁Thuật 46760
▁SÁCH 46746
▁2.2. 46743
▁DỰNG 46731
hot 46729
▁tắn 46722
trường 46714
▁Pat 46658
▁12% 46633
▁187 46627
▁GHz 46615
▁Roberto 46600
▁Ram 46593
Thiên 46586
▁UAE 46586
▁rùng 46546
▁Nuôi 46535
▁cau 46511
▁derby 46487
▁Time 46484
▁lẩu 46482
▁Dell 46463
▁Hung 46419
▁3.5 46414
▁vỏn 46413
aki 46408
▁ĐẦU 46404
▁Kháng 46400
▁Bashar 46399
▁VỚI 46397
▁Luôn 46387
▁Ty 46364
▁Hanoinet 46361
Thế 46339
▁cằm 46322
/2003 46314
▁Pin 46302
▁HCB 46300
▁bướu 46270
/9 46264
▁Touch 46243
▁Jakarta 46215
▁Bulgaria 46206
▁1995, 46202
▁bục 46195
▁ĐTDĐ 46195
5.000 46187
CV 46163
mo 46160
▁like 46145
Đã 46136
1/ 46129
.- 46127
▁NS 46126
▁húc 46126
▁CHUNG 46114
▁Kan 46111
▁ngừ 46107
▁Christian 46083
▁75% 46078
▁1993, 46067
▁Bluetooth 46064
▁sáo 46037
ít 46035
▁oán 46031
51 46010
▁lăm 46003
▁1980 45978
air 45959
▁hốc 45917
én 45910
▁Her 45905
▁Hưởng 45894
▁Ne 45893
▁HTV 45890
Dự 45883
▁Tóm 45867
▁vơi 45855
▁trá 45833
▁1999, 45816
▁Brunei 45787
▁127 45764
chia 45739
▁3- 45727
▁rưng 45711
tor 45689
cơ 45678
▁phụng 45674
▁8% 45673
▁live 45660
▁Trùng 45659
▁card 45656
▁Hợi 45637
▁vặn 45636
▁tít 45588
eu 45587
▁bèo 45564
Bank 45544
▁(3) 45537
▁Brom 45509
▁que 45506
▁hòng 45503
▁Jessica 45479
▁Khúc 45471
8) 45461
▁Chen 45447
59 45427
▁Hawaii 45415
▁Ap 45411
HN 45385
▁1994, 45385
BTP 45373
ial 45354
": 45332
tiếng 45321
▁Francisco 45317
▁121 45306
▁Tevez 45301
▁HOẠT 45288
▁TCN 45264
▁Chim 45253
▁thóc 45241
▁Nhiếp 45239
▁123 45231
▁Bồi 45213
▁Ebola 45207
▁mẹo 45192
▁38, 45169
▁Fl 45167
▁gộp 45150
ake 45148
▁Ashley 45142
▁Eric 45142
▁jeans 45107
ank 45105
▁Center 45075
▁TÁC 45074
bên 45058
▁Disney 45044
▁SGK 45040
US 45014
▁nám 44995
ator 44988
cái 44971
▁Jan 44961
▁lon 44960
CM 44948
ere 44929
▁8/3 44922
▁rình 44921
▁quí 44918
▁phớt 44915
▁cấn 44885
seo 44878
▁1991, 44864
▁Bangladesh 44856
▁Ecuador 44824
▁Stephen 44819
BTNMT 44811
▁nhoáng 44803
▁SD 44802
▁Boss 44787
▁Chicago 44787
ark 44760
▁(+ 44746
▁VCB 44744
▁QLTT 44736
▁Ko 44709
▁2,7 44708
▁căm 44708
▁cuốc 44707
▁1980, 44659
▁Bon 44649
pp 44639
▁For 44639
Man 44604
▁Slam 44603
▁GIA 44599
▁hắt 44555
/2008, 44546
▁tuýp 44535
▁From 44520
▁1982 44512
▁sảng 44479
▁triền 44476
Ngay 44461
ovic 44438
âm 44423
▁Chiêm 44407
▁mầu 44399
ashi 44395
▁Lampard 44383
AR 44381
▁gram 44380
▁giỗ 44368
▁acid 44367
mỗi 44325
▁Techcombank 44317
▁HỌC 44314
▁mix 44285
▁196 44276
HQ 44233
▁TL 44230
▁Gal 44225
▁rồ 44216
▁Kang 44211
AI 44210
▁chiêng 44190
▁DS 44189
▁Phá 44182
▁Phái 44176
▁Brussels 44170
▁2004. 44160
▁del 44135
▁mui 44132
▁nhờn 44128
▁30/6 44126
▁Fernando 44116
▁Tower 44114
▁Woo 44112
ct 44110
▁Ts 44105
Kèm 44103
ft 44091
đầu 44079
▁na 44069
▁at 44065
▁Royal 44044
▁ml 44043
đánh 44037
▁Baghdad 44026
▁National 44024
oli 44020
-17 44006
▁Ti 44004
bộ 44001
▁Live 43994
▁0,1 43978
▁rô 43976
▁Ke 43959
▁Delhi 43935
enko 43925
▁ngốc 43919
let 43907
▁4.2 43897
vợ 43873
/9. 43862
▁Vn 43837
ings 43831
▁3,2 43822
ania 43789
▁Gạo 43784
LS 43777
QL 43736
▁Marc 43733
▁Tòng 43733
kov 43728
▁Pol 43726
▁hen 43705
Liên 43694
▁Es 43679
/03 43661
▁Tỉ 43647
▁thán 43628
▁Ngạn 43626
▁giở 43618
▁tơi 43611
▁109 43597
▁Garden 43597
Assad 43594
ric 43583
▁nách 43582
▁sủa 43577
▁188 43561
tiền 43554
-23 43539
▁2,8 43533
▁Hinh 43512
▁ben 43507
▁Charlie 43488
▁Biệt 43487
▁CHỈ 43483
ars 43482
▁3) 43475
NE 43473
▁vụng 43453
pt 43435
▁0,00 43427
▁Ex 43425
▁Lopez 43407
▁Nhâm 43400
ets 43373
▁Sửu 43369
▁117 43344
▁nhấp 43333
▁4% 43328
▁Simon 43321
itt 43312
▁rợn 43312
▁Gh 43290
khi 43289
▁111 43282
▁6% 43271
▁PVC 43270
thứ 43264
/05 43248
▁700.000 43245
▁thét 43242
▁0,3 43224
▁flash 43222
▁Vincom 43211
XD 43197
▁5.1 43188
▁rậm 43165
▁giun 43159
▁1997, 43158
giữa 43155
▁thiếp 43151
▁Alonso 43127
▁Journal 43089
/2011. 43070
▁2005. 43061
▁Jobs 43054
▁Ser 43040
▁nhả 43021
▁chòi 43020
-300 43001
▁Gaga 42987
ori 42952
▁Đẹp 42941
▁Will 42939
▁HCĐ 42925
▁□ 42922
▁Chang 42896
▁Bưởi 42882
▁Ngưu 42881
▁Tao 42874
▁Sri 42870
▁Crystal 42860
▁gọt 42857
▁Iniesta 42828
rin 42811
57 42809
▁Roger 42801
▁THỨ 42796
▁1975, 42783
aco 42781
▁() 42779
áp 42778
▁trũng 42777
▁Rodriguez 42755
odes 42751
▁ABC 42750
▁141 42748
ôm 42740
▁trailer 42721
▁480 42689
▁35% 42686
▁Dệt 42682
▁piano 42680
▁MW 42664
▁Lối 42656
▁Xavi 42636
▁nhẹn 42635
▁Mirror 42618
Số 42615
58 42598
▁Dạy 42595
▁1998, 42581
▁Nicolas 42581
ater 42576
▁Far 42568
/11. 42567
▁Mỏ 42549
Cục 42546
▁TẾ 42518
▁Thám 42497
▁phách 42492
elle 42466
▁(40 42463
▁Nắm 42439
▁AK 42436
▁North 42416
▁cưỡi 42412
▁Lòng 42382
▁khâm 42376
Kienthuc 42345
▁Bù 42323
▁chắp 42320
▁Casillas 42313
quy 42295
▁with 42295
▁lán 42292
▁And 42277
▁Ru 42275
den 42271
Như 42261
▁Algeria 42260
▁1996, 42254
▁dãi 42248
▁(201 42245
▁Fan 42242
▁Harvard 42242
Hôm 42227
▁Lyon 42226
▁khoét 42225
▁Sàn 42211
ello 42210
ĐSPL 42184
IM 42182
▁Vietjet 42172
▁CỤC 42170
▁Lựa 42164
▁Qualcomm 42150
▁lút 42150
▁0,2 42149
▁BẢO 42148
ond 42137
▁up 42122
▁Drogba 42103
▁mồng 42094
è 42080
▁Castro 42080
▁1989 42061
amin 42059
▁BÁO 42055
▁Petro 42052
▁NNPTNT 42050
▁44, 42014
▁gớm 42013
▁lùn 42005
▁Poroshenko 42001
▁phất 41993
▁Carl 41990
▁Gala 41982
▁Kazakhstan 41979
▁CAQ 41974
▁1.100 41964
▁Đèn 41943
▁LIÊN 41940
▁Zika 41937
BNV 41925
▁Jay 41917
▁Hal 41915
▁xù 41904
▁ngổn 41893
Chị 41879
▁1975 41878
▁vest 41833
▁quyện 41832
▁Chờ 41827
▁bai 41785
▁nhúng 41758
▁trỗi 41748
▁Mary 41743
/10 41735
cười 41735
▁.. 41704
▁Suy 41702
▁39, 41700
▁720 41688
▁43, 41678
▁Infonet 41661
ical 41654
▁Des 41652
▁155 41651
eth 41640
-2015, 41631
▁Mitsubishi 41619
Trên 41606
qua 41566
▁han 41540
▁Benitez 41508
▁Lau 41472
▁dong 41465
optera 41463
▁Pen 41463
ire 41443
▁TB 41431
▁TRƯỜNG 41399
▁280 41389
ski 41387
▁2025 41385
RA 41378
▁hờ 41358
▁2,6 41351
org 41345
▁60, 41316
▁Iceland 41310
▁AM 41302
▁chắt 41284
▁Press 41281
▁Yu 41261
/7. 41258
way 41258
▁Biện 41255
▁Pedro 41248
no 41202
▁192 41197
Giải 41189
ink 41188
▁đãng 41181
▁Chịu 41170
▁Motorola 41158
▁chao 41153
▁Thiều 41144
ight 41123
4.000 41116
▁tấc 41102
▁nem 41088
▁hormone 41084
▁rát 41077
▁Ter 41074
ado 41067
▁Po 41067
▁Mâu 41065
EN 41060
▁PHẠM 41058
-24 41043
▁Đê 41037
Hãy 41022
▁Chụp 41011
/. 41004
▁xói 40998
▁Mad 40996
▁lẻo 40993
▁súp 40983
▁Fulham 40966
▁còng 40956
HC 40944
ây 40934
▁lạng 40932
▁Mèo 40928
▁khuynh 40913
sự 40904
▁Brexit 40898
▁41, 40864
gia 40854
▁270 40844
▁nga 40831
▁Sợ 40830
ati 40820
ford 40810
▁Secret 40793
/06 40787
▁guitar 40783
▁PHÒNG 40773
ả 40772
BV 40758
▁bói 40754
▁CNVCLĐ 40753
▁kèn 40748
▁vạt 40735
▁Quê 40722
▁TRUNG 40720
▁vũng 40712
▁1.700 40697
mann 40682
▁Cừ 40679
Thật 40663
▁Rai 40658
aro 40657
▁shop 40652
▁sum 40650
▁dí 40629
▁vỉ 40628
▁Chevrolet 40614
▁Perez 40607
▁Béo 40598
▁1982, 40597
▁Hôn 40583
▁42, 40548
▁Căng 40524
▁trợn 40518
ối 40504
▁sói 40497
loại 40469
▁Fashion 40465
nữ 40463
Bài 40462
▁Porto 40462
phần 40461
▁Chơi 40458
▁Cook 40437
▁quậy 40437
▁France 40434
▁GIANG 40429
▁RIA 40424
▁Catalan 40423
▁Lũng 40419
gu 40400
ích 40400
-2014, 40377
▁Hotline 40366
▁gượng 40353
pe 40310
▁giầy 40278
FC 40258
▁mẩu 40241
inch 40235
▁House 40233
thời 40227
đặc 40218
▁118 40218
▁Rome 40211
Un 40190
▁Boston 40188
▁penalty 40173
▁mè 40164
▁Inc 40161
▁Gareth 40145
▁cù 40127
▁260 40107
▁bịch 40101
▁Serena 40092
▁Romania 40089
Zing 40071
Sh 40067
▁Khẩu 40067
Cadn 40066
bình 40059
▁tòi 40040
yo 40034
ema 40032
▁46, 40024
TBKTSG 39999
▁Art 39987
▁VGP 39979
▁Kaka 39973
vì 39972
▁quai 39971
▁truất 39960
mẹ 39951
▁Santos 39950
▁Răng 39948
▁Andrew 39942
▁122 39927
▁Bột 39901
In 39892
▁líu 39887
...... 39886
▁ICTnews 39871
6/ 39862
▁Ver 39849
▁mớ 39828
▁THEO 39814
▁Ozil 39805
field 39794
▁(32 39792
▁Nộp 39781
ạ 39767
▁Mancini 39723
▁Noc 39722
▁8,5 39720
tổ 39700
▁boy 39690
▁độn 39684
▁Cướp 39677
▁gene 39670
%), 39657
wood 39647
▁GPS 39646
ư 39631
▁Manuel 39617
▁go 39615
▁Ferdinand 39596
▁Sw 39588
▁Khoảnh 39580
▁kèo 39568
▁114 39567
ville 39562
▁nháy 39526
▁sỉ 39524
▁Angel 39522
▁Senkaku 39518
bằng 39493
▁HÀNG 39474
ust 39457
▁11.000 39454
▁Truyện 39409
rid 39397
▁DA 39393
▁Panama 39392
ED 39367
HD 39365
▁VỰC 39365
bank 39357
▁NGƯỜI 39340
óc 39333
▁giăng 39315
▁Cẩn 39305
▁Mini 39303
Tất 39296
▁Leo 39279
▁Hollande 39269
▁Sports 39263
▁Bob 39241
▁VHTT 39240
lor 39230
▁SVĐ 39225
ear 39223
Cơ 39204
ato 39199
ika 39197
yan 39175
▁MSN 39162
▁nghĩnh 39153
▁Rh 39147
▁Sudan 39131
▁Lắc 39113
-400 39109
Mẹ 39078
-2013, 39067
ef 39064
▁MI 39040
▁Ah 39039
▁đẽ 39032
.21 39025
▁Huynh 39025
▁191 39014
▁AI 39004
▁XD 39000
▁Tặng 38987
90.000 38985
off 38975
▁style 38965
Quy 38960
ota 38926
adi 38912
/09 38911
▁VAMC 38906
▁1,9 38902
▁Swansea 38902
ions 38876
▁Lỗ 38850
▁Met 38848
tan 38844
II 38836
▁CNLĐ 38831
▁Giây 38824
▁SA 38824
▁Rượu 38823
▁xòe 38815
QT 38812
▁1988, 38811
▁Viêm 38811
▁ko 38811
▁Đón 38810
▁chổi 38809
▁PHƯƠNG 38801
OM 38795
▁Express 38793
\ 38784
we 38767
▁cốp 38761
▁1-3 38750
▁xỉn 38744
▁202 38737
▁VIC 38737
Đoàn 38722
▁Tiger 38715
▁Entertainment 38693
▁Rob 38690
▁der 38688
▁Geometridae 38667
2; 38665
▁Resort 38661
/4. 38656
8.000 38651
-2016, 38636
▁trĩ 38626
gov 38625
▁bộn 38619
▁Ngọn 38605
▁hằn 38585
ito 38577
▁126 38576
▁ID 38561
▁Kyo 38559
▁184 38549
able 38545
gan 38541
OC 38534
Chiến 38520
▁Vegas 38510
▁lép 38510
jo 38502
▁Edward 38485
▁Chải 38469
▁sầm 38457
▁TA 38454
▁Arsene 38452
▁132 38446
▁phiện 38434
▁cẳng 38433
?. 38415
▁STB 38386
▁pro 38384
eda 38380
▁lẫm 38376
Máy 38375
▁Arena 38375
▁WHO 38362
▁HSBC 38360
Benz 38358
▁Vinaconex 38357
ook 38347
▁vụt 38347
▁4.500 38346
▁Cân 38329
▁Bội 38327
OR 38312
lu 38308
▁DUNG 38305
▁CHO 38290
▁1988 38280
▁Đứa 38266
▁Nửa 38263
▁bời 38263
▁0% 38262
Làm 38254
▁Ấy 38254
▁xê 38246
MC 38244
old 38244
▁hấn 38244
▁vế 38229
▁Novosti 38225
▁Áng 38224
▁2-2 38213
▁CC 38200
20. 38192
▁0,4 38192
▁NHẬN 38182
▁1989, 38181
ép 38177
▁AIDS 38143
▁resort 38119
PLO 38112
▁mách 38112
30. 38111
▁Ê 38102
▁ngút 38101
oa 38097
▁Ang 38094
▁HỢP 38090
▁3-5 38084
Mỗi 38069
▁Santa 38055
▁Sea 38051
▁Toure 38048
▁Morning 38046
▁ĐHCĐ 38041
▁thuyên 38024
9.000 38003
▁Gruzia 38003
▁Gary 37975
▁Raul 37975
▁Sent 37943
Vụ 37934
▁(35 37918
▁VLeague 37915
bắt 37909
▁2.1. 37907
▁Ltd 37906
▁chuồn 37906
▁cặn 37902
à 37900
ú 37886
▁yoga 37883
Giá 37878
▁FTA 37872
▁ten 37849
▁Sav 37844
rat 37834
TPHCM 37828
▁Maradona 37824
▁Sanh 37823
▁sà 37817
Trần 37813
▁Hiên 37793
▁dìu 37793
-2017, 37788
ense 37770
▁dẫm 37768
ney 37758
▁spa 37754
-01 37752
▁Đổng 37751
▁vệt 37746
▁Lazio 37737
▁Tạng 37733
elli 37732
▁mAh 37711
▁KẾT 37706
▁85% 37704
▁225 37701
▁HỒ 37677
▁0,8 37666
ù 37658
▁trọc 37656
▁sạp 37655
int 37654
▁sộ 37645
▁Gomez 37643
/5. 37624
▁Làn 37611
▁micro 37600
HOSE 37598
ette 37597
▁Jerusalem 37597
▁mướn 37591
▁vãi 37566
my 37530
▁Michelle 37520
▁Series 37516
▁Ngắm 37511
▁(1, 37499
▁luyến 37496
hộ 37495
▁Poly 37476
▁Ant 37471
▁hễ 37461
▁Thằng 37456
awa 37452
▁tột 37450
/2010. 37436
▁Cas 37431
▁choàng 37430
/8. 37424
ais 37424
TD 37416
▁Lũ 37413
▁Joseph 37412
▁as 37409
▁Hill 37370
▁Lũy 37335
▁Latinh 37323
▁Dụ 37313
▁Mir 37309
CA 37301
▁hòm 37292
▁BVTV 37285
▁casino 37280
▁bùa 37239
▁Anfield 37234
▁Mosul 37227
▁Eto 37218
▁Seung 37215
-25 37214
▁70, 37186
Lê 37178
itz 37171
Giám 37167
▁Khiết 37160
▁90.000 37155
1- 37153
HNX 37152
edu 37140
▁đong 37139
▁Carter 37134
▁Ol 37126
▁rằm 37122
▁Tận 37117
▁Góp 37102
ắc 37101
▁break 37098
▁Fukushima 37090
ory 37066
DC 37053
▁Anthony 37044
▁IP 37034
▁31. 37030
2.000 37028
▁Kenya 37024
▁3,6 37023
▁ngoãn 37009
▁Wimbledon 37003
▁gạ 36998
▁vữa 36991
Mặc 36986
St 36978
thôn 36976
ờ 36967
▁Acer 36961
onia 36947
▁KV 36924
▁18.000 36914
cao 36912
▁Jim 36904
ect 36897
......... 36890
▁1986 36863
▁giấm 36850
chiến 36848
▁nắn 36839
DI 36837
gh 36832
▁183 36820
▁mấu 36815
▁Hanoi 36805
▁sững 36796
▁oanh 36764
▁189 36761
▁Sil 36735
▁solo 36716
▁QLDA 36711
▁NG 36690
▁hân 36684
▁199 36676
▁Geun 36671
▁BLHS 36662
esh 36657
▁dấn 36649
▁Kem 36630
▁Gian 36629
▁Klopp 36629
▁145 36620
▁Hoành 36611
▁Sin 36608
▁Virginia 36589
▁165 36587
▁Bò 36580
▁ụ 36579
▁Chứ 36571
▁bịa 36561
Đường 36560
dy 36550
-2013 36544
▁kền 36538
▁HẢI 36532
▁nguôi 36528
Cùng 36526
yd 36523
▁biếng 36517
▁HT 36514
Minh 36496
▁GAS 36495
:30 36489
▁UAV 36478
▁dỏm 36461
NC 36444
▁Ken 36442
▁bái 36429
▁Lỗi 36428
ải 36426
▁Alves 36414
RC 36384
▁cộm 36384
▁NGÂN 36383
▁múi 36380
▁Fax 36379
▁13.000 36378
▁Pellegrini 36378
▁124 36368
cả 36366
anth 36359
▁hăm 36352
ze 36336
▁Got 36330
▁Khuôn 36326
▁nhô 36322
/04 36315
▁liêu 36308
▁Amsterdam 36301
ides 36299
EM 36295
▁2016-2020 36295
▁Robben 36285
▁THỂ 36285
▁vía 36280
/08 36269
▁XX 36263
▁đùng 36250
▁nạc 36243
its 36233
▁sá 36228
ance 36223
▁Miên 36221
▁Hugo 36218
▁Tal 36217
▁Tơ 36208
..... 36205
▁Britney 36172
▁Alexis 36151
ci 36146
VP 36141
ele 36140
▁Nắng 36135
▁Tor 36130
▁Telecom 36129
▁cửu 36126
Đô 36107
▁Camry 36100
ạt 36099
▁GIAO 36085
que 36083
▁(50 36081
lanh 36078
Đội 36073
▁CBCS 36056
▁EC 36051
Học 36050
▁Túc 36034
▁Mộng 36033
▁Trảng 36032
Mình 36031
▁Dow 36019
▁Khuất 36018
3.000 35960
dưới 35960
▁chớ 35954
he 35921
▁si 35909
▁2.8 35907
▁khay 35901
▁nấc 35901
▁Bồng 35897
▁Chữa 35885
▁Lậy 35875
▁Auto 35872
▁hờn 35859
▁nhối 35857
kíp 35856
).- 35854
PS 35854
▁Lanka 35849
▁Cech 35845
▁Nhựt 35844
nhân 35840
▁Cấu 35828
ull 35822
▁1987, 35818
▁quăng 35815
▁1986, 35812
▁Tiêm 35809
vô 35808
áy 35804
IN 35793
▁ngùng 35788
-3. 35774
▁80, 35770
▁2,1 35759
pha 35757
▁CHƯƠNG 35752
▁Index 35746
▁Bird 35740
Thương 35720
/0 35719
▁Dar 35717
▁Lưới 35714
Thị 35712
▁múc 35712
HNMO 35706
▁túm 35703
▁1/10 35693
▁365 35684
▁uyên 35676
▁Office 35675
▁(0, 35673
▁Thiền 35666
?! 35645
▁Khan 35634
▁vần 35633
▁Lạch 35629
ott 35626
▁concept 35613
▁Hol 35595
▁Wave 35594
▁Đâu 35589
...; 35556
▁6: 35552
▁Cat 35552
▁Tak 35547
▁Giấc 35538
ế 35535
▁OS 35534
▁TRA 35525
▁Gọi 35524
▁14.000 35517
▁tợn 35512
mail 35509
uss 35507
▁ĩ 35506
▁SCIC 35472
▁Rolls 35471
/11 35470
▁Ste 35466
pr 35465
BT 35461
▁hởi 35436
▁Images 35420
Vĩnh 35417
-11 35416
▁Leonardo 35413
▁Ngụy 35391
▁Volkswagen 35390
▁Im 35385
▁(4) 35383
▁Standard 35373
▁trầy 35368
▁Slovakia 35360
▁HAG 35356
5) 35354
-14 35343
▁Lotte 35337
Sơn 35320
ường 35315
êu 35301
.00 35300
▁nhòa 35294
▁en 35289
▁Kl 35277
âu 35267
bị 35262
▁thớt 35261
▁Up 35252
▁Cồn 35239
port 35234
giây 35224
▁Carlo 35220
▁Miêu 35217
▁gỉ 35211
NV 35181
▁32. 35170
7/ 35162
ush 35160
........ 35158
ống 35158
▁Bieber 35155
▁Mega 35152
▁mon 35152
▁(197 35149
BA 35138
▁Sl 35134
ỉ 35129
▁Lạnh 35125
điều 35123
▁QUẢNG 35112
▁rành 35111
GHz 35103
▁Idlib 35093
▁PM 35088
ald 35081
▁Bas 35075
fa 35049
chuyện 35040
▁Schalke 35040
▁Gil 35018
▁__ 35002
▁bậy 34993
▁kềnh 34993
▁thoi 34989
▁Tar 34986
▁Med 34982
▁Ốc 34981
▁mướt 34980
▁Nỗ 34965
▁trẻo 34964
▁WiFi 34959
▁ĐƯỢC 34958
isa 34947
▁THẨM 34939
▁CX 34937
Tin 34932
Phát 34924
▁Sabeco 34901
▁Jetstar 34880
▁Xứ 34875
▁cover 34873
▁Joong 34866
▁330 34844
▁Tọa 34829
▁găm 34829
▁bùi 34825
Đông 34802
▁IBM 34787
▁xoăn 34780
AD 34753
ách 34748
▁gồng 34738
Al 34720
6.000 34715
▁45.000 34709
-2, 34703
▁2.6 34696
▁Alan 34690
▁3,4 34653
▁Lôi 34649
▁Andrea 34643
bit 34641
▁Lành 34635
ō 34634
thường 34624
ái 34611
▁Vietlott 34609
▁KHAI 34603
▁Tắc 34595
▁Ất 34587
▁Chanh 34585
▁cằn 34584
▁Matxcơva 34582
Quốc 34569
▁Enrique 34561
▁01/01 34557
ấn 34544
CO 34528
▁1985, 34512
hành 34495
▁16.000 34494
▁Pet 34483
▁Wil 34482
▁1/6 34468
ese 34466
ont 34465
▁Vol 34464
▁136 34462
▁tanh 34454
sp 34446
▁Macron 34444
▁90, 34439
▁Dây 34428
-50 34424
ác 34417
▁CAH 34414
▁SK 34408
▁kén 34404
▁Watch 34401
địa 34400
ras 34394
▁Ay 34386
▁Masters 34385
▁Fe 34377
▁Nexus 34357
enn 34339
ju 34324
▁\ 34324
▁TTĐT 34320
▁Sina 34309
▁CĐCS 34296
▁LĐLĐVN 34274
▁Vietnamnet 34272
▁Sát 34265
Hòa 34234
▁Hussein 34234
▁Sharapova 34217
KS 34213
ập 34213
▁Gen 34206
▁rôn 34203
▁65% 34202
▁30/9 34192
quê 34190
▁(08) 34180
▁buốt 34172
▁2020; 34164
▁Miễn 34163
▁tầu 34157
▁nhĩ 34152
▁Mao 34137
top 34129
MA 34119
HT 34111
ọ 34101
▁gởi 34095
▁370 34093
een 34090
cy 34085
▁Johnny 34080
▁SG 34078
ấp 34074
tạm 34059
▁1970 34057
BNN 34049
▁1.9 34041
▁IPO 34036
▁teo 34032
▁47, 34017
▁2003. 34013
ảng 34004
▁Bell 34000
▁Pique 33998
▁138 33991
EX 33988
"? 33977
Tổ 33977
SI 33975
▁Tur 33969
▁VỊ 33955
▁CAP 33947
▁ngửi 33934
NS 33928
▁1960 33925
▁play 33915
▁ì 33891
▁Robin 33888
Lâm 33886
▁trầu 33877
ã 33870
ưng 33855
DS 33838
Phòng 33827
▁lõm 33827
▁HH 33817
cách 33799
▁Thâm 33773
▁xoang 33772
▁BỔ 33759
3), 33744
▁Hỷ 33744
▁hèn 33744
-2012, 33733
vin 33722
▁phượng 33706
▁Gái 33695
akh 33692
▁muống 33692
▁tỳ 33684
ảo 33665
▁kali 33651
▁sửng 33646
▁Pi 33632
Thu 33631
▁rầy 33627
Bản 33618
-2011, 33617
iano 33617
▁Sy 33605
▁Cáp 33603
▁Ny 33600
/07 33595
▁nhỉnh 33580
RI 33575
Căn 33565
▁nao 33549
▁2021 33542
áng 33530
▁Patrick 33523
ved 33517
▁Yoo 33498
Ar 33493
▁ắp 33489
▁nom 33488
-27 33481
▁Voi 33469
▁Đập 33466
▁Cám 33465
▁Lukaku 33450
▁nhấc 33447
▁Thác 33446
▁Chàm 33441
▁KIỂM 33441
du 33436
▁Trích 33436
▁Viktor 33436
▁≤ 33435
wan 33429
▁Lucas 33428
▁Ku 33411
▁Ngoan 33411
▁850 33407
▁Rùa 33403
▁Nét 33400
▁Mak 33393
▁chần 33391
▁Đột 33383
▁dẳng 33379
▁Ron 33363
▁Gun 33356
đa 33353
▁selfie 33352
▁Kpop 33347
▁Ry 33338
▁Ohio 33331
▁RON 33331
▁XUẤT 33328
▁5-6 33326
▁cõng 33321
▁Hel 33307
▁0-0 33305
▁Khổng 33299
▁Hen 33295
▁Thaksin 33291
▁Cambridge 33282
Mọi 33281
thu 33278
▁xóc 33278
phát 33271
▁Lừa 33268
▁Panasonic 33266
▁fanpage 33254
eria 33238
/2002 33228
▁CCHC 33227
▁NGUYÊN 33219
▁(%) 33202
▁Queen 33200
▁gắp 33196
▁nôi 33196
ave 33183
inger 33178
▁119 33176
QG 33171
▁rầu 33164
▁NINH 33155
Và 33151
ster 33150
▁(34 33138
▁Sứ 33134
ose 33129
Ai 33125
▁Hamas 33118
▁thặng 33117
▁tru 33094
af 33085
Chương 33076
▁vo 33064
▁Mohammed 33062
▁TNCS 33052
▁nhũ 33048
iko 33016
▁380 33012
▁Te 33005
▁1984, 33000
▁Bra 32994
▁182 32985
▁râm 32981
▁vớ 32981
▁sò 32977
▁99, 32965
▁HĐ 32956
▁hẫng 32955
▁10/10 32949
▁(33 32945
SV 32925
▁2.7 32919
▁NT 32919
▁Snowden 32913
▁mào 32904
▁Zuckerberg 32879
▁Java 32874
▁55, 32872
▁ngạo 32871
▁THA 32862
úc 32855
▁mận 32846
▁Ray 32840
▁ĐOẠN 32837
▁rơ 32830
▁đỗi 32828
▁bưng 32826
▁High 32825
ats 32817
▁Say 32816
▁ổi 32806
▁KS 32804
▁Rang 32802
▁showroom 32802
▁1,00 32782
▁xui 32782
▁Giroud 32756
▁Town 32751
▁...... 32748
▁Phnom 32731
▁iPod 32727
▁bần 32724
▁131 32723
Bệnh 32718
ss 32714
▁ADB 32699
▁Lăk 32699
▁nham 32695
-2015 32691
▁Lẽ 32670
-2017 32659
▁LĨNH 32659
▁Trừ 32630
▁45% 32624
Kim 32610
▁Bad 32604
▁MỘT 32598
▁Andre 32588
-2014 32571
Cái 32569
pin 32560
▁BH 32557
▁ANH 32555
▁PTTH 32545
Kết 32539
▁won 32538
cũng 32531
▁Sur 32527
▁1970, 32521
ment 32513
thông 32509
▁phượt 32509
▁Davis 32500
olo 32473
▁51, 32462
▁status 32460
▁Best 32453
cher 32447
▁Mễ 32441
▁câm 32429
▁duệ 32419
lus 32416
▁Eun 32410
▁Kat 32409
▁EPA 32407
▁Potter 32406
▁0,6 32404
▁LA 32401
▁Dragon 32394
▁Win 32388
▁Tháo 32381
▁DOANH 32373
▁THÔN 32371
▁20/11 32366
▁Ok 32366
atch 32361
▁Ivan 32360
▁11% 32350
▁radio 32338
zh 32335
01, 32334
▁Golden 32324
350 32307
▁nhác 32303
▁33. 32301
▁XM 32295
zi 32291
▁Nào 32286
▁Gỗ 32266
▁Maya 32262
▁vãng 32260
ign 32247
▁nhớt 32245
▁BST 32241
-90 32234
▁Huyết 32232
▁63, 32223
▁Rom 32223
▁GIẤY 32219
▁Kiện 32215
▁Houston 32209
▁Bahrain 32193
▁hổi 32179
▁Lebanon 32177
-2011 32167
▁Mohamed 32167
▁Selena 32162
▁Sarah 32149
ute 32148
1), 32142
▁6.1 32125
▁350.000 32117
rô 32113
ops 32105
/12 32104
▁(0 32093
▁Ind 32091
▁Đạm 32090
BNNPTNT 32080
đóng 32078
lô 32063
▁Toshiba 32060
▁Meg 32055
▁10° 32053
Bảo 32049
▁Cairo 32046
oda 32044
▁sải 32041
ET 32024
thần 32024
asa 32021
ely 32019
▁Pennsylvania 32018
thi 32014
▁Vết 31994
cuộc 31985
▁Chỉnh 31974
▁Sab 31974
▁Roy 31973
▁ĐẠI 31972
▁Anderson 31971
4), 31969
▁420 31969
ầm 31947
▁chảnh 31930
▁10%. 31929
ago 31928
▁Bolton 31920
EL 31913
▁Ngõ 31910
▁0,05 31907
▁Dia 31894
▁Kennedy 31890
▁Etihad 31884
▁ngượng 31876
▁lươn 31875
lớp 31866
Cho 31857
▁178 31856
đội 31850
▁logistics 31843
▁9,5 31842
ênh 31839
ll 31832
▁Miley 31831
▁sp 31831
về 31828
▁collagen 31818
▁Trác 31816
▁Zhang 31816
▁sùi 31811
▁Khá 31802
▁Bat 31800
-2012 31798
▁Villarreal 31794
▁xịn 31789
▁hãn 31773
▁hon 31759
▁nhuần 31753
TE 31749
▁14% 31749
▁Dải 31749
uro 31736
ắng 31733
▁Xóm 31727
ví 31726
▁Yoon 31725
▁Modric 31723
CL 31719
▁sc 31715
/11), 31714
▁≥ 31713
▁rê 31709
ận 31707
Ấn 31700
▁Good 31699
▁Mah 31697
/199 31693
▁lìa 31671
▁ounce 31671
▁PL 31666
▁BB 31664
thay 31655
,000 31653
▁chội 31651
▁Karl 31647
Hình 31624
▁3,7 31619
▁nháo 31616
▁Nor 31603
▁lênh 31586
▁Night 31573
▁48, 31568
▁Khiếu 31557
▁Lã 31544
▁1.1. 31542
len 31526
▁sảy 31522
▁Va 31520
▁trồ 31517
ista 31512
▁0-1 31510
▁BR 31508
▁noi 31480
▁3,3 31479
▁hùm 31472
eal 31469
▁Rover 31464
-2016 31459
chạy 31457
ò 31455
▁BTV 31455
▁trệt 31450
tình 31449
▁BizLIVE 31449
▁tót 31447
▁2000. 31427
▁Tunisia 31410
▁ngớt 31410
Cách 31401
▁Mur 31401
▁Higuain 31395
▁lỵ 31389
▁31/3 31383
▁chưởng 31373
bin 31371
▁càn 31367
▁gym 31361
nơi 31352
ãn 31351
row 31347
▁1983, 31345
▁Morgan 31304
▁Samuel 31293
▁Ảrập 31289
▁Neo 31282
▁Siu 31281
▁Marseille 31274
▁logic 31274
▁Gas 31269
▁4,7 31268
well 31249
iaceae 31236
ym 31230
tt 31225
cấp 31224
ành 31209
▁1.2. 31208
fi 31196
▁Ev 31172
▁OPEC 31171
▁cent 31171
▁8.1 31170
▁tróc 31156
La 31154
▁MacBook 31147
▁vút 31127
▁Island 31124
▁35. 31112
mất 31103
▁BLĐ 31099
▁bành 31099
▁..... 31090
▁Dụng 31090
ias 31089
▁Berlusconi 31086
đang 31084
zy 31083
▁link 31083
▁Bỗng 31074
▁64, 31068
▁Bilbao 31058
ery 31049
▁3,8 31049
▁ekip 31042
▁cạp 31039
giai 31024
aud 31011
▁PHÂN 30992
▁Rain 30987
ào 30978
▁Dục 30974
▁TTXH 30972
▁PNJ 30968
▁Roman 30964
▁bon 30961
▁Sk 30957
▁KÝ 30954
▁Luiz 30950
▁Project 30945
▁liêm 30939
▁Port 30937
▁náu 30935
Phụ 30913
đến 30912
▁1987 30910
▁Ronaldinho 30909
▁thỏi 30909
▁Pe 30897
ỏ 30893
▁VCCI 30891
▁Somalia 30886
▁Michel 30882
▁ngợp 30878
▁sệt 30871
▁Hull 30867
▁buồm 30867
any 30843
▁Dưa 30831
▁Lab 30831
▁Pepe 30830
Gi 30823
▁br 30823
br 30821
▁Alibaba 30817
▁(36 30812
▁Bàu 30809
▁tằm 30804
▁Rica 30803
èn 30799
▁36. 30798
▁School 30793
▁Nhược 30790
▁Chốt 30789
àng 30782
òng 30774
▁34. 30773
Thụy 30770
,50 30765
▁Garcia 30763
▁17.000 30757
EVN 30756
▁diêm 30747
▁2/9 30737
▁$ 30735
RO 30730
▁hươu 30729
ơn 30727
▁1985 30722
▁vênh 30722
bất 30718
▁Miami 30705
▁Carolina 30697
ài 30693
▁31/10 30691
▁Som 30686
▁Kal 30683
▁Jeff 30678
BGDĐT 30677
▁Af 30655
▁Abdul 30654
▁Luông 30652
▁Corp 30648
Nguyên 30647
▁Tôm 30644
▁Dĩnh 30634
▁Matt 30624
▁Lát 30616
căn 30613
▁Rose 30613
▁TOÁN 30613
▁thệ 30613
▁ôxy 30611
lên 30603
▁Ghana 30602
▁Thang 30600
▁thỏm 30589
▁Vingroup 30586
▁DV 30581
▁2019, 30580
▁chan 30573
ime 30569
▁Brasil 30566
▁Marco 30566
▁Haiti 30561
▁tì 30547
▁ắc 30536
fer 30518
▁Cro 30512
▁loang 30510
▁Talent 30506
▁Jason 30501
ổ 30499
▁Marie 30490
▁nhún 30490
▁Deir 30487
▁2.200 30481
▁Ur 30480
▁Fidel 30467
GP 30462
▁0,01 30462
kinh 30450
▁158 30438
▁0,7 30431
▁dặt 30428
▁SC 30424
▁SMS 30419
▁Hor 30417
▁181 30413
-2010, 30407
▁Timor 30407
▁KN 30406
▁Baby 30399
▁com 30392
▁tràm 30383
▁Melbourne 30351
ồi 30334
TX 30329
▁Japan 30317
▁NC 30317
gen 30313
▁Xiaomi 30313
▁dẻ 30313
▁Thung 30283
▁vảy 30282
▁5.2 30276
▁biếm 30271
▁Spa 30267
▁CHÍ 30263
▁ar 30260
▁ĐĂNG 30258
▁15/11 30255
/5), 30250
7.000 30246
▁Oh 30242
▁Trộm 30238
▁2,0 30236
▁Ky 30234
▁20/10 30232
ye 30231
▁tễ 30229
▁phèn 30218
▁TNMT 30212
▁test 30211
▁Đẫy 30202
FF 30196
▁Bro 30196
▁Sel 30192
Nói 30191
ngoài 30182
▁Penh 30182
▁Sê 30180
▁9% 30177
ote 30159
▁Ju 30151
ạch 30146
▁Bentley 30131
▁Dừa 30131
ria 30129
Le 30125
burg 30125
010 30117
▁37. 30116
о 30114
▁Falcao 30099
ines 30086
▁SL 30075
www 30073
▁Sarkozy 30068
▁134 30063
▁1945 30061
ương 30058
▁Lửa 30041
▁(45 30039
▁PPP 30038
▁340 30033
inae 30027
▁Res 30023
GL 30021
▁vít 30021
▁2.000.000 30019
▁Án 30016
cu 29992
▁tã 29990
▁Istanbul 29970
▁Kuwait 29967
/2002/ 29965
▁142 29964
▁75, 29959
▁Hitler 29957
▁ải 29954
▁Dai 29933
uki 29912
▁Mun 29911
▁18% 29901
▁Trans 29897
/3), 29893
10, 29886
▁090 29886
ters 29881
▁bợ 29877
▁Khát 29868
▁VĐQG 29867
▁TĐC 29863
▁62, 29851
▁dance 29850
▁kV 29838
▁Emma 29834
/10), 29829
▁Fiorentina 29828
▁Che 29826
▁khóe 29824
ị 29822
gây 29819
▁MỨC 29814
▁sả 29807
▁vén 29804
▁Chạp 29797
▁Hall 29786
▁tuồng 29786
▁cứa 29784
▁nẻo 29783
▁rườm 29774
▁Shinawatra 29756
▁Lính 29750
Sáng 29749
▁ATP 29743
▁sài 29741
eco 29737
ón 29736
▁dụm 29734
▁Leverkusen 29732
▁Vải 29732
of 29731
▁Central 29731
▁Xoài 29727
▁144 29725
▁Niê 29724
▁héc 29721
Toàn 29720
ichi 29720
▁133 29713
▁13% 29710
▁151 29700
▁Khái 29698
▁Boy 29695
▁GPLX 29695
2), 29669
iver 29668
▁Yếu 29664
▁chông 29653
▁chocolate 29650
▁tép 29649
ther 29648
van 29645
osh 29637
Qua 29630
▁VIÊN 29619
▁Net 29613
▁McCain 29609
ü 29607
▁Call 29604
▁BVH 29596
▁5- 29595
▁ngớ 29592
▁MA 29575
▁kiểng 29569
▁xuyến 29564
WB 29555
▁Salah 29550
▁Ngự 29547
▁hydro 29545
ệ 29523
▁Shah 29513
▁Benjamin 29509
▁bô 29507
▁168 29506
320 29505
▁Kids 29492
diễn 29487
▁Rihanna 29483
▁Nhanh 29479
2- 29476
▁Capello 29470
▁nặn 29470
▁TRỢ 29466
▁ST 29458
▁College 29454
▁hời 29446
uri 29438
▁Paulo 29433
arm 29418
▁lồi 29418
▁mó 29418
àn 29409
▁Tech 29408
▁GI 29404
ux 29403
▁3/4 29402
▁Coca 29394
▁Chrome 29382
▁ISBN 29380
▁• 29380
▁Ống 29377
▁50%. 29375
độc 29372
▁15/10 29371
▁yểm 29370
▁SINH 29369
bia 29366
▁IELTS 29365
▁Thiệt 29363
▁KỲ 29354
▁NTD 29351
▁Cruz 29340
▁1979, 29339
▁152 29338
Trưởng 29329
sia 29326
▁DOJI 29315
▁4,3 29314
▁ĐỔI 29313
ks 29301
▁Sùng 29295
nat 29290
▁Les 29283
▁TKV 29282
▁đấng 29282
oun 29280
▁Liu 29278
▁General 29271
▁Reg 29270
▁nhỡ 29262
▁171 29256
1: 29238
Tên 29236
▁ĐỘ 29217
▁café 29187
▁SS 29183
ome 29179
3- 29166
umi 29166
▁52, 29165
▁Ven 29165
▁Dọc 29164
▁NGHỆ 29135
▁vali 29130
▁Loạt 29129
báo 29125
gmail 29125
▁129 29124
е 29117
▁Wigan 29110
▁Brian 29108
▁nhõm 29099
▁phình 29098
▁Lạm 29095
chất 29094
▁KP 29072
▁Mos 29069
Cả 29068
BLĐTBXH 29066
▁tỵ 29063
▁ĐẾN 29060
▁Abramovich 29059
▁Joon 29052
▁3-2 29048
▁gr 29040
ý 29030
▁10,5 29004
VC 28994
▁KBNN 28994
▁un 28993
▁Dạng 28992
▁Guinea 28987
▁61, 28985
bạn 28984
ín 28980
▁Nar 28979
▁Bali 28977
▁bềnh 28975
▁Ajax 28965
▁trớ 28963
▁Đán 28962
▁ắt 28955
▁MS 28954
▁XP 28949
5% 28937
▁Marketing 28936
▁khít 28925
▁hũ 28921
▁min 28913
▁phui 28911
Tài 28907
quan 28904
▁Ngàn 28902
▁Củng 28899
▁Ger 28898
▁sùng 28894
▁Universe 28889
▁Albert 28876
▁ói 28874
LT 28866
▁156 28866
▁phào 28866
▁Copa 28854
oto 28848
▁Francois 28848
rag 28835
▁20%. 28833
▁04. 28832
▁PS 28830
och 28823
▁GIAI 28816
tỷ 28804
▁(37 28798
▁CPH 28793
▁2030, 28792
ö 28788
▁Bối 28788
Chuyện 28783
▁Hạo 28783
etti 28773
▁CôngThương 28768
iet 28762
▁53, 28758
▁Ôi 28749
Mar 28741
▁HDBank 28716
▁oi 28715
▁Thảm 28707
▁nheo 28707
▁139 28705
▁Ngộ 28696
▁Trai 28694
"- 28693
▁Trứng 28690
▁201 28683
:00 28682
▁Brent 28676
▁THƯƠNG 28675
▁LẬP 28671
▁Dữ 28670
▁Mực 28660
kho 28651
▁tiếu 28642
.10. 28637
Là 28633
▁SNSD 28630
Mẫu 28627
▁Ob 28625
sc 28624
enz 28623
▁IC 28623
▁QG 28619
▁futsal 28617
▁Tảo 28610
đạt 28607
▁Yanukovych 28606
▁CM 28598
▁Thoát 28598
ật 28586
▁Girls 28574
▁huỳnh 28574
▁Sterling 28561
ân 28560
▁sẫm 28558
▁luống 28554
/4) 28543
▁Wilson 28539
AF 28534
app 28524
Xin 28517
▁198 28504
▁chầu 28504
ót 28500
▁chằm 28498
eva 28496
▁lằn 28486
▁Pad 28480
▁1900 28479
Làng 28476
▁@ 28473
▁gán 28468
▁kiệu 28465
Real 28462
▁Sochi 28461
▁Baltic 28459
▁137 28457
▁ngo 28456
▁143 28455
▁Fre 28454
▁bấp 28450
▁Anne 28447
▁Golf 28445
▁Oxford 28440
Chiếc 28439
▁PA 28436
▁Khâm 28435
▁nấp 28435
▁2002. 28430
▁Nani 28430
▁Đổ 28418
▁chừ 28417
▁Sm 28416
chị 28412
-2010 28402
▁Thiago 28398
▁12,5 28397
▁hanh 28396
Ca 28378
▁Latin 28378
▁bặm 28372
▁Kane 28369
▁Halloween 28364
▁mút 28363
▁Teen 28360
▁OLED 28353
Phương 28348
▁NHM 28347
rov 28340
▁4,2 28340
/2009. 28312
▁Dễ 28312
▁Ẩn 28296
▁rìa 28292
-1. 28289
▁Ngang 28284
▁4) 28276
▁suông 28271
▁nơ 28267
▁Vespa 28264
▁ABS 28262
▁vầy 28261
uma 28255
▁People 28252
▁16% 28251
▁Giác 28250
▁49, 28242
▁HÌNH 28232
ẹo 28230
Vào 28221
▁vừng 28214
▁Eva 28212
Royce 28208
▁ngợm 28196
▁LUẬT 28194
▁rít 28189
▁Cruise 28186
fe 28182
pan 28182
▁197 28181
▁Benfica 28179
▁nghiến 28172
▁Tiếc 28157
▁Pas 28153
+1 28151
▁Yeon 28151
▁chôm 28149
ọc 28147
▁Ul 28142
▁KCNA 28124
une 28123
▁ỉ 28107
▁Netanyahu 28098
▁xới 28098
▁TCT 28095
4- 28091
ates 28091
▁11/9 28084
▁lẳng 28082
tic 28072
▁Khoai 28071
▁Howard 28069
ạng 28066
▁Diamond 28057
▁Hamilton 28050
▁Fr 28046
▁Danny 28042
▁ngót 28042
▁Ash 28032
▁10: 28029
▁Grammy 28029
Viện 28028
anda 28027
▁Marcelo 28019
▁Chậm 28016
▁Arập 28014
▁ĐK 28013
ên 28003
rey 28001
▁3000 27998
▁LĐTBXH 27990
▁dùi 27990
▁RS 27984
▁Den 27980
cầu 27972
▁167 27971
▁lố 27971
▁Mày 27970
▁Jonathan 27969
▁nhảnh 27965
▁Frankfurt 27947
▁HPG 27946
▁bở 27944
online 27936
zo 27935
▁17% 27935
▁Der 27935
▁el 27930
máy 27927
▁Mont 27921
rai 27917
▁Loa 27914
▁Suk 27914
▁oai 27912
una 27895
▁gao 27889
▁lẽo 27886
▁Dur 27885
▁Nương 27881
phòng 27876
ander 27870
▁Chanel 27868
news 27846
▁100%. 27844
▁from 27844
▁Insider 27839
▁sub 27839
▁Yo 27819
▁256 27817
▁Thua 27809
▁IT 27800
▁Junior 27795
▁Sor 27790
DP 27787
9), 27780
ời 27780
Vũ 27777
▁153 27747
▁single 27747
phi 27746
▁Tráng 27737
ầy 27733
▁LĐTB 27730
▁ngáy 27728
▁Hamburg 27716
▁giẫm 27701
▁Hilton 27694
▁Key 27692
opter 27671
/4), 27670
▁Nối 27667
/7), 27665
▁tậu 27664
▁GP 27658
▁180.000 27655
over 27653
▁đóa 27650
▁chồn 27648
▁Nicole 27646
pl 27641
▁Buffon 27630
▁Bút 27618
▁ETF 27614
▁Fire 27613
50. 27609
▁nín 27606
sil 27597
▁ngẩng 27571
▁(38 27568
▁USA 27562
▁GCN 27561
èo 27560
▁Girl 27551
▁Bern 27546
▁Shaw 27535
ement 27532
ốp 27524
▁Tủ 27519
▁Bol 27517
▁séc 27515
▁Jon 27514
▁Week 27513
▁NĐ 27496
Điện 27495
▁Mác 27480
Tam 27476
▁Lawrence 27468
▁Hố 27464
icus 27451
/2007, 27450
ốn 27450
▁Bể 27445
Bước 27438
▁VPCP 27438
▁Mù 27436
thủ 27432
▁TI 27427
▁cỏi 27427
▁Cấn 27423
▁chỉn 27415
▁mị 27410
▁Philip 27409
▁5-10 27400
▁(5) 27391
▁Innova 27368
▁Chà 27361
etta 27350
bảo 27341
▁héo 27333
▁Mali 27332
iện 27323
▁Kun 27321
▁TNXP 27302
▁Hắc 27301
▁Simeone 27294
/3) 27292
▁CTV 27290
▁Vé 27288
▁Card 27287
▁nickname 27285
▁Jamie 27280
ắn 27273
▁thảy 27272
▁chày 27269
▁Perry 27252
▁Đác 27251
▁nick 27249
10. 27245
▁BCĐ 27245
▁Edition 27239
▁Nat 27234
▁cừ 27234
▁tennis 27230
▁THADS 27225
▁(*) 27221
▁hoá 27215
▁7: 27212
▁ri 27205
erson 27198
xê 27197
Biên 27187
cp 27182
-29 27172
▁Master 27168
▁Joo 27164
rit 27159
▁ôi 27145
ãi 27143
ột 27142
▁Ligue 27142
▁Vàm 27142
▁CAO 27136
iri 27133
ọt 27127
▁phồn 27123
▁Chuối 27121
▁xo 27115
Phần 27108
▁Lindsay 27107
chính 27106
▁Bolivia 27098
rus 27095
trung 27091
▁Miranda 27077
▁Bkav 27075
ừng 27073
▁Khủng 27073
-4. 27048
-2018 27042
▁Bồn 27042
▁Cur 27042
Ngọc 27041
▁3.3 27029
IMF 27028
▁100, 27027
gy 27016
▁Vit 27016
▁Sing 27010
▁KHU 27008
▁Huyên 27001
▁Ribery 27000
▁KCB 26993
aul 26978
-60 26974
▁Rút 26974
RS 26933
▁Lắp 26933
▁Laurent 26927
ký 26922
▁MBH 26918
chết 26914
▁hẻo 26906
▁65, 26904
а 26897
ũ 26892
bon 26888
▁38. 26887
/6), 26880
▁Đèo 26878
▁Georgia 26873
▁AR 26859
-00 26855
▁Vic 26855
▁Ấp 26855
▁KDC 26852
▁car 26850
▁Chiếu 26834
▁KKT 26829
▁Kop 26826
▁Roland 26824
▁1984 26810
▁Thăm 26803
-5. 26800
▁5) 26799
▁bít 26799
▁PHẦN 26786
▁sán 26775
/5) 26771
▁Ưng 26770
ender 26769
▁BTS 26767
▁162 26766
▁Kur 26758
phone 26733
▁mậu 26733
▁Mừng 26729
chồng 26725
▁SUNG 26725
Quỷ 26720
▁NHỮNG 26719
▁Honduras 26717
▁Photo 26713
▁đày 26702
KL 26699
▁1990. 26693
▁520 26691
▁SU 26679
eon 26670
book 26663
▁sh 26662
Tập 26653
▁Chiềng 26652
ester 26648
VND 26632
HP 26628
▁0-2 26627
ition 26626
đô 26622
sẽ 26620
▁(60 26619
dong 26613
cá 26609
▁290 26608
▁Hãn 26608
▁Eden 26594
▁nt 26592
,.. 26587
own 26587
LB 26584
▁Martial 26584
▁Ich 26581
▁4.5 26578
▁Kam 26577
▁uyển 26563
▁đút 26560
▁Cy 26548
▁Illinois 26546
▁Keangnam 26537
▁57, 26536
ray 26527
GC 26524
▁Pasteur 26521
▁54, 26519
▁XH 26517
▁7.1 26515
.9 26510
▁CÁO 26510
OT 26503
▁Link 26499
▁5.5 26497
и 26491
Ngân 26489
iền 26488
▁Pap 26476
▁Bre 26475
▁Alpha 26473
▁Paraguay 26473
▁Allen 26468
▁Flappy 26465
PM 26463
▁LPG 26451
▁vắcxin 26451
LC 26445
▁Stone 26443
right 26440
ói 26440
▁Taxi 26435
▁146 26428
▁5-7 26420
▁Francis 26420
▁LH 26412
▁Owen 26410
ồ 26408
▁LTE 26404
▁nhá 26394
alo 26390
/8), 26380
▁3.200 26377
▁VNA 26375
▁Shop 26374
nước 26368
GDP 26365
▁5.500 26365
▁KTS 26365
ä 26364
Đừng 26362
ố 26361
▁Cameroon 26353
/10) 26348
▁179 26348
▁203 26348
je 26335
▁Novak 26325
▁1972, 26324
▁Miller 26323
750 26308
▁148 26302
▁Jane 26301
▁Blade 26300
▁(42 26299
▁PCTN 26292
▁1960, 26283
▁147 26271
▁Diana 26268
Video 26267
Viet 26267
▁Cuông 26265
-28 26260
▁Cavani 26257
00, 26252
▁chuốt 26252
▁CÓ 26238
▁nực 26237
▁my 26231
▁Chùm 26221
▁Ren 26221
▁Giẽ 26220
▁Nathan 26212
▁Norwich 26209
ẩu 26207
gar 26191
▁Om 26191
▁éo 26180
▁Mall 26178
▁Tillerson 26173
▁30%. 26172
▁lư 26171
▁dỗi 26168
▁Vedan 26167
nes 26163
▁Lewis 26155
▁Today 26145
orm 26142
▁BGK 26142
VH 26131
▁sấm 26127
phê 26117
▁Wood 26117
Hàng 26111
▁hat 26108
-2. 26107
pi 26097
▁Michigan 26096
▁Vidic 26095
▁1981, 26093
vào 26088
VPCP 26087
▁soái 26084
vùng 26083
▁VPBank 26082
▁CSHS 26081
eck 26074
▁21° 26072
▁lim 26068
▁Cel 26062
bu 26060
ắt 26059
▁390 26059
▁SXH 26054
RE 26053
▁Rửa 26051
▁Flash 26047
▁149 26044
GA 26030
đạo 26030
▁Đạ 26028
▁26/11/2003; 26020
▁Christopher 26011
▁5,2 26002
▁1976, 25996
LI 25995
▁East 25995
▁quáng 25995
▁Leon 25989
▁he 25986
▁Tày 25985
▁rèm 25982
▁sụn 25980
▁Dơi 25978
▁(196 25975
▁Warren 25974
▁Petersburg 25966
ẩn 25965
/2001/ 25963
▁(04) 25950
▁vắn 25948
▁diva 25945
FI 25939
aris 25938
▁Pre 25930
ille 25928
Chim 25924
▁(39 25920
Quân 25918
Ho 25911
pu 25911
▁núp 25902
Á 25901
▁Birmingham 25899
rab 25894
quốc 25893
▁SAR 25893
sống 25891
ày 25882
▁Columbia 25880
▁Martinez 25880
/2001 25879
▁IM 25874
▁hun 25871
▁176 25862
▁570 25851
▁OceanBank 25842
▁4-1 25834
▁Măng 25833
▁thẹn 25833
HA 25831
sch 25814
▁1979 25812
▁Vỏ 25812
iêu 25809
▁540 25803
▁Oppo 25802
-198 25793
▁Macau 25793
/6) 25790
▁39. 25788
20.000 25787
▁22.000 25783
▁163 25761
▁2.400 25759
Hiệp 25755
san 25746
▁ùa 25741
▁đằm 25733
▁Ocean 25723
-10. 25720
▁Richter 25718
▁Rad 25716
▁Saddam 25716
▁gờm 25711
▁thót 25695
▁Khẩn 25692
▁2.9 25685
▁VNCB 25677
▁nhọ 25677
văn 25676
▁mail 25676
▁VIB 25673
▁0,25 25672
▁10%, 25672
▁Nasri 25671
Pro 25665
▁Gai 25654
met 25653
▁Evra 25643
▁Billboard 25638
/12/2014 25636
▁nghén 25634
▁15/12 25630
▁Navibank 25630
▁nano 25630
▁óng 25629
▁1978, 25627
▁McLaren 25625
▁ad 25623
Hậu 25621
▁24/7 25617
ẹt 25613
▁GIÁO 25609
▁BẮC 25601
▁điếc 25600
▁SƠN 25594
▁56, 25585
bar 25572
▁15/5 25568
atum 25557
▁Hezbollah 25557
▁TBN 25555
/11) 25552
ood 25552
▁Khổ 25549
alia 25548
▁luồn 25544
▁BA 25543
▁Rex 25543
▁ối 25528
KV 25525
▁Micro 25524
▁hột 25523
▁DO 25514
▁Khoái 25510
▁Minsk 25510
cũ 25508
Hành 25507
▁God 25506
ụ 25496
▁CPU 25492
▁Nhựa 25485
▁hụi 25485
▁Kai 25483
ủng 25481
▁Trông 25476
▁bết 25475
fl 25470
▁Chavez 25465
nhưng 25461
▁es 25460
-13 25459
ước 25456
▁Già 25445
▁TÊN 25443
▁Nak 25438
rất 25437
▁Ôtô 25436
▁Bun 25420
▁Scholes 25409
▁DUYỆT 25406
▁Gio 25406
amine 25398
▁Đồi 25397
▁team 25395
mon 25394
▁mích 25391
idi 25389
▁hỉnh 25382
BTTTT 25380
▁Edge 25380
▁TTATGT 25380
▁2; 25375
jan 25374
▁First 25374
▁Nhiêu 25373
iệt 25370
▁India 25362
▁950 25356
▁khấn 25356
▁Sapa 25352
▁đoái 25350
▁KX 25349
▁HOÀNG 25347
ấm 25341
▁2.3. 25341
▁Walcott 25338
▁hắc 25328
▁Chai 25323
▁Đính 25323
▁rúng 25322
▁Madonna 25316
▁13,5 25315
▁chang 25313
▁lẻn 25313
▁Bruno 25312
▁Eurozone 25312
vốn 25297
▁Tra 25292
▁4,8 25291
Tàu 25284
▁AMG 25281
▁Tripoli 25276
▁UPCoM 25266
Hy 25259
▁Blackburn 25259
▁Tung 25253
▁ac 25253
▁CHUẨN 25247
xa 25246
▁2001. 25246
▁metro 25242
Đơn 25240
Nguoiduatin 25238
jin 25238
▁Smartphone 25219
▁1950 25218
▁Kir 25218
▁Thách 25213
▁2011-2015 25209
ớ 25208
▁Kroos 25208
ẻ 25188
tơ 25187
▁vồng 25182
▁Vâng 25171
▁Civic 25165
▁Nhịp 25158
Danh 25157
yahoo 25148
▁ngác 25144
▁2030. 25140
▁Venus 25136
▁Ann 25132
tôi 25126
▁Airways 25123
▁4.4 25122
▁164 25117
SS 25110
trick 25107
▁trụi 25105
[ 25102
ớt 25101
▁Bỉnh 25101
▁Fair 25094
▁REE 25093
▁Anton 25087
▁quặc 25083
▁dượng 25080
▁MẪU 25074
▁VietGAP 25073
▁Ericsson 25064
▁Nhãn 25063
▁toái 25059
▁Rodrigo 25055
▁Maduro 25035
ặc 25032
▁DL 25028
▁Arc 25027
ony 25024
▁Griezmann 25017
▁440 25015
▁161 25007
VietNamNet 25005
▁loan 25001
▁Raqqa 24996
MW 24993
▁Malaga 24990
ục 24989
▁mọng 24986
▁PHÊ 24983
BKHCN 24955
▁30/12 24953
/9), 24942
▁2014; 24928
▁LOẠI 24928
▁2.300 24927
▁QUẢ 24926
nd 24915
▁777 24914
▁xén 24907
▁Jr 24905
▁Khâu 24903
▁Korea 24899
▁Chả 24896
nguồn 24895
▁lác 24895
▁4-0 24887
:" 24878
▁Mátxcơva 24872
chuyên 24864
▁LONG 24864
▁hóm 24860
▁Hanh 24856
▁Ross 24820
▁Nhỏ 24818
▁nhuệ 24807
/12), 24800
▁Road 24797
▁chấu 24793
▁nỡ 24779
▁1974, 24776
phim 24774
▁chĩa 24773
....... 24768
▁(+0, 24762
Ý 24753
▁510 24751
▁DK 24743
▁Rod 24740
▁càphê 24740
Bến 24726
▁lỏi 24725
phiên 24724
▁AB 24715
õ 24712
▁búi 24710
▁Dũ 24708
moon 24706
▁Health 24705
▁thò 24705
▁1998. 24699
▁2,9 24686
▁10.1 24680
▁Basel 24680
usa 24678
▁130.000 24678
opsis 24677
ence 24674
ội 24674
▁hu 24672
ộ 24669
▁xệ 24664
▁richter 24660
▁Trailer 24653
-2018, 24647
-197 24646
Yên 24643
▁159 24637
▁nhếch 24635
▁Toronto 24629
▁chạc 24619
▁Aut 24614
▁nhút 24612
▁Motors 24610
-52 24604
BD 24603
▁Bab 24600
▁Yaya 24598
ody 24597
▁Duyệt 24597
ồn 24593
▁ĐÀO 24586
▁knock 24582
▁Not 24572
Quan 24569
▁Evans 24565
▁5.0 24564
▁Javier 24564
▁it 24560
▁TD 24545
▁Mis 24542
▁poster 24542
Đầu 24537
▁lạy 24536
▁“ 24533
▁liếc 24532
▁Ultra 24527
▁Jesus 24526
▁Tề 24526
▁Fabio 24525
▁Vươn 24524
▁hybrid 24524
▁Chiết 24523
▁Earth 24519
▁Goetz 24519
-11. 24518
▁LÂM 24517
▁Nik 24516
▁Thận 24514
▁Zimbabwe 24509
rol 24504
▁Nikkei 24497
▁193 24495
▁TVB 24492
▁25/5 24483
CD 24481
lam 24481
SM 24480
▁Chỗ 24479
▁Khỏe 24478
▁Rossi 24478
IP 24477
▁Fellaini 24470
sản 24467
▁Athens 24464
▁UBTVQH 24452
▁Xinhua 24452
▁Osaka 24449
▁mỉa 24449
Phải 24448
kẻ 24445
éc 24445
▁TTVN 24440
▁Nhiễm 24425
ict 24421
TK 24420
▁Ngựa 24420
úng 24419
▁chư 24418
▁XVI 24417
▁HƯỚNG 24415
▁Ivanovic 24412
▁cốm 24410
tis 24406
▁Carrick 24406
mẫu 24404
▁Raj 24402
SP 24399
▁gameshow 24397
▁Massachusetts 24394
▁Colorado 24390
▁Váy 24390
▁Singh 24388
ẽ 24387
▁Phantom 24385
-2009, 24379
▁Lincoln 24376
▁Kor 24373
▁Phe 24370
▁NBC 24369
-6. 24361
▁Moto 24360
▁Bak 24352
150 24348
▁hú 24335
▁nhấm 24335
▁Luke 24325
WHO 24323
▁Vinpearl 24316
▁4- 24311
2). 24305
▁1080 24302
▁Cười 24302
▁Irina 24297
▁Jen 24288
▁99% 24287
▁6-7 24286
▁NĂNG 24275
▁Robot 24271
ưu 24270
▁Bolero 24268
▁30/11 24262
hạng 24247
▁vẩy 24244
▁nai 24243
▁THX 24231
ùi 24228
▁Mikhail 24224
.201 24223
▁rẩy 24218
▁Fast 24216
▁Welbeck 24208
▁sẩy 24207
Tháng 24205
▁dế 24200
▁205 24199
▁Masan 24199
tham 24196
imex 24194
▁cóp 24194
▁15/4 24193
▁lem 24192
▁Thuyên 24190
▁Mỗ 24186
▁mo 24186
▁thiều 24186
▁titan 24175
▁Kardashian 24156
NATO 24150
ove 24149
▁tròng 24147
▁22% 24146
▁boong 24146
hợp 24143
▁Sociedad 24143
nhóm 24132
▁hực 24129
▁67, 24127
▁Khoan 24126
sao 24124
aga 24121
▁560 24120
▁Toni 24119
▁1981 24118
▁Kéo 24111
inho 24109
▁oải 24107
▁Okinawa 24104
UN 24101
▁58, 24096
▁nhảm 24096
rập 24095
▁tuộc 24093
/7) 24092
khách 24092
▁Sergey 24091
-12, 24085
-7. 24082
▁vựa 24077
bl 24067
▁Ball 24067
rad 24064
▁Omar 24057
ưa 24055
Chelsea 24048
▁Xinh 24048
▁Walker 24039
oon 24037
▁Hernandez 24032
▁Trống 24028
▁êkíp 24027
▁Thước 24026
-196 24017
▁CHỨNG 24014
Lý 24012
▁4,6 24003
▁CL 24000
▁Sub 23999
▁TẠO 23996
▁lả 23995
-31 23994
▁Incheon 23994
▁zoom 23994
▁Thiệp 23989
▁bích 23987
▁Hài 23979
▁Ja 23979
▁Ana 23975
8), 23973
▁Thuê 23971
▁512 23962
inn 23961
▁Cop 23960
▁ngh 23960
éo 23956
▁rông 23952
▁Xích 23951
▁xỏ 23948
ifolia 23947
▁Schweinsteiger 23947
7), 23943
▁Yan 23942
▁Mịch 23940
▁Op 23928
▁20%, 23923
▁trĩu 23922
giao 23920
▁Thuộc 23919
▁chít 23917
Xuân 23915
▁Sneijder 23914
▁Gabriel 23911
▁Sharp 23910
▁157 23907
▁Style 23907
BI 23902
▁chùi 23896
bố 23894
Vậy 23891
▁chóc 23889
▁Đợi 23881
vé 23872
▁Beach 23871
▁Susan 23865
mp 23857
ính 23857
▁niu 23856
▁cút 23847
▁thúng 23831
▁vẹo 23830
▁lóng 23829
▁axít 23821
▁Mus 23816
▁DỊCH 23799
80.000 23794
use 23792
,5%/ 23784
▁Fer 23784
▁Exciter 23781
/2000 23776
KD 23776
hu 23775
arb 23764
▁casting 23762
▁QPPL 23753
▁rapper 23751
▁xy 23748
▁UBMTTQ 23742
▁lịm 23742
▁Đĩa 23741
▁trỏ 23735
▁Katy 23727
▁Gắn 23726
▁Trục 23726
chy 23725
▁Cos 23723
▁XL 23721
kết 23719
▁Dạo 23719
▁CSB 23717
ủ 23712
▁dìm 23711
star 23705
▁16,5 23700
▁Chết 23700
▁Deportivo 23700
iêng 23698
▁bốt 23697
▁nện 23697
▁10-15 23689
▁Cò 23685
▁Tran 23685
▁ĐHQG 23685
▁River 23681
đất 23678
▁HẠN 23678
▁Nghé 23677
cus 23675
▁6.2 23673
▁Vios 23671
▁154 23668
▁Igor 23663
▁Lewandowski 23658
▁15/3 23653
6), 23649
▁tuồn 23641
▁vát 23638
▁Kê 23635
▁Nu 23628
▁diết 23628
▁CTG 23626
▁85, 23621
▁hecta 23620
▁Pierre 23618
▁hiu 23617
▁thụt 23616
▁per 23612
▁Emmanuel 23607
chân 23604
▁Fort 23600
▁kha 23597
▁bả 23589
▁TIẾP 23585
▁BC 23582
cò 23577
▁Julia 23575
▁1983 23574
tập 23569
▁Kỵ 23567
▁Sn 23566
Đài 23560
▁VÀO 23555
SGGP 23548
lat 23544
đá 23544
▁sạm 23544
▁AV 23534
▁táp 23526
/5/2014 23523
▁not 23523
▁Kyodo 23520
▁Sturridge 23520
ld 23519
▁Char 23514
ington 23499
▁DT 23498
▁Lúa 23490
%). 23489
Malaysia 23476
VI 23474
▁215 23474
dù 23473
▁Ibra 23472
cel 23464
vai 23456
▁1/500 23451
▁ngẩm 23446
▁AVG 23444
▁Nén 23444
▁Dưỡng 23440
▁bỡ 23431
▁Var 23429
▁nãy 23421
Ô 23420
▁Nov 23420
▁-- 23415
▁Mol 23415
▁mửa 23411
▁Tàng 23392
▁Rời 23391
gin 23388
▁870 23382
▁cật 23376
.1, 23372
EF 23367
▁PCI 23367
▁thong 23364
▁Giày 23363
▁Campbell 23360
▁VC 23360
▁Gran 23359
▁Soc 23358
▁0,9 23356
▁giễu 23343
▁TCty 23342
▁Katie 23331
Bị 23326
▁THÁNG 23323
ánh 23312
▁Hotel 23306
▁rocket 23302
▁Cạn 23300
▁body 23300
▁1968 23298
▁BHL 23279
▁UBKT 23271
▁ĐIỆN 23263
▁Ir 23253
▁văcxin 23253
đứng 23251
ken 23249
Kỳ 23246
▁1999. 23243
▁PCLB 23240
cos 23231
▁Súng 23225
▁trụy 23224
▁Ins 23222
▁dơi 23215
▁Ahmad 23213
▁hotgirl 23213
Kiên 23210
▁12/12 23209
▁ngai 23208
▁310 23201
▁66, 23200
▁Túi 23194
▁mướp 23193
▁29/11 23188
cậu 23187
▁1973, 23184
60.000 23183
▁Vở 23178
▁Bọ 23177
ứa 23176
Đêm 23175
Cậu 23174
sáng 23173
trận 23170
LD 23169
▁Dun 23166
▁doping 23166
▁XV 23162
▁Ahmed 23161
MI 23156
▁Marvel 23150
▁Mic 23149
▁Espanyol 23147
▁Morata 23144
▁giùm 23143
err 23138
▁Elly 23137
▁CII 23129
ôi 23128
▁ThS 23125
▁174 23120
▁PVX 23116
▁Xà 23107
ấu 23098
▁HI 23097
▁Mod 23096
▁Ngăn 23095
▁Visa 23095
ất 23094
▁ĐIỂM 23094
dr 23093
▁SGGP 23088
▁VEC 23087
ms 23086
▁76, 23086
▁Great 23086
▁15/7 23075
▁Nhấn 23075
▁XHCN 23075
itch 23068
▁XE 23060
▁rụt 23058
▁Cáo 23048
▁Moore 23044
▁EUR 23043
▁(43 23041
▁3.4 23041
▁CNC 23038
▁59, 23037
▁fans 23036
▁Venice 23035
▁2013; 23027
▁Isaac 23027
trang 23026
Hương 23022
iat 23018
▁4.3 23018
▁DNNVV 23006
ations 22996
▁1968, 22988
ía 22987
▁177 22980
▁Nasdaq 22980
▁Trạng 22976
▁Us 22972
▁Bond 22964
eet 22959
▁gỏi 22956
▁Courtois 22953
vo 22949
bỏ 22945
▁630 22943
òn 22941
mel 22940
cer 22934
▁Of 22934
▁5,7 22932
▁BVĐK 22930
▁Nô 22922
▁Luc 22914
▁ngầu 22904
▁Nhuệ 22898
▁2.700 22893
▁sú 22884
ám 22881
▁Limited 22881
ằn 22878
▁Rodgers 22878
▁tía 22865
▁LB 22862
hye 22850
▁giời 22850
▁comp 22846
▁Dài 22845
▁1977, 22834
▁Financial 22832
tech 22831
▁chầm 22827
▁— 22824
ặt 22820
FS 22817
win 22813
▁7.500 22811
▁Aviv 22809
▁Tèo 22807
▁Lọc 22806
▁Travel 22805
▁cữu 22803
▁Chấm 22800
▁bủa 22800
dân 22797
▁gẫy 22797
▁Brand 22792
▁Amy 22788
ves 22787
▁LI 22777
quang 22772
▁quẹt 22772
tài 22767
▁Fab 22767
5/ 22765
▁Wal 22763
▁15/6 22760
đều 22759
EP 22758
▁911 22755
ỏng 22750
▁Asiad 22749
AV 22747
Huyện 22747
chiêu 22745
▁51% 22742
▁mụ 22742
▁par 22742
▁LÊ 22737
TPP 22735
▁3,1 22728
▁Futsal 22726
▁0,5% 22722
▁xiêu 22715
▁Armenia 22714
Luật 22709
▁11,5 22705
▁chạnh 22700
▁11/11 22698
▁love 22697
▁640 22692
▁Dani 22687
▁TMĐT 22686
▁KHOẢN 22685
▁au 22684
quả 22683
▁72, 22679
5), 22669
viết 22669
▁Ye 22668
▁McDonald 22667
▁Nag 22666
HLV 22657
▁vằn 22657
▁đùm 22656
▁nọc 22643
20, 22640
▁dát 22638
▁xúi 22638
ơi 22629
▁460 22629
▁ngưởng 22625
▁6.500 22623
▁TTCP 22622
45, 22621
▁KHÔNG 22618
ằng 22611
▁TANDTC 22611
▁lình 22596
▁Chrys 22595
▁Aquino 22594
▁15/8 22593
chu 22592
Qu 22578
▁(41 22564
▁Holdings 22552
▁Spears 22552
▁HNXIndex 22546
▁lấm 22545
Arsenal 22543
thiên 22536
▁rịch 22524
▁Buồn 22522
▁30/10 22516
/196 22515
Hồng 22515
Trang 22511
ison 22510
las 22505
▁Non 22488
▁Tịch 22485
can 22484
▁41. 22483
▁Alaska 22479
▁rap 22475
ắm 22464
▁3.1. 22464
iva 22462
▁bitcoin 22461
▁hạc 22459
iro 22453
▁DỤC 22451
▁14,5 22445
tre 22442
▁239 22437
▁Abdullah 22437
Mùa 22436
uan 22426
▁kẻo 22424
BM 22423
kỳ 22423
▁uranium 22423
▁7-8 22414
▁sứt 22412
▁Khẳng 22411
▁Bh 22410
▁Nham 22409
▁Wolfsburg 22409
-1, 22408
▁Rô 22407
▁5000 22404
▁Nấm 22403
® 22397
unt 22393
▁75.000 22389
▁172 22387
Cà 22382
") 22379
ven 22379
▁31/8 22376
▁ganh 22373
▁Gạc 22371
▁báng 22364
▁Coutinho 22363
▁3.8 22357
▁Dav 22354
▁Udinese 22352
▁Kyung 22351
/8) 22341
red 22335
▁Hills 22330
▁RA 22330
▁Est 22326
▁cp 22320
▁Sand 22316
lăng 22315
▁Estonia 22314
▁rè 22310
▁AG 22309
▁off 22307
▁2010: 22302
▁Liveshow 22302
▁BHTN 22296
▁CẦU 22290
▁Nổ 22282
▁Od 22277
▁Azerbaijan 22272
-9. 22266
1000 22263
▁LP 22262
Bố 22254
▁Ích 22253
▁Điểu 22247
▁(01 22245
▁ITA 22242
chai 22240
▁Your 22235
▁vánh 22232
als 22225
▁Fortuner 22221
ể 22219
▁40. 22219
▁bét 22218
▁quàng 22218
▁Book 22213
▁phích 22212
▁Opera 22202
▁1978 22181
▁Nhậm 22173
▁470 22171
▁Hạc 22167
▁Tá 22166
▁Vẽ 22159
▁19/5 22158
▁QNg 22155
Tiếp 22148
▁cl 22147
▁Khói 22145
dan 22142
▁45. 22142
▁Lip 22138
▁42. 22137
ipp 22135
1.000 22134
▁ố 22127
Singapore 22126
▁lảng 22120
fu 22119
thương 22119
▁Ramsey 22119
▁Sum 22119
▁Beauty 22116
▁ngải 22115
▁Vel 22103
▁KHẨU 22101
▁Diệc 22099
▁gặm 22090
ĐB 22072
hộp 22071
alli 22070
▁2.100 22067
iev 22064
Triều 22059
▁Ya 22058
Câu 22056
▁hửng 22056
nói 22050
▁sanh 22050
▁Abbott 22047
PR 22040
Yêu 22040
Nhìn 22037
aman 22029
cl 22027
▁140.000 22026
▁Hoang 22022
▁166 22020
▁lốt 22016
▁SI 22013
aus 22011
▁Dal 22011
▁sần 22008
▁Tesla 22005
ản 22004
▁Set 22004
▁Weibo 22001
▁Nóng 22000
▁1/ 21997
▁Harper 21996
▁Hoắc 21992
▁Gang 21991
▁She 21987
▁Bac 21986
ọng 21984
▁Pirlo 21975
▁mả 21967
▁Mát 21958
▁room 21956
▁Samson 21954
Quyết 21946
▁Maritime 21946
▁Pay 21946
▁Dem 21943
ated 21939
▁Giadinh 21934
▁Sốt 21933
▁Petr 21932
▁Bull 21929
phía 21925
▁phốt 21925
▁430 21923
▁Bung 21923
ĐK 21917
erm 21916
▁900.000 21914
▁Matthew 21914
▁Chuỗi 21900
▁há 21899
▁Gro 21898
▁IN 21896
▁blue 21896
▁389 21895
▁Miu 21895
▁Ker 21893
▁Bruce 21889
▁khiêng 21888
▁2.800 21887
cia 21886
FDI 21885
tra 21885
▁Let 21878
iki 21876
▁TG 21872
▁Sul 21858
▁Valdes 21857
▁Yun 21854
▁8: 21848
▁Kyrgyzstan 21843
▁Hand 21840
hip 21836
▁phiệt 21835
▁Neuer 21833
ique 21831
▁Ranger 21828
Đề 21827
▁Trich 21825
▁NA 21823
▁3.2. 21821
▁Oezil 21817
ến 21816
▁Lisa 21812
▁Bạo 21810
▁SBS 21808
▁Tồn 21808
▁VẬN 21807
▁5,6 21799
▁Kabul 21796
▁Yi 21796
▁tiệt 21796
ẫm 21793
▁0.5 21786
▁miến 21786
òm 21785
Điếu 21785
aut 21781
▁VD 21779
▁50%, 21776
▁15/9 21772
▁Pak 21770
▁tuôn 21769
avi 21768
▁Yoga 21752
▁Cienco 21740
▁lõng 21735
▁beta 21726
▁BỊ 21721
GI 21716
▁Muller 21716
▁huân 21704
▁nứa 21699
quá 21695
▁(2, 21694
▁ngáo 21688
▁Hassan 21685
▁10/12 21682
▁Firefox 21680
▁Harris 21669
▁suyễn 21667
▁Kèm 21666
▁tráo 21665
▁Dom 21652
COM 21643
uta 21640
ilus 21634
▁op 21634
▁vẩn 21631
▁# 21622
zer 21620
▁Nikon 21618
BL 21616
▁Guam 21616
▁Doan 21614
doanh 21613
▁450.000 21613
ST 21608
▁Lức 21608
lon 21604
SG 21601
▁Dzeko 21597
▁Tớ 21595
▁........ 21594
ẫn 21592
▁poly 21592
▁Bul 21590
▁Julian 21590
▁DTTS 21578
ews 21576
rút 21575
▁1.00 21571
▁Cooper 21570
▁Fin 21569
▁Mãn 21569
▁SO 21569
▁name 21565
▁gù 21563
▁TTTM 21562
▁55% 21559
▁Arizona 21559
▁1.900 21558
nan 21557
▁Minnesota 21554
▁that 21554
▁Kas 21550
Đi 21548
oshi 21546
▁5,8 21546
▁Ass 21538
▁Chun 21535
▁Chó 21534
eland 21531
▁71, 21529
▁Ever 21529
▁điểu 21528
Giờ 21527
▁160.000 21526
▁Diêm 21526
tông 21524
▁tý 21524
▁11: 21521
▁Stewart 21516
▁3.6 21513
▁nghêu 21512
▁Dành 21509
ết 21507
▁Pôn 21507
abi 21506
▁Kristen 21504
mit 21503
▁Cesc 21500
nhất 21496
▁banh 21496
▁HDMI 21491
▁Kay 21486
ble 21479
-8. 21474
▁Him 21472
▁TU 21452
▁Dam 21436
▁Ngủ 21436
▁10/3 21432
▁Bế 21432
▁Tray 21430
▁chẻ 21430
vàng 21427
▁jean 21422
▁5.000.000 21421
▁View 21421
▁410 21416
▁Nhai 21413
Vinh 21411
/12) 21409
▁um 21409
▁ắng 21404
▁(195 21401
▁Bella 21393
-0, 21389
▁MỚI 21386
▁Sean 21386
▁Siro 21375
NK 21367
rick 21364
▁245 21360
▁Trâu 21357
Phạm 21349
▁check 21348
▁xở 21347
/14 21344
▁ẵm 21338
▁Ran 21334
▁et 21326
mức 21324
▁SSD 21320
▁Minzy 21319
chenko 21318
▁đát 21316
▁Nguyện 21301
▁Thói 21298
▁Test 21283
▁Cyrus 21282
▁khuỷu 21281
▁Wu 21277
Mất 21275
Rất 21274
▁stylist 21272
▁23% 21271
▁6.5 21271
▁nà 21271
Ronaldo 21269
▁Hans 21264
$ 21263
▁Trào 21260
.22 21258
▁Cơm 21258
.* 21240
▁Fred 21233
▁PHƯỜNG 21229
▁Ronald 21226
▁Najib 21218
▁khỉnh 21215
▁ăng 21215
▁nậu 21213
rich 21206
▁Jackpot 21199
▁đuốc 21197
▁(6) 21196
▁rú 21194
▁Dakota 21188
▁sàm 21188
▁PG 21167
tác 21166
▁UN 21165
▁Ducati 21164
▁HỌP 21157
▁2). 21154
bay 21152
▁quầng 21152
▁FI 21151
▁Hodgson 21149
▁fax 21140
▁Osama 21137
▁Light 21127
▁short 21127
▁Jersey 21123
▁Remix 21123
ịt 21122
▁Bos 21115
master 21112
▁Sporting 21109
▁Midu 21108
istan 21107
▁Muối 21105
▁31/7 21102
▁Treo 21101
tiếp 21096
Nó 21093
▁68, 21092
Ngôi 21091
▁1972 21088
▁Renault 21088
▁view 21084
thế 21081
▁nệm 21080
Km 21076
mở 21076
▁5,3 21074
ister 21071
▁7,2 21071
ili 21069
.( 21064
ược 21064
▁Nhạ 21064
▁1-5 21050
ader 21049
▁TRẦN 21048
PH 21047
Siêu 21044
ướng 21042
▁Peskov 21039
Class 21034
Vợ 21034
▁THỐNG 21032
oly 21030
▁Chap 21026
▁Congo 21022
danh 21021
▁Cab 21020
▁Dark 21014
▁Pompeo 21014
▁Gre 21009
▁hững 21004
eld 21002
▁xắt 21002
kWh 21000
▁1976 20999
▁83, 20999
▁chòm 20991
▁Chè 20989
▁Lisbon 20985
emi 20983
▁530 20979
▁1800 20976
▁wifi 20972
gs 20971
Chưa 20969
▁rôm 20966
▁Dis 20964
▁full 20957
▁AF 20956
▁Becamex 20954
ậy 20950
▁Len 20947
▁KHÓM 20944
▁Iron 20943
▁mạt 20938
30' 20932
▁giỡn 20926
▁Nghè 20925
tối 20923
▁Studio 20922
▁2010; 20917
▁cc 20916
iếu 20914
▁Vienna 20907
▁49% 20904
▁AD 20900
▁Surface 20897
▁giãi 20894
▁Ashton 20891
0,0 20890
▁À 20887
Phong 20884
cơn 20880
-26 20879
▁15-20 20874
▁HV 20857
▁Lane 20856
Chiều 20849
tùy 20844
▁Iowa 20841
hy 20828
▁ỷ 20825
▁khùng 20823
▁vẹt 20820
▁LÀM 20819
Quang 20813
▁30%, 20812
▁Palermo 20810
▁Tươi 20809
▁nẹp 20809
▁01/ 20807
▁LX 20807
▁Họp 20805
▁ẢNH 20803
▁43. 20799
▁THUẬT 20797
▁Catalonia 20796
ASEAN 20793
NĐCP 20793
▁Đáy 20785
▁máng 20774
▁20/12 20771
▁Mẹo 20769
▁Mueller 20767
▁BĐKH 20764
▁Homs 20758
▁Guinness 20749
▁nhen 20748
▁Lọ 20743
▁phộng 20743
▁microSD 20737
▁Ale 20736
won 20731
▁Bosnia 20730
▁chực 20726
▁Catherine 20722
trụ 20719
30: 20716
▁NM 20716
▁Abbas 20714
Cao 20710
▁Mumbai 20710
Thứ 20708
▁KHOA 20708
-40 20707
▁Jet 20699
▁Ing 20698
▁5,4 20695
▁gài 20695
▁PVD 20692
/1), 20691
▁26/11 20689
▁Bật 20689
ACB 20677
▁Sớm 20677
▁Thuấn 20673
| 20671
▁Ranieri 20669
▁QUANG 20659
▁lèo 20659
▁mành 20658
▁Alba 20653
▁rợ 20652
▁HỒI 20648
▁hích 20647
▁toilet 20644
▁Xuyến 20643
▁18/6 20638
Đúng 20635
New 20632
▁Dailymail 20627
▁nẻ 20627
▁110.000 20621
▁Fu 20620
▁giếm 20620
▁des 20618
▁Id 20615
▁Ong 20613
▁Rơi 20613
▁24.000 20605
▁nong 20603
▁British 20598
▁bolero 20594
▁góa 20594
1). 20592
▁cup 20592
500.000 20589
Đặc 20584
▁Messenger 20582
▁om 20571
/2), 20566
▁Dị 20566
▁State 20564
▁lượm 20562
▁Banking 20556
▁phả 20556
▁Kol 20551
▁Warner 20548
▁Premium 20546
▁VS 20544
▁hộc 20536
▁bổn 20535
illo 20527
ại 20527
FTA 20525
iam 20521
▁-1 20517
▁tịnh 20517
mà 20511
▁6.0 20510
▁Pur 20510
▁Sunday 20510
ady 20507
▁HSG 20502
▁Vincent 20501
▁Market 20499
str 20497
xy 20497
▁startup 20496
▁Tw 20495
▁Megapixel 20493
Thừa 20489
▁Gấu 20489
▁click 20489
▁PHÉP 20488
▁Mại 20485
▁Pot 20480
▁GDCK 20478
Kinh 20475
▁HIỆU 20472
▁15,5 20471
▁Kilo 20468
ề 20466
▁(44 20462
▁Lung 20459
▁KTNN 20457
▁rục 20454
3). 20451
eol 20449
▁Monte 20447
▁17,5 20446
IT 20445
▁DI 20444
▁Digital 20440
▁KCX 20439
▁2-1. 20437
▁nè 20434
Cụ 20433
xuất 20433
▁8/3, 20433
▁Deb 20432
▁nhợt 20432
asia 20427
/1999/ 20424
phụ 20424
▁1945, 20424
▁Quà 20419
ừ 20418
▁27/7 20414
▁Alb 20411
▁Modi 20409
-80 20401
▁dầy 20399
▁Villas 20398
▁Lav 20397
▁align 20396
ds 20394
▁LHPN 20392
▁Tải 20389
▁4,4 20383
Cảnh 20382
/198 20379
▁Slovenia 20379
đoàn 20378
đêm 20376
▁liu 20373
▁73, 20360
▁730 20359
▁Puyol 20359
▁XỬ 20357
▁212 20354
?", 20350
▁LAO 20350
▁Trộn 20350
enia 20349
ser 20348
xtan 20341
▁31/5 20341
▁20/5 20340
▁nylon 20340
▁Gạch 20339
ieu 20338
▁AL 20338
▁1; 20334
iHay 20332
▁thoắt 20319
▁Force 20318
▁Kaz 20317
ă 20316
▁Douglas 20316
▁1). 20313
▁NCT 20313
▁Pav 20313
▁out 20310
▁hớt 20305
▁Little 20303
▁Back 20302
▁Bir 20298
▁HỆ 20295
▁2015: 20294
▁9999 20291
▁Ian 20287
▁Sara 20286
▁Channel 20283
▁1971, 20282
▁BỐ 20282
▁1974 20278
▁Barry 20267
▁6,3 20266
▁Xêút 20265
▁hí 20262
▁Lật 20261
▁6,8 20258
▁rủa 20258
▁Hồn 20257
▁16/11 20255
lúc 20254
hình 20241
▁Địch 20240
Lần 20236
hệ 20235
▁Water 20231
khối 20229
▁Radio 20227
▁1992. 20226
▁CỤ 20221
▁Sunni 20219
▁khế 20219
▁Holmes 20216
aba 20210
City 20205
▁ballad 20205
ents 20201
▁nhói 20199
▁ó 20198
▁82, 20195
▁7) 20194
▁Jorge 20190
▁BẢNG 20179
/2) 20178
▁74, 20177
▁Orlando 20176
nik 20175
▁Mach 20175
.11. 20165
shi 20163
▁Hô 20163
▁Low 20156
Thể 20155
HĐ 20154
▁blogger 20153
▁Getafe 20151
▁Skype 20151
the 20146
▁Gam 20140
▁Ổ 20132
▁20/7 20130
▁29/10 20130
▁81, 20127
▁ngát 20126
óng 20116
▁10/9 20115
▁Bernard 20110
Ê 20108
▁03/ 20105
▁Dol 20100
▁make 20098
ự 20093
▁16/12 20093
▁Vogue 20084
▁THAAD 20074
▁Lar 20073
▁Rashford 20073
▁Mattis 20072
▁rả 20071
▁re 20067
press 20064
oud 20063
ạc 20062
▁Jimmy 20059
Diễn 20058
▁CHQS 20058
▁amin 20058
▁Heart 20051
▁mĩ 20051
▁9: 20050
iy 20043
ever 20040
▁thình 20037
▁1.3. 20034
.). 20028
▁Graechen 20024
giấy 20023
oney 20014
▁44. 20014
ầu 20013
atin 20010
▁Chơn 20006
+). 20005
▁Bành 20002
▁21.000 20001
▁25/10 20001
▁69, 20001
▁Xong 19996
▁phăng 19996
▁Xóa 19986
▁6,2 19985
▁Má 19984
ỡ 19981
▁HĐTV 19981
▁English 19980
▁25/4 19979
eman 19977
Đắk 19973
▁2-4 19962
▁UBCK 19956
-2009 19953
▁BM 19953
ardo 19952
▁Ast 19946
TR 19945
Tuổi 19939
phor 19938
▁Wong 19938
▁Coi 19937
▁Management 19936
▁Mul 19934
▁HỖ 19932
▁DOC 19931
▁nhẽ 19927
lia 19926
▁Wonder 19924
-100 19923
” 19922
UBTVQH 19920
▁Angola 19919
▁Ep 19919
-12. 19915
▁mafia 19914
▁xâu 19906
▁3,9 19903
▁núm 19900
feld 19897
▁Team 19892
rak 19888
▁737 19888
▁Bphone 19887
▁Out 19884
▁cơi 19875
eli 19873
êm 19872
▁Haw 19872
chin 19870
RT 19869
▁Nốt 19867
!!! 19862
KCN 19860
▁Parker 19858
ạn 19850
▁kháu 19850
▁Network 19846
▁84, 19839
▁nhăng 19839
▁Uyển 19838
▁đềm 19838
tein 19830
rig 19827
▁3.000.000 19827
Vua 19826
▁21% 19826
▁Thợ 19826
▁11/3 19825
▁giêng 19825
▁Everest 19824
ứ 19819
▁28/12 19818
▁(-0, 19814
▁hê 19813
ç 19812
BVHTTDL 19811
▁1954 19809
▁Ext 19807
▁lòa 19807
▁silicon 19807
ild 19802
Phan 19798
2.5 19794
ếch 19792
xây 19789
▁Comp 19788
▁Sắt 19786
▁tề 19785
uke 19783
999 19778
ùng 19778
▁Glass 19778
▁đờm 19778
▁CNVC 19772
▁Larry 19770
▁CSCĐ 19768
▁Thor 19768
ụt 19765
▁20-30 19764
▁Buffett 19763
khó 19759
▁20/3 19752
/9) 19749
Xây 19749
▁hoóc 19742
▁THỦY 19740
▁79, 19736
▁all 19736
▁menu 19729
▁trượng 19728
▁IAEA 19727
▁voan 19727
bom 19726
▁lâng 19722
▁Múa 19718
▁4-2 19713
Am 19709
▁95, 19706
▁Giồng 19704
Tăng 19694
▁Nike 19692
▁Ted 19692
▁ghẻ 19692
▁6) 19689
▁Sad 19689
40.000 19688
▁rạ 19687
▁Happy 19685
▁Aaron 19684
▁Becks 19681
Bác 19680
▁Berbatov 19676
45) 19675
▁VIDEO 19674
▁THƯỜNG 19673
Doanh 19670
▁Lay 19670
esia 19667
▁Nan 19661
long 19656
▁đay 19656
▁By 19653
▁Biden 19652
ret 19651
:1 19645
▁End 19645
▁nớt 19643
▁QCVN 19641
▁Mập 19638
▁Piaggio 19638
for 19632
▁studio 19617
▁(46 19615
ấy 19612
,. 19610
▁Mascherano 19609
▁VA 19608
▁CHẤT 19605
ngoại 19604
▁173 19604
▁thía 19604
▁HO 19602
DV 19598
▁Mohammad 19593
thanh 19589
▁nhừ 19587
▁78, 19583
▁ECB 19583
▁29/4 19578
▁nhầy 19578
▁1973 19575
▁Rud 19573
▁cọp 19572
▁3.7 19569
▁Scarborough 19564
▁cáng 19564
.12.201 19558
▁TY 19558
ault 19555
phan 19555
/20 19551
ales 19551
▁IQ 19551
nằm 19545
▁Tước 19536
▁Football 19533
eron 19532
▁Nelson 19526
▁gả 19524
▁Shanghai 19520
bệnh 19516
▁Nêu 19516
▁10/11 19514
▁SỬA 19513
▁FB 19508
▁bảnh 19506
biến 19502
▁đờn 19493
▁1/12 19492
▁PVS 19491
▁sofa 19490
▁LƯỢNG 19488
▁REUTERS 19482
▁Smalling 19481
mas 19477
▁khuếch 19461
▁Interpol 19459
tay 19455
GĐ 19453
ắp 19453
ovich 19449
enberg 19448
▁rạc 19443
▁ATVSTP 19433
độ 19431
▁VnIndex 19430
▁1/9 19427
hạ 19421
▁KHÓA 19414
▁25/11 19413
óm 19407
iển 19404
viet 19397
▁Buộc 19395
▁Mid 19395
▁System 19395
▁Alice 19392
▁Chip 19388
▁Phán 19383
ware 19378
▁Inf 19370
vượt 19367
▁169 19366
▁Mam 19362
aca 19361
250 19360
▁download 19358
▁ngốn 19357
▁Khoang 19356
▁NSA 19356
▁Cardiff 19355
box 19354
▁rọi 19345
▁2.600 19337
arn 19335
trị 19333
▁Xbox 19331
▁Gazprom 19328
▁mún 19328
▁Chênh 19323
▁Giành 19317
▁Mạn 19313
▁77, 19308
GTVT 19305
▁Yuri 19303
Nước 19294
▁pl 19293
▁£ 19293
arl 19287
▁CES 19284
▁LỆ 19283
ậu 19281
vụ 19277
▁Bremen 19276
▁ốt 19274
TO 19273
▁Dec 19272
▁0,1% 19270
▁10/4 19263
▁Goal 19261
▁Olympia 19260
▁ran 19260
val 19257
▁TĐ 19257
▁TIỀN 19255
▁xiên 19253
▁235 19252
/1999 19250
▁Romney 19248
.2017, 19244
▁Hẳn 19237
▁Tem 19237
▁Oliver 19233
.2016, 19231
▁Liberty 19231
▁12/11 19227
▁Garros 19227
▁Dae 19226
▁Watson 19221
▁Arch 19214
▁Sâu 19213
TI 19212
fan 19205
▁AMD 19198
oe 19197
▁TỰ 19197
▁6,7 19193
back 19192
▁Manhattan 19188
▁30/3 19187
▁86, 19187
▁MÔI 19178
ces 19175
Địa 19173
▁str 19173
▁NSX 19172
▁Maps 19168
▁194 19165
yu 19163
▁Cesar 19163
▁Xiao 19160
▁McC 19157
▁feet 19156
Khoảng 19154
ình 19152
▁Hwang 19152
▁Cav 19146
▁Kos 19146
3.5 19145
▁BRT 19143
▁Lựu 19143
▁580 19138
▁bướng 19132
Xe 19124
▁Gan 19119
▁phom 19117
▁Didier 19105
andra 19094
ìn 19085
▁1997. 19085
▁Vinaphone 19085
▁ngậy 19084
▁Hầm 19075
▁DF 19074
▁Mesut 19074
▁ruổi 19073
▁HUY 19071
Hạ 19067
Indonesia 19065
▁1,25 19064
Hoàn 19061
Mai 19061
▁Focus 19054
.2014, 19051
▁vol 19042
▁BIÊN 19037
/2006, 19036
▁1980. 19036
▁Phở 19036
▁23.000 19033
▁ổng 19033
2: 19030
▁7- 19030
-2015. 19029
mat 19029
▁duỗi 19029
▁Đủ 19020
▁bỉm 19015
vòng 19007
▁Craig 19007
ảy 19006
▁Janeiro 18998
▁Beyonce 18997
Australia 18991
ần 18986
▁block 18984
▁nhạo 18984
íp 18982
BHXH 18981
▁Thaco 18979
▁natri 18973
▁Pixel 18971
elia 18969
▁Hé 18969
▁Chin 18965
▁MERS 18964
▁88, 18960
450 18954
▁Nôm 18953
▁Kawasaki 18949
wn 18946
▁rúp 18944
Điểm 18943
▁Xưa 18942
▁Karim 18940
▁20/4 18928
▁20/6 18927
▁Prix 18927
Tiêu 18926
▁Lat 18925
▁4; 18922
▁CQ 18918
▁photo 18918
-70 18917
▁fl 18914
▁EX 18913
▁Gear 18913
▁comment 18905
▁Saf 18903
▁Alt 18902
▁TOÀN 18892
▁Dor 18888
▁Hon 18886
/197 18881
▁nhẽo 18880
.2013, 18876
điện 18875
▁Range 18874
▁Yak 18874
tar 18869
▁8) 18869
VCCI 18868
▁đanh 18868
▁1930 18867
▁610 18865
mu 18864
▁Mảnh 18864
011 18861
▁Síp 18861
▁100%, 18858
▁1500 18858
▁TBA 18855
▁7.2 18850
▁1/11 18848
▁Riedl 18848
▁Foundation 18845
▁Sat 18842
▁Wan 18841
▁miết 18840
▁Lockheed 18838
▁Dance 18834
▁Tiềm 18829
▁Martino 18826
▁ref 18821
▁đênh 18813
2.0 18811
▁275 18810
▁6,4 18806
ạnh 18805
▁Thỏ 18805
▁Đích 18795
▁16/3 18793
▁16: 18793
▁Né 18792
▁chịt 18791
▁xiêm 18787
▁Word 18786
ilis 18783
▁PK 18783
▁Whitney 18782
▁concert 18780
▁THỜI 18776
▁204 18771
â 18770
▁Hae 18770
▁Yas 18769
▁TPCP 18768
▁Sak 18760
▁Southern 18758
▁Siberia 18755
▁BID 18753
▁Zlatan 18753
▁Neville 18751
đen 18748
▁Run 18742
▁SỰ 18740
▁5%. 18724
▁Lem 18723
▁Túy 18721
▁18: 18720
▁15/1 18717
bang 18713
▁Latvia 18713
Cl 18709
▁NGỌC 18705
▁ráng 18702
mùa 18696
▁Science 18696
▁Gucci 18693
▁hack 18689
▁2-0. 18688
▁Cahill 18679
▁Dior 18679
▁28.000 18677
▁VỆ 18677
▁luẩn 18666
▁1), 18659
▁DPM 18659
ứt 18658
▁19/8 18657
▁Stuttgart 18657
▁Eco 18653
▁Trust 18653
▁đáu 18651
▁hàu 18648
omb 18645
▁13/11 18644
▁cợt 18644
▁29/6 18643
igh 18641
▁Goldman 18637
▁Wat 18636
Hệ 18632
eller 18630
Ghi 18628
▁18/11 18627
olf 18625
7%) 18624
▁Châm 18624
▁Indian 18621
chen 18616
Đất 18616
▁Wilshere 18614
▁bêtông 18611
Hen 18610
▁Nano 18609
▁Parma 18608
▁víu 18607
▁Now 18606
▁TMV 18605
▁Quí 18604
tinh 18602
▁Miguel 18601
ido 18596
cal 18589
▁PVF 18586
▁rìu 18584
▁chẵn 18581
-7, 18579
chơi 18579
50, 18576
▁Koh 18573
▁Isco 18567
▁98, 18565
ụng 18553
▁55.000 18553
▁Sẵn 18553
▁loáng 18553
ology 18551
px 18549
▁Lion 18545
▁TRỰC 18543
▁Woods 18543
▁Explorer 18539
etz 18535
▁Iphone 18535
/1998 18534
2010 18532
▁LGBT 18532
▁ngụt 18531
▁ngước 18528
▁Savills 18525
▁Ethiopia 18524
aster 18523
▁CI 18520
▁TCM 18520
▁(48 18518
▁Way 18517
àm 18516
▁Lac 18516
6%) 18515
▁hỉ 18511
▁Food 18510
▁Bong 18501
▁thướt 18501
▁kW 18499
▁NGÀNH 18497
▁Philippe 18492
iga 18491
▁1.500.000 18489
▁14/2 18488
▁FBNV 18488
par 18486
▁gel 18486
Car 18483
▁sấp 18477
▁Ple 18474
▁25/3 18473
ode 18471
.15 18469
▁14/12 18463
odon 18457
01. 18453
▁Vision 18452
ịch 18450
▁Kerr 18450
▁áng 18448
nhiều 18446
▁Navas 18445
ửa 18441
nia 18440
▁TKCN 18438
:201 18437
▁chùng 18437
▁Blair 18434
▁Xy 18433
▁are 18432
▁16/4 18429
▁Brooklyn 18429
▁bệt 18425
bài 18421
▁Wawrinka 18421
▁Mubarak 18416
▁Boris 18406
▁CNBC 18406
▁tấy 18404
▁CBS 18399
▁Soi 18398
▁1996. 18396
▁Trỗi 18396
▁sủng 18396
eter 18393
▁ngùn 18391
▁SAM 18384
▁Shutterstock 18384
▁25/12 18380
LV 18379
▁89, 18377
▁Jacob 18375
▁Pass 18375
▁Herrera 18368
▁Shiite 18368
ẳng 18364
▁Kiệm 18363
▁pizza 18362
.2014 18361
▁Lor 18357
▁BL 18352
▁Abd 18343
▁6,6 18340
▁GIÁM 18340
band 18338
▁Independent 18337
▁(7) 18334
▁Knight 18334
▁nhâm 18332
▁Diệm 18331
▁Gordon 18330
/1998/ 18328
ới 18326
▁Levante 18325
▁Elite 18323
▁1969, 18322
bert 18321
Philippines 18319
▁Kit 18319
▁NHẬP 18315
▁vồ 18315
play 18314
▁21/11 18314
▁Tayyip 18314
▁cún 18314
▁Gor 18310
▁Vatican 18307
ning 18306
▁Slim 18305
▁kìa 18300
▁Xát 18295
▁coupe 18292
.16 18291
▁NTNN 18290
▁65.000 18285
▁28/4 18284
▁Sid 18284
▁lóe 18283
:00: 18279
▁DNA 18277
▁Hòe 18276
▁PVI 18276
▁Thửa 18276
xít 18274
▁Dy 18272
DT 18262
World 18258
▁Gerard 18258
Cảm 18257
uka 18257
▁28/10 18253
▁6-3, 18250
▁Box 18249
▁Tui 18249
▁tét 18248
▁đểu 18246
▁CF 18244
▁Bus 18243
.14 18242
▁đản 18238
▁xèo 18236
▁24% 18235
Giáo 18234
ital 18234
▁10) 18231
▁Kitco 18231
▁Wei 18229
▁1977 18225
▁Tưng 18221
▁Vo 18216
Ủy 18214
▁Lồng 18213
▁26/3 18208
▁TRỊ 18204
▁3/2 18202
▁nết 18202
▁Tanzania 18201
▁Had 18199
8%) 18197
▁mic 18197
-10, 18195
▁Kền 18194
ậm 18189
▁30/4, 18189
▁Chuột 18188
▁hót 18187
▁21/12 18185
▁Dừng 18185
▁KLS 18183
Châu 18182
▁xẻo 18182
▁Ao 18179
▁omega 18175
CK 18173
▁Linux 18168
▁HĐH 18165
/2000/ 18156
ushi 18156
▁19.000 18156
▁Cad 18154
▁lắt 18154
augh 18151
▁19% 18145
ANG 18144
har 18136
▁0-3 18135
▁50. 18131
▁nháp 18131
▁Bếp 18130
▁Mía 18130
BCA 18129
▁22° 18127
▁lự 18125
▁iTunes 18121
▁khờ 18121
▁Research 18120
▁Mũ 18117
▁THUẬN 18117
lex 18115
▁Kid 18115
▁Busan 18114
▁Laura 18110
▁21/6 18106
▁98% 18102
ồm 18096
12, 18095
▁Wembley 18089
▁Busquets 18088
▁Walter 18085
ogl 18084
▁23/11 18084
▁Hànôịmới 18084
▁Đéc 18083
▁21.1 18080
eme 18079
ộc 18076
▁Qui 18073
▁209 18069
▁Lạ 18069
).. 18062
▁1967, 18060
▁Luyến 18060
▁3,0 18055
▁cùi 18055
oth 18052
▁3.9 18050
▁TNT 18043
ower 18041
cin 18040
▁Bugatti 18040
р 18037
Ad 18036
▁27/4 18034
Ã 18031
uck 18027
uto 18027
Mục 18024
▁28/8 18024
▁Mbappe 18023
tai 18021
▁hớ 18021
▁Bậc 18018
▁Neil 18018
▁Quới 18016
▁nhẹt 18015
▁Santiago 18013
▁opera 18013
+, 18011
▁28% 18011
gon 18008
▁How 18005
▁Pic 18005
▁Xưởng 18003
▁giương 18003
3%) 18001
▁Security 17996
ạm 17991
3; 17990
▁Chicharito 17990
▁Missouri 17986
Canada 17981
Su 17981
▁Gall 17980
▁chây 17980
▁Trứ 17978
▁TÂM 17975
▁27/11 17974
▁620 17974
▁copy 17965
ij 17964
▁Abdel 17964
/1) 17962
▁TIẾT 17962
▁Điềm 17962
tion 17956
▁DẪN 17954
iếp 17952
▁29/3 17951
▁Burnley 17946
▁Gra 17943
▁0,2% 17942
▁cạy 17942
▁10.000.000 17941
▁moi 17941
▁nòi 17940
▁KIẾN 17939
▁phùn 17938
▁7,8 17936
▁(100 17935
▁Electronics 17935
akov 17927
kins 17927
ịnh 17927
▁0,15 17923
Tính 17918
ạo 17918
▁Rich 17916
aine 17915
▁UV 17914
▁Four 17908
▁Hủy 17908
Tiếng 17907
▁Has 17907
▁Maz 17902
▁14/3 17897
▁Matic 17895
90. 17892
▁Kin 17889
▁TTTT 17882
▁208 17878
▁LIỆU 17878
▁30/7 17877
▁CCB 17874
▁HĐBA 17874
▁Adrian 17871
▁Hama 17869
▁Design 17862
▁quệt 17860
Br 17859
▁Chẩn 17853
aker 17852
▁nài 17852
▁Ư 17851
▁Hỗn 17843
)" 17838
4%) 17838
▁Free 17838
▁gien 17835
▁IU 17827
▁estrogen 17825
▁hoe 17825
▁Đua 17822
bury 17821
▁Friday 17820
đàn 17819
lad 17818
▁Đu 17813
aha 17810
▁Celta 17810
▁JICA 17809
▁Cross 17808
▁1965, 17806
▁Hugh 17806
▁VSATTP 17803
▁12/6 17801
▁3.600 17801
▁Dev 17800
▁salad 17799
?... 17793
▁Asp 17790
▁Mưu 17789
tri 17788
ứng 17784
▁dấm 17783
▁Pers 17780
▁48. 17777
▁14/11 17774
:45 17771
▁CBCNV 17771
▁19/10 17769
▁Line 17766
▁margin 17764
▁Duệ 17761
Áo 17760
▁26/10 17759
ẹ 17757
▁Chechnya 17757
▁Sukhoi 17755
▁pH 17752
▁PP 17742
iff 17740
▁Tắm 17735
▁CBRE 17732
por 17730
hồ 17728
▁Pseud 17728
▁TRÁCH 17728
▁Wild 17728
ưởng 17727
▁tóe 17727
owski 17724
▁thơi 17723
▁Guatemala 17715
▁Máu 17714
aux 17712
▁29/12 17710
aj 17707
mặt 17702
▁Ibrahim 17696
.......... 17695
▁VỐN 17695
▁Galatasaray 17694
▁2012; 17692
nổi 17689
▁12: 17688
▁26/6 17682
▁liếng 17679
kèm 17676
▁Graham 17675
▁92, 17670
▁Kansas 17668
▁Sebastian 17664
▁insulin 17664
▁Vnexpress 17662
▁điếm 17660
Thần 17658
▁1995. 17656
▁TNDN 17656
Mới 17653
▁app 17653
▁Die 17652
tron 17648
▁47. 17648
▁Vidal 17648
.25 17647
▁(47 17645
▁cỗi 17645
▁RIM 17638
▁ngóc 17635
rap 17633
▁Mahmoud 17633
FED 17632
▁Mến 17632
▁khanh 17632
▁Lượt 17626
▁16/10 17625
▁Imp 17624
Mã 17615
sân 17611
▁Jurgen 17608
ava 17606
▁nua 17606
▁Vista 17605
▁YÊU 17601
▁Award 17599
▁10/5 17597
▁Palmyra 17594
650 17593
form 17593
▁veo 17593
981 17579
▁301 17578
▁Genoa 17578
▁Chừng 17577
▁20/8 17570
EG 17567
ious 17566
μ 17563
▁Grande 17562
▁LỰC 17561
▁Gióng 17560
ựa 17559
▁14/5 17558
▁HK 17557
▁Lib 17555
▁Blatter 17551
▁nhẩm 17551
▁87, 17546
▁27/12 17545
▁săm 17538
▁Gonzalo 17536
▁vái 17536
▁Ừ 17531
▁Fran 17530
▁Kompany 17527
▁22/5 17526
▁Jazz 17526
KHHGĐ 17524
Ta 17524
-195 17522
▁14/4 17522
▁Wisconsin 17521
▁9) 17519
▁Myung 17519
iêm 17517
▁Nhẫn 17517
▁Turbo 17513
Cá 17511
▁Subject 17508
omy 17506
▁46. 17505
▁51. 17505
▁16/5 17502
▁Càn 17501
▁lụi 17501
▁Soạn 17499
▁phỉ 17490
▁Grant 17483
▁Control 17482
ộp 17481
▁Viêng 17480
)/ 17477
▁Emily 17476
▁lùa 17467
Star 17466
ike 17464
avan 17463
rot 17459
▁20: 17459
▁Copenhagen 17453
Hơn 17447
▁Kn 17446
▁Palm 17445
▁WikiLeaks 17442
▁Christina 17440
ual 17438
▁TNCN 17431
▁Zen 17430
view 17429
BĐ 17417
rog 17417
Bỉ 17415
DOC 17415
........... 17413
▁CHUYỂN 17412
▁Laser 17410
▁te 17408
▁17/10 17406
▁2025, 17396
chung 17395
CATP 17393
▁Puerto 17392
▁Coupe 17391
-34 17389
iệp 17387
▁Rắn 17387
▁KBC 17379
▁tắp 17379
▁Law 17368
din 17365
▁Boys 17365
▁Composite 17362
▁ĐVT 17360
15, 17358
tiểu 17358
▁VBQPPL 17358
▁Lake 17355
▁19/12 17354
▁Cốt 17354
▁28/3 17349
▁49. 17342
▁ngông 17340
▁ion 17339
-2017. 17334
▁photocopy 17328
▁Muôn 17323
▁ló 17323
▁Borussia 17322
▁vâng 17315
SCO 17313
▁AMOLED 17313
▁Phiến 17311
▁jazz 17307
Gửi 17305
▁chàm 17305
ơng 17304
▁bit 17303
phong 17300
vis 17298
▁xối 17296
imi 17292
▁Hem 17292
▁VCG 17291
▁0,02 17288
▁ạch 17283
BKHĐT 17282
▁cựa 17280
▁24/2 17279
ĐN 17275
ỏi 17275
▁Rico 17271
▁Tomas 17271
▁thằn 17264
▁PHÚ 17254
sang 17253
thắng 17250
▁BI 17250
khai 17248
▁pô 17248
▁Corporation 17247
ump 17242
▁dấp 17241
▁Clark 17239
asi 17238
▁Kom 17237
▁30/5 17224
▁7/5 17224
▁2016; 17216
▁Rác 17216
▁Championship 17212
▁36,5 17210
▁LAN 17210
▁Pablo 17205
▁SƠ 17201
Mặt 17199
▁Doha 17199
ept 17197
▁4/5 17192
▁Tít 17187
▁1964, 17185
▁MD 17182
▁Mobifone 17182
Nhóm 17180
pop 17167
▁Bros 17166
LL 17165
▁đờ 17164
▁Rick 17158
▁Bai 17154
▁IR 17152
▁4.200 17150
▁Ig 17147
▁Desire 17143
BP 17142
▁Yokohama 17140
▁thui 17139
▁22/12 17131
itor 17130
▁CBCC 17128
▁Vigo 17128
▁Sewol 17124
▁1-1. 17123
▁ĐỨC 17123
▁DNTN 17116
▁Nghỉ 17113
▁dioxin 17111
xanh 17110
▁4,1 17110
Com 17101
MK 17100
ider 17100
ực 17099
baodautu 17094
▁Vả 17090
▁we 17086
▁hợt 17076
-2014. 17075
▁Titanic 17075
Tỉnh 17074
▁Speed 17070
▁HSSV 17068
Linh 17067
▁DIỆN 17064
▁Ghềnh 17064
▁mọt 17064
Mart 17056
▁Xen 17056
oke 17052
▁NQ 17052
▁Houthi 17050
▁23/9 17045
▁Bobby 17045
▁phết 17042
▁tùm 17042
5.0 17037
▁mobile 17035
▁MN 17033
2%) 17032
oides 17032
▁10/8 17032
ONG 17031
đào 17030
▁26.000 17028
▁Musk 17028
▁11/12 17026
Song 17024
▁ruốc 17024
▁1967 17022
▁Matteo 17020
▁cui 17019
ize 17012
▁Sachs 17011
zan 17006
▁Mill 17006
▁Technology 17001
▁trồi 17000
▁1.10 16996
00: 16995
▁1954, 16994
mới 16992
▁Lind 16990
▁cọng 16990
thiếu 16988
▁91, 16978
▁ap 16978
world 16977
▁25/8 16974
▁21/4 16973
▁Gmail 16972
▁Stan 16969
É 16962
▁Maldives 16959
▁Yam 16959
▁YÊN 16958
▁999 16952
▁AH 16952
▁Sher 16952
▁ù 16951
▁26/4 16950
▁22/10 16948
hir 16947
▁testosterone 16945
▁Cheng 16943
▁Pharma 16941
môn 16940
▁gạc 16936
▁2014: 16930
▁24/3 16929
▁uổng 16927
▁17/3 16923
emb 16922
▁TCCS 16921
▁Đuống 16921
▁Lou 16915
▁(52 16914
▁21/10 16911
▁Lohan 16911
▁toang 16911
5,5 16904
hết 16902
▁Bis 16896
▁sứa 16895
chiều 16892
ury 16892
cor 16891
990 16889
▁CMC 16887
▁chùn 16887
▁Keo 16885
ges 16884
▁26/12 16881
▁Mand 16879
Bây 16878
▁EIB 16878
▁Rub 16876
Dương 16874
▁Jar 16874
▁17/11 16872
▁EXO 16870
▁JMG 16869
▁SCMP 16867
MO 16866
▁24/11 16862
col 16861
▁14/6 16861
▁Robinho 16860
▁4,9 16858
▁FM 16858
▁Lily 16858
▁Athletic 16855
▁Gồm 16853
▁Stanley 16853
▁206 16851
▁Mars 16849
ợ 16848
▁2017; 16846
▁baht 16846
▁Sound 16844
▁Theresa 16844
▁Timothy 16841
▁ngoai 16838
▁1/8, 16837
▁Hongkong 16837
CG 16834
▁Eng 16834
▁CHLB 16832
▁(49 16828
▁5; 16828
▁Queensland 16828
▁18/4 16819
▁chừa 16819
▁March 16817
▁27% 16815
▁quẫn 16811
ễ 16810
▁Eb 16810
▁Dj 16808
▁255 16806
Fed 16802
dịch 16802
▁Salman 16802
.13 16799
▁Prime 16798
ém 16787
▁sin 16782
▁Aventador 16780
phản 16777
▁Prim 16774
▁28/11 16773
▁20/9 16767
▁Western 16767
▁khất 16767
▁xình 16767
▁22/4 16765
▁7.5 16761
▁NPK 16761
▁gara 16761
-2010. 16760
▁Band 16760
▁Hagel 16759
▁thau 16757
▁Strauss 16755
▁Racing 16751
Phút 16749
▁93, 16748
▁216 16743
▁đận 16743
▁2050 16741
▁NVCC 16738
▁Watford 16736
▁10/7 16734
▁dôi 16733
khoe 16732
▁rết 16732
▁Lag 16727
▁bươn 16725
▁ghềnh 16724
▁Vừ 16721
oisao 16719
▁UBCKNN 16717
▁1⁄2 16712
▁Ơn 16709
▁40%. 16708
н 16706
▁Moody 16706
▁Vạc 16706
Nusra 16699
▁24/4 16696
▁Lev 16695
cựu 16693
▁NHCSXH 16691
▁Tỏi 16690
▁Trùm 16688
▁10/6 16685
▁325 16685
▁Optimus 16683
▁1920 16673
▁Rem 16670
▁BN 16660
▁Demi 16660
▁Kiêm 16660
▁Thà 16660
▁Oman 16653
▁24/10 16652
▁Thiến 16652
▁Tok 16651
▁29/9 16642
IV 16641
CPI 16639
▁7,3 16639
▁Bruyne 16639
WTO 16636
▁IDC 16635
tiêu 16632
▁17/7 16629
▁96, 16625
▁Wh 16625
▁XIX 16624
▁trề 16622
nar 16619
▁20/1 16617
▁Macedonia 16615
.2011, 16614
ł 16612
▁PHẨM 16611
▁12/10 16610
▁Hat 16610
▁Spider 16607
▁nuột 16604
▁22/6 16602
▁Ricardo 16602
▁nhọt 16599
▁Bag 16597
.2010 16596
▁33% 16596
000,000 16595
▁810 16595
▁form 16594
▁18,5 16593
▁(3, 16592
động 16590
▁Ngo 16585
▁Willian 16584
▁Just 16583
▁cữ 16582
▁Nở 16578
ơm 16577
▁lạch 16577
▁19/6 16571
▁Rachel 16568
▁Xoan 16566
▁Rah 16565
▁MHz 16564
El 16563
▁Cher 16563
▁Russell 16562
▁hì 16561
▁xẩy 16561
▁thùy 16556
▁Denis 16554
▁ghẹo 16553
▁Bún 16550
▁Bôi 16543
▁Start 16542
EO 16541
▁inox 16540
Du 16538
▁lọi 16538
,55 16536
▁gáo 16535
............ 16534
▁960 16533
▁húng 16529
▁Education 16528
▁Seattle 16527
▁08. 16526
Lạng 16525
▁lẩm 16523
▁Stockholm 16519
▁Lien 16514
▁diezel 16514
?, 16513
▁bập 16510
▁1200 16509
▁Điếu 16508
lic 16507
Di 16502
4.5 16501
liên 16496
▁Peugeot 16496
tất 16494
▁1,5% 16494
▁26% 16494
▁sới 16493
▁Mandela 16490
6- 16489
▁Wells 16487
hoàn 16486
▁Off 16486
▁1962, 16484
▁Hiddink 16484
▁ton 16484
/2008. 16476
mark 16474
▁Luxembourg 16471
▁đươc 16470
Hưng 16469
▁Jaguar 16465
▁Wolf 16464
iger 16461
mAh 16461
▁5/6 16459
▁Dick 16458
▁Rice 16458
▁Osasuna 16454
▁0,50 16449
▁Bah 16449
▁4-6 16448
▁Vinasun 16448
▁Shoigu 16447
▁Hùm 16445
▁Helen 16442
▁19: 16440
▁Down 16437
-48-3 16436
▁Fir 16433
▁SGD 16431
▁Sampdoria 16429
lấy 16428
▁2010) 16428
▁đơ 16428
▁Lugansk 16427
oku 16418
enh 16416
AL 16414
▁1966, 16414
▁Iker 16414
▁Liz 16411
▁2018: 16407
vừa 16404
▁207 16402
▁nhòm 16402
▁TỪ 16401
▁18/3 16400
▁cuồn 16400
-02 16398
ÂN 16396
LN 16388
▁Cape 16388
.2015, 16386
▁ĐỐC 16383
tàu 16381
ượng 16381
▁This 16381
▁Marcus 16380
▁Audio 16374
▁Indiana 16374
▁nhẵn 16374
▁0,3% 16372
▁Albania 16372
▁răm 16371
oko 16368
▁ed 16360
▁tành 16359
▁Hawk 16357
▁Thong 16357
ngh 16354
▁Ngh 16353
▁Pico 16352
▁1965 16351
▁phũ 16351
950 16346
▁thiếc 16346
▁Kiêu 16345
rac 16344
▁IPS 16341
▁VR 16341
ult 16329
▁Rạp 16329
▁cưu 16326
rod 16325
▁Adebayor 16324
▁Vicente 16323
▁Bosque 16322
ĩ 16321
▁Wikipedia 16320
▁Ib 16312
▁0.0 16311
▁Py 16311
-2016. 16310
▁Oceanbank 16310
▁Tê 16309
iti 16307
▁Blanc 16305
,0 16301
▁Mich 16300
▁Form 16296
▁Lima 16294
▁VX 16292
▁Ming 16291
▁bặt 16291
Cuối 16290
▁hến 16290
ngôi 16289
▁BẰNG 16286
▁Kw 16283
hướng 16280
▁218 16274
raw 16272
▁1946 16268
abe 16267
▁Virus 16267
▁hừng 16265
Campuchia 16264
▁Nút 16264
▁Arthur 16263
▁Adele 16262
▁Fil 16260
▁Pul 16260
awi 16257
quái 16257
▁3.300 16254
▁Marca 16254
VFF 16253
▁ISS 16250
▁30-4 16247
▁8/11 16245
▁chộp 16244
.2016 16243
:200 16237
▁Prudential 16236
erry 16235
ift 16230
ổi 16230
.1) 16229
ilia 16229
▁Eo 16229
▁Ten 16229
roc 16224
Bất 16221
▁Jam 16220
▁ná 16220
dùng 16218
tha 16218
▁Tomahawk 16218
▁UFO 16218
▁GDTX 16216
ete 16215
định 16215
▁Powell 16210
▁hécta 16202
▁̧ 16196
rah 16189
▁tịt 16188
war 16186
▁Dâu 16182
▁Súp 16181
tố 16177
▁224 16174
▁Quãng 16174
Sa 16171
iết 16163
▁5%, 16159
XX 16153
▁Arg 16150
▁Chao 16149
▁Sr 16149
▁23/6 16148
lai 16145
▁17/4 16145
giáo 16144
▁Hughes 16133
▁sam 16133
▁nép 16131
▁choạng 16130
▁12/5 16129
]. 16128
▁tể 16125
▁660 16124
▁Wright 16124
▁Nice 16123
Trận 16121
▁Boateng 16121
▁412 16119
▁Marcos 16118
▁us 16114
▁HĐLĐ 16112
oster 16109
▁PCTT 16108
▁KL 16106
▁Betis 16103
▁15%. 16102
Tiến 16101
▁Sheikh 16100
▁trans 16099
ilo 16096
▁trịa 16096
▁Nhuế 16095
▁22/11 16094
omo 16093
3: 16086
▁Jamaica 16086
▁đùn 16086
▁ser 16083
▁Avengers 16081
▁TẢI 16081
▁DƯƠNG 16080
▁Đúc 16080
ife 16078
▁Page 16075
▁Donbass 16073
Ò 16071
▁Adriano 16067
▁Cheryl 16067
▁đần 16063
mặc 16058
▁Reagan 16057
▁VẬT 16055
▁kị 16055
▁Tata 16052
▁17/6 16050
▁hattrick 16048
▁Giếng 16046
▁Ghế 16042
▁5,1 16038
▁TASS 16037
VTV 16035
▁Nem 16035
sát 16034
úa 16032
▁23/3 16032
▁30/8 16029
▁6-4, 16028
▁27.000 16027
▁....... 16025
▁Mot 16023
▁KHĐT 16016
▁4.8 16015
▁2004; 16014
▁Depp 16012
▁Fund 16012
▁Nhảy 16012
▁6/4 16010
DD 16009
▁thảnh 16005
▁1994. 16002
▁8.2 16000
▁840 15998
▁thiu 15997
▁1969 15996
ange 15995
▁Barbara 15994
▁Xổ 15994
▁97, 15993
▁Carina 15992
▁Cast 15988
aire 15985
cố 15981
▁Shangri 15979
▁Playboy 15973
▁tươm 15967
▁Mut 15966
▁217 15965
▁4.7 15963
▁680 15963
▁22/3 15960
▁Lụa 15959
▁Number 15957
▁1.25 15956
cửa 15955
▁Megan 15954
▁Harvey 15953
▁met 15953
▁rởm 15950
▁Universal 15948
▁222 15945
▁Cạp 15945
Brazil 15941
▁Fall 15939
▁EPC 15935
Quả 15933
▁Sợi 15930
▁Silicon 15926
▁KỸ 15924
▁265 15922
-2013. 15920
▁Marilyn 15919
▁Chiếm 15917
▁Vay 15916
▁vù 15915
▁lỉnh 15911
▁Block 15910
▁CPTPP 15909
▁Dựng 15908
▁18/12 15899
▁21/3 15896
▁Sập 15894
Thiết 15892
▁(53 15891
▁12/9 15891
▁17/8 15889
▁Đoài 15888
-500 15886
▁12/7 15886
Tuyên 15883
low 15881
▁1964 15881
▁Furious 15881
▁Nhí 15877
nội 15875
▁52. 15874
▁vó 15874
sốc 15869
▁xoan 15866
▁Viglacera 15865
▁Pink 15863
▁VNG 15862
▁Credit 15859
▁27/10 15858
▁23/10 15857
yah 15856
ait 15853
▁16/7 15851
▁Mik 15851
rent 15850
▁Alvaro 15843
iac 15842
▁BIỂU 15839
▁Find 15838
arin 15835
6%), 15829
▁KHXH 15829
▁gala 15829
▁Christ 15828
!? 15827
Tham 15827
urs 15826
▁22/9 15822
bầu 15821
▁Bradley 15821
▁mac 15821
tâm 15820
▁dan 15818
▁Grace 15814
▁sê 15813
▁Qaeda 15807
PG 15803
▁Ngạc 15799
ifer 15796
▁Flor 15796
▁mói 15796
ulin 15795
▁col 15793
ném 15792
mos 15788
▁lã 15788
ction 15786
▁Part 15786
▁XEM 15779
▁Này 15778
▁Ele 15775
▁1991. 15772
rie 15771
▁dãn 15770
VietQ 15767
▁1-4 15766
▁nhản 15763
triệu 15761
chuyển 15760
TQ 15756
▁Psy 15756
7%), 15755
▁Khăn 15755
▁nhão 15751
try 15750
▁28/6 15747
▁Cent 15746
▁Company 15741
ặn 15738
▁......... 15738
▁26/5 15738
▁mômen 15734
iel 15731
óp 15729
PetroTimes 15727
▁Elle 15727
▁nhót 15727
7%; 15726
▁Wars 15725
uân 15722
chan 15721
▁BVMT 15721
▁Seng 15719
nhạc 15718
▁guồng 15716
▁19/11 15713
▁24/12 15711
+2 15709
▁net 15708
ềnh 15707
▁(55 15707
▁Podolski 15707
014 15706
▁TPBank 15700
▁8/8 15697
Hồi 15696
▁CẦN 15696
▁SXKD 15695
OA 15691
▁CHỈNH 15690
▁háng 15690
▁nghé 15688
OV 15685
▁Xay 15678
▁16/6 15677
▁McG 15676
aid 15672
▁gổ 15671
▁Assange 15670
ows 15664
Cháu 15663
▁Blake 15658
▁25/6 15657
▁Harley 15657
▁gút 15656
▁xuýt 15654
▁thỉu 15653
▁ANZ 15650
▁6/1 15647
emia 15643
uel 15641
Lịch 15640
▁nhặn 15636
vua 15635
▁Aung 15629
▁Hum 15628
alk 15619
▁AirAsia 15618
▁ft 15617
▁Totti 15613
ots 15611
▁5/5 15611
-05 15610
Sóc 15607
▁Johan 15607
▁bịu 15606
▁1950, 15604
▁Nord 15603
Gần 15601
orus 15600
▁Legend 15591
-2008, 15590
hing 15589
▁28/9 15588
ipes 15587
▁Paolo 15587
▁biếc 15584
▁Monroe 15583
▁gồ 15583
▁MBB 15581
Đống 15578
▁Jenner 15574
bach 15573
log 15573
Cây 15572
vietnam 15569
màu 15567
▁Hero 15562
oba 15561
cặp 15560
▁Dallas 15559
▁Fun 15559
▁trát 15557
▁đỉa 15556
obi 15555
-2008 15554
SH 15554
▁tho 15551
▁Future 15550
▁tệp 15550
▁Vietravel 15547
▁211 15546
▁loanh 15545
8%; 15544
▁Goo 15544
more 15540
▁phàng 15530
trich 15526
VA 15524
▁TOEFL 15524
▁1-7 15518
▁170.000 15516
chữ 15515
▁Allegri 15514
giết 15511
▁Display 15510
6%; 15508
▁Guillaume 15505
▁Bỏng 15504
▁Loew 15503
▁2016: 15502
3.0 15501
elin 15500
CI 15499
▁XSKT 15498
▁bịp 15498
▁Laptop 15497
▁dĩa 15495
▁khảm 15495
▁1966 15493
Or 15492
▁chửng 15491
▁ngỗng 15488
TTCP 15487
▁25/7 15487
▁Bryan 15486
▁nái 15485
ira 15484
▁Dáng 15483
ois 15480
▁Philips 15477
▁Triệt 15476
vị 15475
▁lặt 15475
▁Mats 15469
▁Cit 15468
▁Ara 15467
▁nhằng 15465
▁Rap 15464
▁1.201 15462
▁7,6 15460
THPT 15459
esc 15459
ât 15457
Petrotimes 15455
oro 15455
MN 15454
▁Silver 15453
▁hớn 15451
▁Kaw 15443
trả 15442
▁Olivier 15442
Rob 15440
/2019 15439
▁NY 15438
▁Sem 15437
▁Ric 15436
▁EPS 15434
▁NO 15434
▁22,5 15431
▁Bud 15431
▁Space 15430
▁gãi 15430
▁Ồ 15426
▁THUẾ 15425
▁Cau 15420
▁Sunny 15420
▁Riyadh 15419
▁Siri 15417
▁beng 15417
▁xoong 15416
▁12/3 15415
▁BCTC 15414
▁Riverside 15411
▁ĐÁNH 15410
▁Kyoto 15409
▁lỳ 15409
+3 15405
▁22/7 15404
▁4/4 15402
▁18/5 15401
▁Lặc 15399
▁Ruby 15399
gate 15398
8%), 15397
▁AU 15397
▁Doji 15394
▁Morsi 15391
-3, 15390
ANH 15389
3.3 15386
▁Story 15385
ICO 15384
buổi 15383
▁Hút 15383
▁6- 15381
stone 15380
▁True 15379
▁14/10 15378
▁28/2 15374
▁Cazorla 15371
▁...( 15370
▁4000 15370
▁Por 15366
SBD 15365
ùa 15360
▁Ezzor 15358
▁khiên 15356
▁Mozambique 15355
▁21: 15350
▁Đem 15349
▁(8) 15348
yt 15342
▁Ngươi 15341
▁đác 15341
Cam 15340
▁1993. 15339
▁thổn 15338
▁tuyền 15338
▁Charlotte 15336
▁giũ 15336
vel 15334
ward 15332
▁res 15332
đề 15329
▁Allianz 15329
▁12/4 15328
▁DU 15328
ữ 15326
▁Chiang 15326
▁Ther 15324
gà 15323
Bí 15322
Chẳng 15321
▁10/1 15319
Lời 15318
▁2), 15315
imb 15313
▁Joachim 15312
úp 15311
▁VIT 15310
▁0,10 15309
▁đượm 15309
chúng 15307
▁32% 15306
▁vựng 15305
▁12) 15304
▁Starbucks 15303
▁Eu 15300
boy 15298
▁Square 15295
▁this 15294
▁5/10 15292
▁TNVN 15291
▁Bow 15290
▁Sanders 15288
▁vơí 15288
▁ab 15284
▁huyên 15281
▁trám 15280
▁Arm 15279
III 15278
▁285 15278
▁Lead 15278
▁Bournemouth 15277
igan 15270
▁23/5 15269
▁8,3 15267
▁." 15263
▁Ghouta 15262
As 15260
▁KĐT 15260
▁Cass 15257
4%; 15253
▁Keane 15251
▁Pato 15251
aku 15250
▁chóp 15250
▁Vinacomin 15249
▁(51 15247
▁Pho 15247
▁Đẩu 15246
▁18/7 15244
▁Titan 15243
▁salon 15241
Cha 15239
hoa 15235
SL 15234
▁post 15234
▁Christine 15233
▁Hiếp 15231
▁2/2 15230
nê 15226
▁Nur 15225
▁1963, 15224
▁cụi 15222
▁item 15222
3%; 15220
▁teaser 15220
▁Dốc 15218
▁KHÁNH 15217
▁Straits 15217
DR 15216
▁25/9 15214
ness 15211
▁Uganda 15207
quin 15205
▁Aqu 15204
▁Bordeaux 15204
▁chiu 15203
л 15202
▁Sierra 15201
ason 15194
▁Mâm 15194
▁315 15190
▁2/4 15189
hen 15188
▁01/7 15188
.18 15187
nhiệm 15187
▁Aires 15185
▁Kagawa 15185
▁27/6 15184
▁Pham 15184
Giao 15182
Ả 15182
lip 15181
VE 15180
▁Chong 15180
Nhận 15179
▁Prince 15178
▁liếm 15175
▁Hiếm 15174
ares 15173
▁Roberts 15173
▁14/9 15171
▁17/12 15170
▁Diêu 15169
iên 15168
Tết 15166
▁CSKA 15166
▁Carey 15165
▁Bolt 15163
▁55. 15162
2%; 15160
ặng 15160
chip 15154
▁Melania 15153
▁.......... 15152
▁PGĐ 15152
fin 15150
iềm 15150
▁Bộc 15150
▁Muhammad 15148
▁(70 15146
▁Khedira 15136
Gò 15135
▁ngươì 15134
▁nhơ 15134
▁18/10 15129
▁23/4 15129
▁Ghost 15129
▁7/7 15127
▁1940 15124
▁Pradesh 15124
/2005, 15122
▁Mayweather 15122
▁tòng 15122
▁gáp 15121
▁Nùng 15120
▁5/9 15116
đây 15112
eno 15111
▁TTGT 15111
▁Bề 15105
▁19/4 15104
▁ghim 15104
Sp 15102
▁Bó 15099
▁rựa 15097
▁226 15092
▁Kaspersky 15087
▁8-10 15084
▁rên 15082
▁227 15081
▁1.19 15080
▁Fur 15080
Cola 15076
▁11/5 15075
.............. 15072
lands 15070
▁21/9 15069
▁Thoạt 15069
▁soda 15069
▁hip 15068
▁pen 15065
▁ĐTLA 15064
kan 15063
▁hám 15062
▁32.000 15060
-72 15059
▁khước 15058
▁Portsmouth 15056
▁Bit 15055
40. 15054
990.000 15047
▁28/7 15045
▁Tag 15045
tain 15042
▁Hard 15041
▁phảng 15041
4.0 15038
▁kham 15038
Kế 15035
▁VLXD 15034
▁Lov 15033
▁inter 15033
▁4/6 15032
ume 15025
-95 15021
chợ 15019
▁Cham 15018
pad 15017
▁1971 15015
▁Tommy 15015
▁Lãm 15014
WD 15013
▁02/ 15011
việc 15010
▁UK 15010
▁chãi 15010
▁31% 15009
▁Marina 15007
▁Ot 15007
phon 15006
▁sến 15003
▁tởm 14998
ael 14996
▁Felipe 14995
urn 14990
▁Hur 14987
ẹn 14985
▁214 14984
điên 14982
▁36% 14980
▁Seven 14980
▁Calderon 14976
▁Ria 14976
▁khư 14976
▁sên 14971
LHQ 14969
"! 14968
Vấn 14965
ough 14964
lov 14962
PP 14960
▁17/5 14960
chống 14958
▁2.4. 14958
dor 14954
iến 14952
▁Diaz 14951
▁Fletcher 14946
▁4/7 14945
SGGPO 14943
Net 14940
▁Gừng 14939
olin 14937
▁24/6 14936
▁279 14934
ùm 14932
▁Plan 14929
▁9/10 14923
▁Patriot 14922
▁Phẩm 14919
▁Shim 14915
▁your 14915
▁12/8 14914
▁Colin 14914
▁Gonzalez 14912
▁2017: 14911
iễn 14907
▁Kenny 14904
▁THƯỞNG 14902
80. 14900
▁2/9, 14900
▁mếu 14899
▁Nhạn 14898
CLB 14896
▁Pele 14896
▁1975. 14895
7- 14894
-2018. 14887
▁24/8 14887
▁Gon 14887
imes 14886
▁SR 14886
idium 14884
▁ĐS 14884
dar 14882
▁1962 14881
MV 14877
▁É 14874
▁khàn 14871
▁Adidas 14869
bat 14868
▁Pon 14868
▁Viv 14864
▁Ath 14857
ME 14855
▁hóng 14853
'? 14849
▁29/5 14848
▁Rat 14847
▁9/9 14845
▁ĐÀI 14845
▁Bayer 14844
utt 14842
▁Kum 14841
▁820 14839
▁Dennis 14838
ợt 14835
▁42% 14835
/195 14833
emon 14831
▁Chuck 14830
▁BỆNH 14829
Cố 14827
▁nịnh 14826
IL 14822
▁Thompson 14822
ennis 14820
via 14820
▁Fanpage 14819
Tự 14818
pur 14816
▁Bou 14814
▁9/11 14813
▁HSX 14813
▁hop 14813
▁Josh 14809
▁19/9 14807
.3, 14806
▁Natalie 14803
5.5 14801
▁QPR 14801
▁1/6, 14800
BO 14799
▁eBay 14799
-08 14798
oid 14798
▁Nad 14798
ạp 14794
▁24/5 14793
▁· 14792
-57 14791
▁Kì 14790
▁13/4 14787
▁Indochina 14786
ced 14784
ử 14783
▁13/10 14783
▁Bân 14783
▁Pel 14783
▁221 14781
▁28/5 14781
▁Lược 14780
▁Phìn 14780
▁Rê 14780
▁Ze 14779
▁PBGDPL 14774
pen 14770
▁Vardy 14769
iều 14768
▁16/9 14768
▁Virgin 14768
cướp 14765
òi 14765
▁Tun 14764
▁1982. 14760
▁7/9 14760
▁Lợn 14757
mười 14754
▁server 14754
▁láo 14752
uts 14751
▁228 14751
▁Luxury 14751
▁Buenos 14750
zen 14749
▁chồi 14746
▁Lotus 14743
▁Abhisit 14738
ẩy 14737
▁20/10, 14734
▁one 14731
▁dơ 14728
▁XVII 14727
▁(10) 14725
▁13/6 14725
▁234 14720
▁Pom 14719
ìa 14718
▁Hir 14718
▁Bee 14712
oop 14711
▁9/5 14705
day 14702
Lễ 14701
▁Đoòng 14701
hin 14699
▁THÁI 14698
▁soán 14688
▁Lille 14687
úi 14686
▁Celtic 14686
ants 14684
▁QU 14680
-130 14679
)./. 14678
▁xúm 14676
▁?? 14673
ames 14670
▁Nintendo 14668
▁458 14667
bí 14664
▁livestream 14664
.199 14662
▁Chặng 14662
▁lơi 14661
▁Atom 14660
▁Sào 14660
▁chíp 14660
▁MBA 14659
uchi 14658
▁Stanford 14658
▁670 14657
▁Bologna 14657
▁Cành 14657
ids 14655
Nha 14653
▁Iv 14651
sur 14650
▁Beta 14649
▁54. 14647
▁phàm 14647
▁Giỗ 14646
▁Janet 14645
▁Jer 14645
▁Gy 14643
▁lòe 14643
4%), 14637
▁710 14635
▁1.200.000 14634
▁Rin 14630
▁27/3 14627
▁Turin 14622
▁Jeju 14619
▁Jeremy 14619
▁Hẹn 14618
▁29/8 14614
▁490 14612
▁2015) 14611
BIDV 14606
▁Cre 14604
▁Maxim 14603
▁Parkson 14597
Sống 14595
▁Senegal 14594
▁Henderson 14593
▁6/3 14592
▁Spurs 14588
▁Adams 14587
▁Like 14585
▁MK 14584
▁(54 14583
▁Marin 14582
▁Claudio 14580
ĐS 14578
▁XDCB 14578
▁Saigontourist 14577
▁size 14577
▁cal 14575
▁Cand 14574
igo 14573
▁6-1 14571
Sẽ 14568
▁26/7 14567
▁ICT 14567
ỳ 14564
3%, 14563
▁1/5, 14562
▁sạ 14562
▁ỳ 14562
Sch 14557
ping 14553
tes 14552
▁1/3, 14550
▁KIỆN 14546
▁chửa 14545
▁Chèo 14544
▁LỊCH 14544
▁Trăm 14542
▁107° 14536
▁CCTV 14536
▁Vinhomes 14528
▁chớm 14527
7%, 14522
▁Bae 14522
So 14520
т 14519
60. 14518
3.8 14517
Liverpool 14517
▁marathon 14513
▁rặng 14512
▁3/3 14511
▁6/6 14504
bóng 14499
▁Caribe 14496
.20 14492
▁Byung 14491
anthus 14487
''. 14486
▁70%. 14485
Lưu 14479
▁Mikel 14475
▁Vanessa 14474
gn 14471
▁Mĩ 14471
▁Yangon 14469
▁20/11, 14465
▁11/7 14464
▁21/8 14462
▁Lauren 14461
▁Dã 14459
ape 14455
▁OCB 14449
.2010, 14448
▁30/9, 14448
lột 14443
▁525 14442
Nội 14440
▁Liv 14439
cul 14438
thầy 14437
▁4.1. 14437
▁Khôn 14437
▁ú 14437
đặt 14431
▁4.2. 14431
▁Huang 14431
▁CHXHCN 14430
▁trìu 14429
▁Tản 14428
▁Khăm 14426
▁Lis 14426
suất 14423
▁26/9 14422
phyllum 14421
▁Guy 14421
MD 14420
▁Sharon 14420
▁4.6 14419
▁Australian 14418
▁TTĐB 14418
▁gấc 14415
EE 14413
HH 14412
KN 14412
▁Blu 14410
▁Corolla 14410
▁Vientiane 14408
▁18/8 14407
▁Ferrer 14407
▁TRÚ 14406
▁Blog 14404
▁6,1 14403
pô 14402
▁750.000 14399
4). 14397
▁nhoi 14395
WS 14394
▁21.0 14393
▁Sagna 14393
▁11/4 14389
▁Tha 14386
uyên 14385
▁Anelka 14385
bro 14384
Chú 14379
VL 14379
▁(56 14376
▁21/5 14376
▁Bran 14376
▁nhím 14376
ức 14375
▁Pù 14375
otus 14372
▁LLVT 14369
ork 14366
▁Papua 14365
▁lủi 14363
Tâm 14362
xx 14361
▁Baker 14360
▁Bày 14360
▁vót 14359
▁5,0 14353
▁Alfred 14353
▁khố 14352
1.0 14346
▁Kob 14346
▁Point 14344
▁Razak 14344
▁SDF 14339
▁Din 14335
▁Erik 14335
▁PSV 14334
treo 14333
ground 14331
▁nig 14330
▁Drive 14329
▁mé 14329
▁20.8 14326
▁dec 14326
▁ĐÀ 14326
▁XÁC 14325
▁tưởi 14323
▁Electric 14322
▁Zalo 14322
▁cotton 14322
▁yểu 14322
▁Einstein 14321
00. 14320
▁5/1 14319
cắt 14317
light 14316
▁tày 14315
3%), 14314
▁Moss 14312
▁Rối 14311
▁19/3 14309
2%), 14307
▁13/3 14304
▁29/7 14303
▁780 14303
▁nhàu 14303
▁Rum 14302
▁nhám 14299
4%, 14298
iệu 14294
phố 14294
▁Kosovo 14293
▁lẹ 14292
▁Nhượng 14291
▁5/7 14290
Thay 14288
WA 14288
▁phước 14286
▁1-0. 14285
▁Lahm 14284
▁Vinatex 14284
STC 14283
▁5.4 14283
ếu 14282
▁3/5 14282
▁Pence 14281
▁kỉnh 14279
▁Bent 14275
▁lào 14275
▁SME 14273
▁Austr 14272
▁BSC 14271
▁bẽ 14270
iềng 14269
▁Oregon 14269
▁19/7 14267
▁Kao 14267
▁gươm 14266
▁399 14264
▁Apollo 14264
▁Ninja 14264
▁gấm 14260
▁mánh 14259
9- 14258
▁Chol 14258
▁Kindle 14258
▁nít 14256
▁31-12 14252
▁nhép 14252
▁12/1 14250
▁Oracle 14250
▁dốt 14249
Nghị 14248
.17 14247
▁Bô 14247
▁Hơi 14246
XT 14244
▁15/2 14243
đăng 14241
lê 14240
▁Chiên 14240
▁Nino 14240
Vi 14239
iếc 14239
▁10; 14238
▁Cồ 14238
▁HL 14236
ạy 14234
▁THIẾT 14234
▁Captain 14233
▁AUD 14232
▁7.0 14231
▁Nhổn 14229
▁Marshall 14226
▁xẩm 14226
▁Rafa 14224
song 14223
▁304 14223
▁09° 14222
▁30/6, 14222
▁Hua 14218
nt 14217
▁EV 14215
▁thím 14215
▁hục 14214
onic 14211
board 14210
▁9/3 14210
/2004, 14209
▁231 14209
-47 14208
▁VF 14207
"./. 14206
▁thẫn 14205
bão 14204
▁Last 14203
▁27/9 14202
▁HUD 14202
▁Beat 14197
▁Union 14197
cam 14196
ụp 14196
1.5 14195
▁Mistral 14195
eni 14192
▁1/4, 14191
▁9.1 14191
▁Rào 14188
-2012. 14187
cán 14187
▁63/2010/ 14187
evich 14185
Úc 14183
xit 14181
.250 14180
thiết 14180
▁1958 14179
Go 14178
Cẩm 14175
▁94, 14174
LE 14171
ẩm 14170
dioxin 14169
9%) 14167
▁Alberto 14167
▁Gol 14165
edo 14164
▁7/10 14161
6.5 14155
ism 14152
▁Class 14148
▁Brit 14147
8- 14146
▁UBTƯ 14146
get 14144
▁Philipp 14143
▁RO 14142
▁Ve 14139
▁Mách 14135
▁Discovery 14132
▁27/2 14131
▁Diva 14128
▁lạt 14126
▁Valley 14125
▁Bào 14124
▁THỨC 14122
▁2/5 14121
Vừa 14120
đồ 14120
▁2012: 14118
▁Cindy 14118
▁34% 14116
▁Luang 14111
tec 14109
.2012, 14102
▁7/1 14098
▁Gadhafi 14098
▁213 14092
▁Ward 14092
Kon 14091
▁108° 14090
▁Ice 14088
▁Salvador 14088
▁CCN 14086
▁Ramires 14086
▁Tựu 14086
▁13/5 14085
.12. 14079
▁Húc 14079
▁code 14078
▁nộm 14075
▁6-3 14072
▁Nit 14071
TTT 14069
6%, 14065
Giấy 14063
▁Hyo 14062
ahn 14061
▁Niệm 14060
▁XKLĐ 14060
▁13/8 14057
▁Row 14057
▁NHK 14056
▁Was 14054
▁HỒNG 14053
▁Settings 14052
UAE 14049
▁CẤU 14047
▁ngoảnh 14046
▁xéo 14046
▁21/7 14045
Quỳnh 14043
▁Nav 14043
▁Buk 14042
-49 14041
▁Pearl 14041
▁Phì 14041
duc 14040
lao 14040
▁Xabi 14040
▁108, 14035
▁24/9 14034
▁Panda 14034
▁0,03 14033
▁Gốm 14029
.2015 14028
▁Daewoo 14025
▁Mass 14025
▁219 14023
▁242 14022
▁Sandra 14022
▁Led 14020
Nghe 14019
chú 14019
▁930 14016
ogo 14015
ios 14012
▁Hello 14012
▁Mí 14009
este 14008
▁Philadelphia 14008
dài 14006
▁GE 14006
▁Shakhtar 14006
▁Mit 13999
▁But 13998
Na 13996
▁Zenfone 13991
0,5 13990
▁Cloud 13990
▁OK 13987
rum 13986
▁Kwon 13986
▁SBJ 13986
Phóng 13985
▁1963 13983
▁OGC 13982
▁Nancy 13979
▁Dead 13978
TCHQ 13977
Trái 13977
▁5,9 13977
▁Bền 13977
▁Dual 13974
▁ACV 13972
▁264 13971
▁Woman 13966
.2017 13961
▁toi 13960
cứu 13956
▁denim 13956
▁nhè 13956
▁375 13954
▁Dylan 13952
4%. 13950
▁Hindu 13950
ão 13944
inder 13943
▁offline 13943
▁0,20 13942
▁Ucraina 13941
▁229 13936
▁IPU 13933
▁VINA 13932
▁14/7 13931
▁Oánh 13928
▁COC 13927
▁Malta 13925
▁back 13920
▁Phàm 13919
Book 13917
esa 13917
▁enzyme 13917
▁Nevada 13916
▁Rông 13916
▁hatchback 13913
▁Um 13909
▁Clasico 13908
▁NGUỒN 13906
▁IE 13904
5- 13901
▁1970. 13901
▁8/10 13901
▁Maryland 13901
OL 13900
ivo 13900
Ex 13896
▁Cadillac 13892
may 13890
how 13881
▁Under 13881
▁NGHỀ 13878
▁KBS 13875
▁SHS 13870
▁Classic 13868
.2013 13865
Italy 13865
mus 13863
▁Mes 13863
truyền 13862
▁Sevastopol 13860
▁Family 13859
▁38% 13855
▁Januzaj 13853
alan 13850
▁30-40 13850
▁5.8 13849
▁Bil 13849
▁Dustin 13846
tv 13842
▁11/9, 13842
▁ĐHĐCĐ 13841
hội 13840
tera 13838
▁AAA 13838
▁TIẾN 13837
▁Mariah 13836
▁Party 13836
-04 13835
▁Bum 13835
▁dúi 13835
uth 13834
▁Mkhitaryan 13833
▁Sỏi 13825
Sài 13824
▁Kè 13821
▁Rus 13820
▁Huê 13818
▁Scarlett 13818
▁Soon 13816
▁Kiatisak 13815
▁xilanh 13815
▁Andres 13813
ợi 13811
ident 13810
▁Diesel 13810
▁Milner 13810
▁Koscielny 13807
▁Sofia 13807
7%. 13806
▁19,5 13806
giống 13803
▁830 13802
▁serie 13800
Chắc 13797
mang 13797
▁3.3. 13797
▁5/8 13796
Miss 13795
▁nit 13795
urt 13792
▁1/7, 13789
▁............ 13786
▁MWC 13786
▁Kyi 13785
▁Mallorca 13784
Ó 13779
▁18/9 13778
zone 13777
▁Linda 13775
▁104° 13772
▁thẫm 13772
▁Kình 13770
▁xẻng 13769
▁lổ 13768
▁16/8 13766
▁6,9 13763
▁58. 13760
ages 13758
Lực 13750
▁Whi 13749
Dragon 13748
▁GA 13741
ovo 13739
▁9/1 13737
▁cặm 13737
▁Trọn 13735
ario 13733
▁Yết 13733
▁Nấu 13730
-03 13728
PVN 13726
Cứ 13722
▁Xoay 13722
ỗng 13721
săn 13719
▁CHUYÊN 13718
▁8.500 13716
▁Ẩm 13716
▁56. 13715
▁Steel 13713
▁Joan 13712
▁Tiệm 13711
125 13710
▁Dz 13710
▁Tiện 13709
Ang 13707
char 13705
▁Deutsche 13704
▁Torino 13704
▁401 13703
▁Phoenix 13702
ulata 13699
▁GMT 13698
lay 13697
▁Lấp 13694
▁60. 13692
▁nghiễm 13692
Thổ 13690
▁ES 13689
▁Gay 13689
▁1959, 13686
▁Delta 13686
RP 13683
▁VĨNH 13682
Sản 13681
gg 13681
▁57. 13681
Thủy 13680
▁WEF 13680
▁inh 13679
▁cat 13678
▁Academy 13677
▁Cir 13677
ific 13676
▁Falko 13676
▁Chưởng 13674
▁PE 13674
xử 13673
▁2005; 13673
▁Hab 13672
▁25/2 13668
▁SB 13662
▁Pictures 13661
▁Reus 13661
▁11/6 13660
▁Hiroshima 13659
▁Ngu 13658
▁23/12 13656
▁Pun 13655
-2011. 13653
bàn 13652
▁Vancouver 13651
▁Liberia 13650
▁ngụm 13650
6.0 13647
▁Oxy 13647
▁Over 13646
▁vèo 13644
quý 13642
▁nghê 13640
Bằng 13638
▁Bực 13636
▁bim 13636
QS 13635
ưới 13635
▁Sas 13634
TKCN 13633
eiro 13633
▁Eiffel 13627
▁3-3 13626
▁rứt 13625
▁Spark 13622
▁Sáp 13621
▁cộc 13619
TCT 13616
thể 13616
tái 13616
▁Hunter 13616
▁hù 13609
odium 13604
fish 13603
▁4/10 13603
▁11/10 13601
▁Romeo 13599
▁khoải 13598
▁Arkansas 13596
▁Quanh 13596
▁nơm 13595
ogen 13592
▁ĐỂ 13592
▁PET 13591
▁nấng 13591
▁Dig 13586
▁MÁY 13583
.2011 13581
oan 13581
▁VNR 13581
▁220.000 13580
áu 13577
’ 13576
▁phập 13575
Vị 13574
▁Hư 13568
Thiếu 13565
▁Ủng 13564
▁Data 13563
▁5.3 13562
▁Interfax 13561
▁Asean 13560
▁trạch 13557
▁Oil 13555
kar 13554
▁loạng 13553
▁Vir 13552
cháy 13550
▁Beg 13549
▁Ge 13549
OO 13545
▁Mitt 13541
▁2/ 13536
Toquoc 13535
▁Julio 13534
▁Lùng 13530
▁27/5 13529
key 13528
pro 13528
itan 13527
▁Lak 13527
bs 13526
rier 13526
▁Giản 13526
▁Toy 13525
Sham 13520
▁Giấu 13519
▁PN 13519
▁Milito 13517
▁McK 13516
▁Ngầm 13516
▁Latakia 13508
▁Tán 13507
Mobile 13506
▁Kab 13505
Sc 13504
9.5 13503
▁36.000 13499
▁Mệnh 13499
Bo 13498
▁chợp 13497
▁phung 13495
▁80%. 13493
▁Noi 13492
▁VLNCN 13492
▁Active 13490
▁20/2 13488
yong 13486
▁RC 13483
▁Gợi 13481
▁Maj 13481
À 13478
▁XVIII 13477
Trao 13475
▁43% 13473
▁móp 13473
FBI 13469
▁Bing 13468
▁61% 13466
▁Caroline 13464
▁Szczesny 13464
▁PLVN 13462
đổ 13461
▁Đun 13461
▁Toan 13460
▁thoạt 13460
▁bự 13457
▁90. 13455
▁dẹt 13455
▁VietJet 13454
des 13451
▁31/1 13451
MU 13449
▁6/10 13449
▁Veyron 13449
+. 13447
▁Franklin 13447
Men 13442
▁Vill 13442
mond 13439
▁1.23 13437
ờng 13434
▁Review 13434
▁TRANG 13434
▁ob 13432
▁mống 13431
hiệp 13428
idaceae 13425
▁DDR 13417
3.7 13415
▁13/7 13415
▁guốc 13415
▁Nistelrooy 13413
▁40%, 13412
▁rinh 13412
Hoài 13409
▁Leg 13408
▁Bỉm 13407
▁Eur 13407
ols 13405
▁2013: 13405
▁Búp 13405
▁Beast 13403
▁NFC 13401
▁ĐẠO 13400
▁Marine 13398
▁í 13393
▁Tốn 13392
▁lọn 13391
ADB 13386
▁Tablet 13386
▁Điệu 13386
▁nhúc 13384
▁90%. 13382
▁IB 13377
say 13376
oco 13375
▁Sunrise 13375
ỉnh 13373
▁vầng 13373
▁Thốt 13372
▁Simpson 13370
▁Bry 13369
omi 13368
ệt 13368
▁Flores 13365
▁Hận 13365
▁Nang 13365
etro 13364
Online 13363
ega 13363
▁Vettel 13360
▁tâng 13360
arat 13358
thuốc 13357
▁Sán 13357
▁17: 13356
sử 13354
▁Shu 13353
▁VJ 13353
/194 13352
▁1958, 13352
▁17/9 13344
▁thỉ 13341
▁Jeon 13339
vers 13338
▁252 13337
Ser 13332
▁0,4% 13332
▁6,5% 13331
▁1959 13330
▁Xiêm 13330
▁2020: 13329
▁Lop 13323
▁7/11 13321
380 13318
▁Brun 13314
▁GMD 13313
▁Robinson 13312
ấc 13310
▁DM 13310
arius 13309
▁bluechip 13307
▁XUÂN 13305
▁hoen 13305
▁Deschamps 13303
▁295 13299
ộn 13298
▁Aspire 13298
▁ĐÍCH 13290
▁Xạ 13288
ites 13287
▁2025. 13284
sốt 13283
▁*** 13283
▁Giỏi 13282
▁LHTN 13279
▁nán 13279
Tối 13277
888 13276
▁Rev 13275
▁Made 13269
▁Detroit 13267
▁nghía 13267
house 13266
▁trừu 13264
▁6/12 13258
▁GSM 13258
▁Report 13257
imo 13255
phá 13255
ãng 13250
▁Madagascar 13250
RR 13248
tư 13247
▁hẹ 13246
▁1/11, 13243
▁1988. 13241
agen 13237
▁20,5 13235
ball 13234
▁8/1 13233
▁Luka 13233
▁Centre 13232
TƯ 13231
iber 13231
▁Batman 13230
kham 13226
▁TCCN 13224
▁3.800 13223
▁4-3 13223
▁Amanda 13223
▁Ble 13221
▁crossover 13219
3%. 13218
▁KHÁC 13217
▁(4, 13216
chuẩn 13214
▁Dum 13214
bus 13213
1%) 13212
Phone 13210
▁8.0 13210
▁Leeds 13208
cap 13207
▁Service 13207
▁Tru 13207
▁Stars 13206
nhận 13203
aur 13201
▁thóp 13200
CTCK 13199
▁6-4 13195
kế 13194
▁lõa 13193
▁1.20 13192
▁5/12 13191
▁6/5 13191
acy 13188
▁Suu 13187
▁xuể 13185
▁Continental 13183
▁Toại 13178
▁Margaret 13175
▁Vis 13175
7.5 13174
▁Tè 13172
▁shopping 13171
▁Phiêu 13169
▁Islamabad 13167
▁305 13166
hỗ 13159
Đĩa 13158
▁Alzheimer 13158
▁Kry 13157
▁6/7 13155
▁Buy 13155
▁25/1 13154
▁Montenegro 13153
▁SCTV 13152
▁Gangnam 13150
▁khập 13150
ặm 13149
▁15/4, 13147
▁Bhutan 13146
▁SCR 13146
▁Concept 13143
▁With 13143
mart 13134
point 13132
▁298 13129
▁nhưỡng 13128
▁phiếm 13128
6%. 13127
▁Bitexco 13127
▁37% 13126
▁2009; 13124
▁Gel 13122
▁lóa 13122
és 13121
▁trứ 13119
/2003, 13118
▁14/8 13116
ns 13115
ür 13114
▁Altis 13114
▁Kobe 13114
▁đẽo 13110
zz 13107
▁Ec 13107
idia 13106
▁Ruồi 13106
EV 13104
set 13104
▁mar 13100
▁10/3, 13097
▁Dic 13097
▁6/11 13096
▁1/10, 13093
-07 13091
cụ 13091
phen 13091
skaya 13091
▁Riềng 13089
▁CNH 13086
sin 13084
▁Make 13084
▁Bìa 13083
▁10,0 13082
▁nớp 13081
▁BVSC 13079
▁Mia 13079
athi 13076
ono 13076
phân 13072
▁249 13071
▁22/8 13069
▁BTCT 13068
less 13065
▁6/8 13064
▁Andr 13064
Ma 13063
▁53. 13061
ằm 13058
▁Austin 13058
▁KTX 13058
▁cacbon 13056
▁VinaCapital 13055
▁Deep 13054
▁YG 13054
ather 13053
phương 13053
▁Khiêu 13053
elo 13052
▁Fly 13052
▁Dâng 13047
▁Thierry 13046
▁photoshop 13038
▁PVP 13036
▁15/5, 13035
Mấy 13032
▁Software 13031
▁rợp 13031
VietPostBank 13030
uf 13029
▁VK 13029
▁1.11 13028
▁Haram 13028
▁NTC 13028
▁4/11 13026
▁Tet 13026
▁Gray 13025
# 13024
Chia 13023
câu 13023
< 13022
▁1.4. 13021
▁Bạt 13021
▁Phillip 13021
7.0 13020
▁23/8 13017
▁Sup 13017
▁7/4 13016
6). 13014
8%/ 13013
▁lạp 13013
▁2001; 13012
▁6-2, 13011
▁Piero 13011
med 13010
giáp 13009
hậu 13009
▁Kịp 13009
▁Huffington 13007
▁Carvalho 13001
▁voucher 12998
▁ballet 12997
▁26/8 12996
▁HMS 12996
▁23/7 12994
▁1961 12993
nhập 12991
▁22: 12991
▁LƯU 12991
▁Lắm 12987
▁náy 12987
▁đìa 12986
▁7/12 12984
▁Expo 12984
▁10/2 12983
▁2/10 12983
▁Mode 12983
raz 12980
▁Dim 12979
▁Toshiya 12979
001 12977
▁Tiếu 12974
edi 12970
▁Liam 12969
▁(6, 12968
anga 12966
islav 12964
HO 12963
▁Rằng 12963
▁ngò 12962
▁Berdych 12959
cần 12958
quân 12958
▁dó 12958
▁VQG 12956
▁nôm 12956
▁5/4 12951
▁7/3 12946
▁Ivanka 12944
mun 12943
▁3.400 12943
▁Zinedine 12943
▁Arn 12941
gio 12939
ether 12937
▁Lil 12934
▁Dãy 12933
▁TÍNH 12933
▁Vuitton 12928
▁Bắn 12926
▁6/2 12925
▁vông 12922
iller 12921
▁Chuông 12918
▁Cưới 12916
▁Đành 12916
▁Bet 12915
▁KC 12914
▁xơi 12914
▁PlayStation 12913
chẳng 12911
▁258 12911
▁Ấu 12910
▁Manh 12909
▁Sex 12907
▁Greg 12905
▁mãng 12905
▁Mép 12903
▁Magic 12902
▁TO 12901
▁Mân 12897
▁345 12895
▁Scandal 12894
▁ĐÌNH 12893
ous 12892
Đôi 12892
▁SARS 12892
SO 12890
lim 12887
vũ 12887
▁uế 12887
▁2/6 12886
▁Thùng 12885
Vin 12884
▁1.15 12884
▁Map 12884
▁BTCN 12881
▁Comex 12880
▁6/3, 12877
▁17/1 12876
▁Gau 12874
thảm 12873
▁Foster 12872
▁thố 12872
321 12870
▁115, 12867
▁Hom 12866
▁phủi 12866
▁tiều 12866
▁15/9, 12865
▁BigC 12863
▁Kap 12863
▁1956 12862
2000 12861
▁Bean 12861
Ste 12860
▁núc 12857
8.5 12848
bìa 12848
king 12848
▁Rủi 12848
nghi 12847
▁3/6 12842
▁sắng 12841
Kể 12840
ku 12840
▁Ác 12840
/200 12834
,00 12833
▁67. 12833
▁xộc 12832
▁THIÊN 12827
▁Cont 12826
▁nhuốm 12825
iner 12823
▁HU 12823
ilk 12822
▁England 12822
ổn 12820
▁FTSE 12820
mùng 12818
Kahn 12817
▁1986. 12816
▁Tí 12816
▁Trù 12815
▁248 12814
▁Cry 12814
iles 12812
▁MO 12811
▁LTS 12810
▁scan 12808
tam 12807
▁Andrei 12807
▁PLA 12807
trắng 12801
▁Blind 12801
40, 12800
▁TPCN 12800
▁1961, 12798
▁Jacques 12796
▁áy 12796
▁What 12793
kỹ 12792
vật 12791
▁10-12 12789
▁(?). 12788
Cty 12787
▁4,0 12785
▁Heo 12783
▁Bơ 12781
Bóng 12780
▁2,5% 12780
▁Lad 12778
▁Mạo 12778
▁QN 12777
▁Morocco 12776
▁Complex 12775
▁8.3 12773
▁giắc 12769
▁nõn 12769
inc 12766
▁Mans 12766
▁Olympiakos 12764
trẻ 12763
▁VSD 12757
▁4.0. 12756
.2018, 12752
▁241 12752
▁ĐV 12748
tho 12747
▁15/11, 12747
▁Mess 12747
▁Rec 12745
▁Antoine 12744
▁VFA 12744
▁Recep 12743
▁Sinai 12743
▁232 12739
▁7/8 12737
▁Haiyan 12736
▁CHỐNG 12735
Be 12734
▁5/3 12732
▁lòi 12732
ı 12731
▁113, 12731
▁Quái 12731
▁bl 12731
▁vin 12731
▁Flynn 12729
5.7 12728
▁ngoặc 12722
▁gặng 12721
▁44% 12716
▁Anders 12716
▁Bast 12716
▁Mom 12716
▁Dang 12713
▁Quick 12713
2011 12712
▁Fuji 12712
▁Yen 12712
▁(9) 12710
▁Collins 12708
▁ZTE 12707
▁môt 12706
▁13/12 12705
▁Ấm 12705
▁Player 12701
▁cầy 12699
▁dền 12698
rav 12696
▁Age 12695
▁Brendan 12695
sy 12693
▁590 12693
ahl 12692
▁nượp 12691
▁voọc 12689
▁240.000 12688
▁Nại 12687
ible 12685
Tư 12684
▁3-6 12681
▁Nghịch 12680
Lu 12675
▁Brothers 12674
▁ợ 12674
▁15: 12673
▁nhòe 12673
▁HoSE 12672
▁21/2 12668
Thấy 12667
ope 12667
ente 12665
▁Roh 12663
▁Haute 12662
▁dà 12661
▁16/1 12658
▁Kylie 12657
▁Plasma 12656
▁tuất 12655
▁Zaragoza 12653
▁gẫm 12653
▁DiCaprio 12652
▁); 12651
▁3/7 12649
▁Kendall 12647
▁6-2 12646
▁6/9 12642
tern 12641
▁15%, 12640
▁uể 12640
▁14/1 12639
Kẻ 12638
▁Giã 12637
▁Đẳng 12635
▁247 12634
Tương 12631
Cộng 12630
Thượng 12629
▁Khuyên 12629
▁Pao 12627
▁8,8 12626
▁112, 12625
▁Mou 12624
▁Depay 12623
▁Wo 12623
▁5.7 12620
Ag 12619
▁Cot 12619
▁Gur 12617
oom 12616
▁Henri 12615
▁gòn 12615
▁238 12614
▁Nielsen 12614
▁(58 12609
▁chờn 12609
▁Cua 12608
▁ÁP 12608
Khách 12605
▁7/5, 12605
▁Pand 12604
▁Giọt 12603
▁34.000 12602
▁Chrysler 12599
▁Crưm 12598
Đánh 12597
▁2015-2020 12597
▁VHNT 12593
▁Volvo 12592
Bayern 12588
▁Ras 12587
▁Comey 12585
Chúc 12582
My 12582
▁đọa 12580
▁Cagliari 12579
▁Duma 12579
▁11/1 12578
▁CAN 12576
▁Kham 12576
▁Havana 12573
▁11/3, 12572
/1997 12571
▁246 12567
▁news 12565
▁5-1 12564
thua 12563
GM 12558
▁UNCLOS 12556
yeon 12555
▁Ton 12554
▁event 12554
▁nườm 12552
▁8,2 12550
▁13/9 12549
gái 12547
▁1/2000 12547
▁Zurich 12547
▁Safari 12546
▁liềm 12546
▁Meh 12544
▁8/4 12543
▁Lazada 12543
▁dúm 12540
▁2,00 12536
▁hách 12536
▁Vắng 12535
▁Cháo 12534
▁Bour 12533
▁20/3, 12532
acc 12530
▁Dave 12529
▁13/1 12528
▁RF 12528
▁tweet 12527
▁xòa 12526
▁Suthep 12525
▁WTA 12524
ako 12523
▁Joel 12522
▁4.800 12521
▁Hựu 12520
▁rượi 12519
▁ximăng 12519
ẳn 12517
▁Chievo 12517
eline 12516
▁8/6 12516
▁KÈM 12515
▁Nixon 12515
▁21,5 12514
▁PHẢN 12512
▁22/2 12511
▁333 12511
chặt 12510
sung 12509
▁Boko 12509
Ỏ 12508
▁KD 12508
Hz 12507
▁diếp 12507
1.8 12505
30- 12505
▁Keith 12505
▁60%. 12503
▁khiễng 12503
chel 12502
oga 12500
▁Cafe 12498
▁47% 12497
▁SCB 12497
▁compact 12497
/2011) 12492
▁Rouhani 12492
▁Zenit 12492
▁Dean 12487
bur 12486
▁Nas 12486
▁4/1 12480
▁70%, 12479
▁Year 12479
▁Heat 12477
▁TÌNH 12475
▁11/8 12474
▁15/3, 12472
ë 12471
iếm 12470
▁4/3 12470
» 12469
75% 12465
▁Aegis 12464
720 12462
▁BỎ 12462
▁26/2 12461
▁PCN 12460
▁tuốt 12460
............. 12459
▁Tia 12458
Phi 12457
YT 12457
▁Bavaria 12454
▁760 12452
▁hênh 12452
▁Điêu 12451
▁thiển 12449
Hướng 12447
▁6,0 12446
▁Niêm 12446
▁52% 12445
ộng 12443
202 12442
ECO 12442
ful 12442
▁20.000.000 12441
ỗi 12440
▁Fi 12440
▁Dry 12439
One 12438
▁110, 12437
▁ngoa 12437
CIA 12436
ẾT 12436
▁LT 12436
▁15/10, 12435
▁bass 12435
▁CSDL 12434
▁÷ 12434
ỵ 12431
▁Shakira 12431
▁18/2 12429
▁3-0. 12426
▁22/1 12423
7). 12422
▁Granada 12419
▁29% 12418
▁650.000 12416
▁Hoảng 12414
▁nanh 12414
▁Suzy 12411
ươi 12410
▁5/11 12408
▁2021. 12406
▁Sag 12405
▁"... 12402
▁Mỵ 12400
-06 12399
▁Sus 12399
▁gôn 12397
bak 12395
▁8/9 12394
sức 12393
▁12/2 12391
▁9,7 12390
▁mảy 12390
Huy 12389
aks 12388
▁Gốc 12387
▁Sốc 12387
▁đoản 12386
▁10/10, 12383
lis 12381
▁2022 12381
▁Aleks 12381
▁gờ 12381
▁0,04 12379
▁khêu 12378
sai 12377
▁Giuộc 12377
▁tone 12377
▁Kent 12376
▁Beau 12375
▁will 12374
▁8/11, 12373
▁Seedorf 12372
850 12368
▁(57 12368
Sức 12367
▁2013) 12364
▁22/5, 12364
▁Mít 12364
▁sur 12364
▁DSLR 12362
▁Caribbean 12361
▁CÁ 12361
Cười 12360
▁40-50 12360
lee 12358
đo 12358
▁Mandzukic 12358
▁Cày 12356
HAGL 12354
raft 12353
▁tab 12351
▁Florence 12348
▁Rogers 12347
101 12344
▁Lài 12343
▁Karen 12340
▁7,4 12337
▁Franco 12336
-36 12335
▁Bloom 12334
Phía 12333
lợi 12332
▁Special 12330
▁Symbian 12330
▁Adobe 12329
▁48% 12328
▁770 12328
▁223 12325
óa 12324
biz 12323
▁DongA 12321
▁Robbie 12319
▁TRÍ 12312
▁cac 12310
▁CHÂU 12306
ude 12304
▁1.12 12304
▁97% 12303
▁Equ 12303
▁Jonas 12302
▁Storm 12302
▁Rand 12301
▁cạm 12300
▁siêng 12300
▁Ling 12299
▁Dhabi 12298
▁sushi 12297
▁6-8 12296
▁Murphy 12295
Lee 12294
bảng 12294
diện 12293
▁hói 12293
▁Dực 12292
▁19/5, 12290
▁70. 12289
▁9/11, 12288
aver 12287
▁1.05 12287
▁27/8 12287
▁7,9 12285
▁México 12285
▁ứa 12285
/1995 12283
▁Varane 12283
330 12282
▁Soobin 12280
............... 12279
▁Ellen 12277
Barcelona 12274
Vương 12274
9%), 12269
▁Pri 12268
▁Sìn 12267
▁Gành 12265
▁moóc 12264
▁2/12 12263
▁103, 12258
▁muồi 12258
▁747 12257
aza 12256
▁TRUYỀN 12254
▁Ossetia 12252
9). 12249
trực 12248
▁netbook 12248
▁31/3, 12247
▁Tệ 12245
▁1.13 12244
▁Spring 12242
▁FDA 12239
▁Hybrid 12239
▁Đãng 12237
nhan 12236
▁(80 12236
Riêng 12235
▁8/12 12234
▁Fiat 12234
/1993 12233
▁phẩy 12232
▁2011) 12228
▁PPC 12226
Bl 12223
Truyền 12219
KA 12218
▁62. 12217
▁Atlanta 12216
▁thồ 12216
cầm 12215
▁Bio 12215
▁NNVN 12215
▁Pit 12215
Trà 12214
▁sal 12212
yang 12211
▁vacxin 12209
▁socola 12208
TL 12207
vit 12207
▁3/10 12205
iểu 12203
▁hotline 12202
▁Mendes 12201
ches 12200
▁Tajikistan 12200
igu 12199
Tu 12198
âng 12197
▁mền 12197
Hợp 12196
▁335 12196
▁Vaio 12195
▁Baggio 12193
▁9/12 12192
-2000 12189
2%, 12189
ipe 12188
▁10.2 12188
▁Lennon 12188
▁Liban 12186
▁đăm 12186
/1994 12185
0,00 12184
▁Gul 12183
▁trấu 12182
AB 12180
▁1960. 12180
▁rói 12180
Nơi 12179
Thạch 12178
▁233 12178
PI 12174
lar 12170
▁Vid 12170
▁Berg 12169
uya 12168
èm 12164
▁Nvidia 12164
▁mỏm 12163
BB 12161
UY 12160
▁5-0 12160
▁gợn 12158
▁2012) 12157
▁Eduardo 12157
▁Beo 12153
iter 12152
hyun 12151
▁Trudeau 12149
món 12148
kiểm 12147
▁251 12147
▁59. 12147
▁Shayk 12146
▁16/4, 12145
▁299 12145
chứng 12144
▁267 12143
idd 12142
▁Gab 12142
▁Bass 12141
▁Math 12138
▁Roi 12137
▁Libăng 12136
▁308 12135
▁Rằm 12134
▁ngấn 12133
▁910 12131
▁BMP 12130
▁Đản 12130
▁Carroll 12129
real 12128
ych 12126
aldo 12123
▁Weekly 12123
oman 12122
▁Accord 12122
8.0 12119
▁Stein 12117
▁272 12116
▁Arnold 12116
▁Gánh 12116
▁nhoài 12115
▁Shar 12114
ean 12113
▁Tong 12113
▁Bengal 12112
▁VL 12112
▁12,7 12111
▁Đak 12110
▁rì 12108
ẹp 12106
▁gh 12106
SDF 12105
▁Hamid 12102
▁7,7 12101
list 12100
▁1942 12099
▁Blancos 12099
ating 12098
▁Wozniacki 12098
▁dr 12097
▁Systems 12093
▁Johansson 12089
▁pr 12089
VS 12088
/1996 12086
▁Nina 12086
ayev 12085
4.2 12081
▁Orange 12081
▁Aniston 12080
▁5.6 12079
▁9/3, 12078
▁CGV 12078
▁VGA 12077
▁magiê 12075
▁Cisco 12074
▁Nicholas 12072
▁46% 12070
esi 12069
ũng 12069
▁Ths 12069
▁23: 12068
▁DR 12068
9%; 12065
▁1947 12065
▁ừ 12065
▁nhại 12062
▁Florentino 12059
▁Webb 12059
Pháo 12058
▁21/1 12058
▁Mận 12058
▁Taekwondo 12056
Trả 12055
Bao 12054
▁CÁN 12054
biệt 12052
▁RX 12052
1%; 12051
mét 12051
▁Hudson 12051
▁5.200 12050
▁Stefan 12050
▁cor 12050
aren 12049
▁12/10, 12048
▁Andreas 12048
▁30/11, 12046
▁Verizon 12045
eed 12044
▁Diều 12044
▁33.000 12043
▁Miếng 12042
nghệ 12041
▁TRẤN 12041
usta 12040
GV 12038
▁Mix 12038
▁24/3, 12035
rio 12034
▁274 12031
▁Unilever 12031
510 12030
Khoa 12027
Âu 12023
▁INS 12023
Lo 12022
▁pastel 12021
osus 12020
▁Sahara 12020
11, 12015
TSKH 12015
miền 12013
▁Trắc 12013
▁vịn 12013
▁Lot 12008
▁chồm 12007
▁17/3, 12006
▁19/6/2015; 12006
▁16/10, 12005
CNTT 12001
lạ 12001
▁Rab 12001
Tìm 11998
▁Forlan 11998
opmart 11995
▁21.2 11994
▁UNICEF 11993
▁24/7, 11992
▁0-100 11991
▁9.2 11989
▁Naomi 11986
▁Sapporo 11986
▁Sô 11986
▁Tiffany 11985
tus 11983
▁khò 11983
/2001, 11980
atia 11980
▁Ferr 11980
▁Pir 11979
▁xốc 11979
▁Karzai 11978
▁LẠI 11977
rys 11975
▁IPv 11973
▁quyệt 11973
▁Tánh 11972
Quá 11969
▁QT 11969
▁Chat 11968
▁8/5 11967
kel 11965
▁31/10, 11965
▁Giuseppe 11965
elly 11963
▁lết 11963
Bàn 11961
▁ATVSLĐ 11960
▁Lif 11960
.2) 11959
▁Rốt 11959
▁lợm 11958
Pad 11956
:30: 11953
▁Pia 11953
▁Jul 11951
▁Julie 11951
▁10/11, 11943
▁41% 11941
▁Heineken 11941
▁Gangwon 11939
agon 11933
▁Sant 11927
▁TTC 11927
▁23/3, 11926
ree 11925
▁2009) 11924
nô 11922
Se 11920
▁Armstrong 11920
▁2/11 11919
▁111, 11918
▁XÉT 11917
▁rec 11916
▁2/8 11915
Mua 11914
▁Fernandez 11912
▁Hague 11912
▁Concert 11911
▁Foxconn 11910
▁3.700 11909
atar 11906
▁10/4, 11905
▁7,1 11902
▁768 11902
▁Tắt 11902
bật 11900
▁288 11900
▁SOS 11900
▁Snow 11900
▁2%. 11898
▁3/1 11898
quyền 11897
ười 11897
▁HIỂM 11897
Bar 11896
8%, 11895
▁BO 11894
▁1,15 11893
▁Cay 11893
Max 11892
▁sandal 11892
▁2008; 11887
nie 11886
ries 11886
▁lợ 11886
▁KK 11885
▁carat 11883
▁Tụi 11882
tạo 11881
▁7/2 11881
▁Conf 11881
▁tửu 11879
▁3/9 11876
▁mascara 11876
▁EOS 11875
▁Ngâm 11873
▁2014) 11870
▁Caracas 11869
▁PX 11869
▁folic 11868
▁EP 11867
▁14/3, 11866
▁2.10 11866
▁Ớt 11865
▁Sumatra 11864
▁Pác 11862
▁Winter 11862
▁sậm 11862
▁Choáng 11861
▁Nin 11861
▁3/2, 11860
▁Soul 11860
his 11859
▁Iz 11859
pot 11858
sson 11856
▁mag 11856
ỀN 11855
olia 11854
▁Fansipan 11853
ethyl 11850
ér 11850
▁Hathaway 11849
▁sỏ 11848
UR 11847
▁cói 11847
Đạo 11844
▁_ 11841
▁Uẩn 11840
▁920 11839
▁Movie 11839
!! 11838
post 11837
▁Angkor 11832
agi 11831
ùn 11831
▁Chlor 11831
▁xó 11830
▁1.16 11828
▁Alabama 11828
oka 11826
▁Herald 11825
▁Moldova 11823
▁art 11823
▁11) 11821
▁18/3, 11820
▁26/3, 11819
FE 11816
5+1 11815
đốt 11815
▁Kashmir 11814
▁Lucy 11812
ụi 11808
▁Cola 11807
▁Duật 11807
aru 11806
▁1989. 11805
▁Malacca 11805
9.0 11804
đun 11804
▁chuốc 11804
▁625 11801
▁Kad 11800
ảm 11799
▁bẹ 11799
ỏa 11798
▁gàu 11797
ẤT 11794
▁425 11793
▁NGOÀI 11792
ọn 11789
▁TÀU 11787
▁Kris 11786
▁ngan 11786
amo 11785
▁QZ 11785
ø 11784
▁Reading 11782
▁Hebdo 11781
▁Đới 11776
▁20/4, 11775
▁268 11774
▁bĩnh 11770
Tuần 11769
aven 11768
gl 11768
▁Mob 11768
▁nhe 11766
▁q 11766
ngồi 11764
▁Amber 11764
▁9/4 11760
Dòng 11759
▁1,05 11756
▁Sirius 11756
hòa 11755
▁Jenny 11755
▁Hẻm 11754
▁Arafat 11753
▁7-6 11745
▁8,4 11742
▁Fat 11742
▁Jerry 11741
▁Zara 11741
▁Kanye 11740
▁2011; 11739
rắc 11737
▁cocktail 11736
▁7/11, 11732
▁CVT 11732
▁1%. 11729
▁CVĐ 11729
▁Hoạch 11728
▁Vas 11728
▁Warsaw 11728
Hãng 11723
▁ĐÔNG 11722
▁Village 11719
Str 11717
đổi 11716
▁3-1. 11715
▁Je 11713
No 11709
BĐS 11708
▁Aj 11704
▁gọng 11703
▁Meghan 11702
eran 11699
ū 11696
▁Iw 11696
▁NẴNG 11695
▁Film 11693
▁DHA 11690
hn 11689
▁August 11689
▁shoot 11689
êng 11684
▁10- 11684
▁323 11684
▁Prom 11683
▁nải 11683
▁3/11, 11681
▁quệ 11681
Chung 11680
▁DAP 11679
-09 11678
▁0,12 11675
▁2016-2020. 11674
otti 11673
▁1.21 11673
4.8 11671
▁oái 11670
▁trịch 11670
▁Sok 11669
▁County 11668
Hot 11667
Đào 11666
▁Guzman 11663
▁gùi 11663
▁0.8 11659
▁gióng 11657
▁TÂN 11656
▁Rơ 11654
▁diễm 11654
▁14/5, 11652
▁Vivo 11651
▁Hoon 11648
▁Walt 11648
▁25/5, 11645
To 11644
▁8,9 11643
▁254 11639
▁0,6% 11637
,56 11635
dale 11635
▁NKT 11635
▁Chảy 11634
Reuters 11633
atra 11633
road 11633
▁VNACCS 11632
▁Kyle 11631
▁Lí 11628
▁2/1 11626
gram 11624
▁Crambidae 11622
đẹp 11621
▁17/10, 11621
▁Versace 11618
▁crop 11613
cảm 11611
ocar 11611
▁IoT 11611
▁Sap 11611
▁Thào 11611
riêng 11610
▁Click 11609
▁Rong 11604
▁rần 11604
▁Lock 11603
▁VŨ 11603
▁11/2 11601
▁Gent 11601
Vòng 11599
▁TTg 11599
▁Thiểm 11599
▁Klose 11597
Ú 11596
▁1957, 11595
▁20/5, 11594
▁Nicaragua 11594
▁Alexandre 11592
▁1,20 11589
▁bêu 11589
▁khong 11589
▁(65 11588
▁GIỚI 11584
▁HPV 11582
▁3/8 11580
▁HQC 11580
▁Zh 11580
chuyến 11579
▁Gem 11579
▁Avatar 11578
▁Invest 11578
▁new 11577
▁"3 11572
▁Khế 11571
▁quạ 11571
▁Monster 11569
▁Showroom 11569
mad 11567
▁KHHGĐ 11567
▁7-10 11566
▁53% 11565
▁kheo 11565
▁25%. 11564
▁Chuyền 11564
▁257 11562
▁Jeffrey 11562
iểm 11561
▁TGPL 11560
▁1956, 11559
▁rating 11558
▁4.0, 11557
▁Eriksson 11557
▁Tat 11556
▁Felix 11555
Plus 11552
Ì 11551
▁Kok 11551
▁15/8, 11549
▁10-20 11548
▁Thản 11548
enta 11547
▁dậm 11546
bor 11544
ural 11544
▁Kings 11544
▁17/2 11539
▁1953 11536
▁65. 11536
▁Schumacher 11536
▁Ahmadinejad 11535
/03/2014 11534
▁2014-2015 11534
▁Ach 11534
asy 11533
▁Ballack 11532
alin 11531
Music 11530
▁ửng 11529
arov 11527
▁/. 11527
▁GPU 11525
1; 11524
uyen 11523
▁4/11, 11521
ngã 11520
oria 11516
▁Reina 11516
▁Tymoshenko 11515
▁14/4, 11514
lời 11513
▁8-9 11513
ican 11511
▁sủi 11511
▁Color 11509
▁Tẩy 11508
▁giãy 11507
▁Social 11505
▁3/11 11504
▁Orch 11504
▁chác 11502
▁dượt 11502
ulus 11501
▁1,000 11501
▁1941 11501
▁Rangers 11501
▁flav 11501
▁19/7, 11500
8%. 11499
▁Joshua 11497
▁type 11497
▁PHÚC 11495
▁Bắp 11494
▁Newton 11494
uman 11492
iflora 11490
▁5/11, 11490
▁57% 11490
▁Coc 11489
▁EM 11487
QP 11484
▁636 11483
▁Search 11483
▁chình 11480
▁street 11480
▁QSDĐ 11479
Li 11477
Lãnh 11476
▁Evan 11476
▁EA 11471
▁9-10 11470
▁Benz 11470
▁23/2 11469
▁Nemanja 11468
elson 11466
▁4/12 11466
▁SBD 11465
▁Crouch 11463
▁ĐTM 11463
bốc 11462
▁ĐTCK 11462
phù 11459
▁1.01 11459
▁Nic 11459
DO 11451
▁phablet 11450
/2010) 11447
▁** 11445
▁giẻ 11445
NASA 11443
к 11443
▁module 11443
▁Lok 11442
▁Rojo 11441
▁Tol 11441
360 11438
cn 11437
▁8.5 11436
▁ethanol 11436
đôi 11432
▁Yuk 11431
ổng 11428
▁dằng 11425
▁4/9 11420
▁61. 11417
▁690 11417
▁Hak 11417
▁9/6 11415
xóm 11413
▁Ahn 11413
1%), 11412
▁Đĩnh 11411
▁25/4, 11410
▁7/6 11409
▁Quát 11409
giám 11406
▁(62 11406
▁Moses 11404
Ben 11402
agh 11402
acker 11401
▁1957 11399
▁Sandy 11399
70. 11398
▁Nong 11398
▁413 11397
▁Darren 11397
.29 11396
đáng 11394
▁OECD 11394
cell 11393
▁23/5, 11393
-150 11392
LO 11392
▁History 11391
▁Lloris 11387
▁iCloud 11386
▁baby 11385
▁6-7, 11383
▁Mate 11381
▁dả 11381
▁1949 11380
▁8/3. 11380
▁toanh 11379
▁(90 11378
Nhạc 11376
▁(" 11376
▁85.000 11375
odo 11374
▁18/10, 11374
▁Bấy 11374
▁Jag 11374
▁Look 11374
▁Fle 11371
▁Quinvaxem 11371
▁ròi 11371
▁Bụi 11370
4.4 11369
worth 11368
▁Peng 11368
chấm 11367
▁2011: 11367
▁1955 11366
▁Bezos 11366
▁Muammar 11366
▁OTT 11366
▁23/10, 11364
▁Geographic 11364
▁Potro 11364
▁Kub 11363
ilon 11362
!. 11361
▁6/11, 11361
▁68. 11358
▁Cài 11358
▁nu 11358
emen 11357
phy 11357
▁nuông 11357
▁19/11, 11353
▁made 11353
iani 11352
▁xỉa 11351
họ 11349
▁9/2 11349
▁19/2 11348
▁Tango 11348
▁Coffee 11347
▁Trend 11347
▁18/4, 11345
▁THACO 11344
▁xập 11344
▁16/3, 11343
▁world 11340
tín 11337
▁Summer 11336
340 11334
dính 11332
▁14: 11332
▁ghẹ 11332
▁Mugabe 11330
nghĩa 11328
▁Zac 11328
▁cap 11328
▁Ỷ 11328
▁Century 11326
▁Pang 11326
▁bỉnh 11325
▁11° 11323
▁Nev 11322
▁Rim 11320
▁Kiếp 11319
▁HKTT 11318
▁Wook 11318
tử 11314
-38 11313
▁Thả 11313
▁Saleh 11312
▁nguời 11312
▁thủa 11312
▁12/5, 11311
▁Hin 11311
bánh 11310
uga 11307
▁16/11, 11307
andr 11306
bis 11305
▁3). 11304
TTH 11302
ỉa 11302
kim 11300
Av 11297
Par 11297
▁HR 11297
đấu 11295
▁9/5, 11295
▁diếm 11295
▁mod 11295
thánh 11294
ANTĐ 11293
199 11291
Nghi 11291
▁chipset 11290
▁CƯỜNG 11289
break 11287
▁Monica 11285
▁262 11283
▁Geo 11283
▁286 11282
▁10/5, 11280
▁THƠ 11279
ún 11277
▁That 11277
cú 11276
▁rớm 11273
DF 11270
▁Khơ 11270
lish 11267
▁Landmark 11267
Thường 11265
rd 11265
▁Friedrich 11265
▁Jesse 11264
Top 11263
▁Chiellini 11263
▁0,75 11262
ghế 11261
▁chếch 11260
osp 11258
imus 11256
▁Omega 11256
chim 11255
▁ARM 11255
▁IA 11254
▁1.17 11252
▁Hyd 11252
sun 11251
▁Marquez 11251
COC 11250
▁Claire 11250
News 11249
▁Giàn 11249
DB 11248
▁25/11, 11247
▁475 11246
▁5/5, 11244
▁Lênin 11243
▁Sếp 11242
Tỷ 11241
▁SAB 11240
▁Vissai 11240
▁Aer 11239
▁Scolari 11239
▁098 11238
5,6 11237
▁mố 11237
▁243 11236
▁Plat 11235
▁302 11234
ming 11233
▁Kg 11228
▁nhộng 11228
.2018 11227
ishi 11227
▁Đàng 11225
▁Sib 11223
Trò 11222
▁Cart 11222
▁30/1 11217
▁NTBD 11216
nàng 11215
ovsky 11215
▁4/4, 11214
▁webcam 11214
▁TÍCH 11213
▁Ralph 11212
▁cocaine 11212
Đan 11210
▁1520 11210
▁16/9, 11210
▁buffet 11209
▁Infinity 11208
▁19/1 11205
▁Lon 11205
▁Kazan 11204
eton 11202
▁chườm 11202
ring 11200
č 11200
Dưới 11199
▁1/12, 11199
▁DUY 11199
▁MAI 11196
Euro 11195
▁AA 11195
▁1.14 11194
▁2/11, 11192
▁Phun 11192
▁27/7, 11191
ional 11190
reen 11190
▁crôm 11190
301 11189
▁PHONG 11189
▁VNE 11189
▁13,0 11187
▁ASEM 11184
▁Dê 11179
▁Ksor 11179
,58 11178
▁Grey 11177
▁Wind 11177
ECB 11174
▁Nob 11174
▁phone 11174
▁AEC 11173
Mu 11172
▁Get 11172
▁Nation 11172
▁14/11, 11171
▁cr 11171
mô 11169
trọng 11169
▁1944 11165
▁13/3, 11164
▁ov 11162
Giết 11161
sw 11160
▁Code 11160
▁6/4, 11159
▁Liều 11158
▁Cassano 11157
▁MĐ 11157
ền 11156
▁CƯ 11156
sổ 11155
▁lụng 11151
▁nhãng 11150
wi 11149
▁Challenge 11149
▁mơn 11149
▁Yatsenyuk 11147
▁HỘ 11145
Thầy 11144
▁Heidi 11142
▁4/8 11140
▁5/2 11139
food 11137
▁13/2 11137
▁21/3, 11137
▁tie 11136
▁6-1, 11133
uo 11132
▁VĐ 11132
▁Clear 11129
.2012 11127
Bong 11126
2.8 11125
ÊN 11124
▁19/3, 11124
▁Pent 11124
▁18/5, 11123
▁26/10, 11123
▁Hil 11123
Ð 11122
▁Carol 11122
▁TƯỢNG 11119
Sm 11118
Fone 11115
UNG 11114
▁QQ 11111
tiến 11107
SK 11105
▁21/4, 11104
▁giũa 11104
ā 11103
▁Gianh 11103
▁Sophie 11102
▁ĐNa 11102
ple 11099
▁Dion 11099
▁loi 11099
▁23/11, 11096
▁27/4, 11096
ngành 11093
▁13/10, 11093
▁FPTS 11093
▁vẻn 11092
▁Retina 11091
▁TRỌNG 11091
▁CÁCH 11089
▁Huổi 11086
▁Hoán 11084
▁Platini 11083
2%. 11081
TĐ 11081
▁18/11, 11080
10.000 11078
Muốn 11078
▁11/10, 11076
▁17/11, 11074
▁Mertesacker 11074
tốt 11073
▁line 11073
▁quạnh 11072
▁time 11072
erg 11071
▁POS 11070
Link 11069
▁ĐKDT 11068
в 11065
qi 11060
▁Yaris 11059
▁Mountain 11056
▁Oz 11056
ouch 11054
▁8/8, 11054
▁Shell 11054
▁composite 11051
đợt 11050
▁alb 11046
Võ 11044
▁Rep 11044
▁sít 11043
▁Fuj 11040
▁HSMT 11039
▁Tát 11039
▁16/2 11037
▁24/5, 11037
▁3), 11037
▁mường 11036
▁Head 11035
▁Mk 11035
▁15/7, 11034
▁244 11034
▁Care 11033
eus 11032
▁5/9, 11032
Co 11031
▁19/10, 11031
▁230.000 11030
▁Kidman 11030
,57 11029
He 11029
uyện 11029
▁Women 11029
▁Beck 11028
thả 11027
▁PHỐI 11026
lông 11025
110 11023
▁NNT 11023
▁8- 11022
▁Bổng 11022
▁ĐOÀN 11022
▁740 11021
▁bẫm 11021
▁xụp 11021
▁26/7, 11020
3.6 11018
oul 11018
rell 11018
▁Olivia 11015
▁PVT 11015
▁22/3, 11014
;- 11013
▁reg 11011
West 11010
▁20/7, 11005
dành 11002
▁Montreal 11002
▁Atalanta 11001
▁11/ 11000
▁13/11, 11000
▁Gibbs 11000
▁80. 10998
▁Wen 10998
jun 10997
▁Megastar 10995
▁Rosario 10995
▁Tip 10994
▁Tiệc 10994
coli 10992
tội 10991
▁OTC 10991
▁30/10, 10990
Mac 10988
▁1936 10987
▁Fo 10987
▁Lừ 10986
AG 10985
iar 10984
nhôm 10984
▁312 10984
▁599 10984
,52 10983
▁Mov 10983
▁Tsonga 10982
▁22.7 10980
▁Syn 10980
/2019. 10979
Cựu 10978
▁Vpop 10978
▁2" 10977
uyệt 10976
▁loát 10975
▁Đốt 10975
▁Ivy 10973
▁PCA 10972
▁THƯ 10972
pos 10970
▁236 10970
▁7/3, 10970
▁3/12 10962
dao 10961
ngân 10961
▁Litva 10961
ih 10960
urus 10960
▁54% 10956
▁23/4, 10955
▁oằn 10955
▁Nghiệm 10954
▁seri 10954
▁10/8, 10953
▁13/5, 10953
▁16/5, 10951
▁nghịt 10951
[...]
